#version: 0.2
Ġ e
e r
Ġ d
Ġ s
e n
o s
e s
Ġ a
o n
Ġ p
q u
Ġ c
Ġ l
t a
r a
i n
Ġd e
t i
Ġ m
Ġ qu
o r
c i
Ġ n
i s
r e
Ġe s
t e
a n
u s
u n
a s
u m
a r
Ġ v
a m
Ġ h
t u
l i
t o
d o
o m
Ġ in
Ġ f
Ġl a
Ġe n
d i
Ã ³
r i
Ġqu e
Ã Ń
Ġ y
a l
Ġe t
d a
r o
Ġe l
e c
Ġc on
Ġd i
Ã ¡
e m
Ġ i
l a
Ã ©
Ġes t
Ġs e
i t
e l
Ġn o
i c
Ġ A
Ġ t
â Ģ
Ġ un
d e
Ġh a
Ġ o
Ġ D
Ã³ n
Ġs u
o l
u l
Ġ re
Ġqu i
b i
a t
r es
Q u
l e
Ġ C
i m
Ġ g
Ġp er
s e
c e
Ġl os
Ġn on
. .
un t
t er
Ġ I
c a
i a
Ġ S
Ġm e
tu r
en t
u e
Â ¿
Ġp a
qu e
Ġc om
Ġde l
Ġs i
er e
v i
en te
Ġ b
Ġa l
Ġv i
t ra
Ġl o
Ġ E
ci Ã³n
Ġ P
c h
Ġa d
s i
g o
l o
Ġp ro
a c
ÃŃ a
u t
b ra
da d
Ġa n
m a
Ġ (
Ġ te
Ġp or
Ġ tu
Ġ M
e t
Ġe x
Ã ±
a e
Ġd es
o d
er o
Ġc u
Ġ 1
er a
p i
ci a
ta n
ti on
m o
ĠD e
ta s
t r
m p
Ġ ti
t es
L a
en ti
Ġl e
d os
Ã¡ s
i o
g n
u es
E s
o c
Ġm i
u r
b a
ra n
g u
Ġs unt
an do
p a
Ġl as
i b
N o
Ġ 2
bra h
m i
Ġ to
on es
Ġpa ra
Ã º
E l
Ġp o
brah am
.. .
Ġun a
u er
te m
o ra
v er
qu i
ti s
ta m
en d
Ġc a
b re
g i
Ġa c
E t
Ġ [
Ġm a
Ġn os
en ta
Ġ res
p er
Ġha b
en s
âĢ Ŀ
f i
ĠA braham
Ġi l
e d
Ġp os
c o
z a
Ġ L
Ã¡ n
in a
Ġv er
g a
i os
Ġs er
i l
Ġm is
Ġ R
Qu i
d u
Ġc um
v a
Ġ T
Ġ âĢ
l es
Ġs in
en to
Ġp r
Ġs o
v o
r is
a b
Ġm u
Ġa u
U n
t or
Ġc re
Ġ j
ic a
Ġ F
Ġ Â
Ġes se
n o
en e
tu ra
c u
p e
t um
E n
ĠDe us
D e
Ġn a
ta r
t ro
j o
Ġ B
Ġ V
Ġd is
Ġ ut
p on
Ġs on
Ġa li
Ġp ar
Ġ N
or es
Ġc i
ĠI s
t os
p o
v e
ti o
Ġ G
om in
t us
Ġp ue
Ġqu od
tr os
I n
en i
ent es
Ġcom o
a d
i us
Ġm Ã¡s
Ã© n
Ġa r
Ġf a
Ġt ra
i li
en cia
c ri
Ġ H
Ġs us
Ġ J
on e
f er
p os
l os
or e
d er
Ġp ri
Ġcon s
S i
a li
c es
ĠD ios
ci t
en di
ĠI n
u d
ci o
Ġa s
i ta
Ġa m
Ġ Ã
ci ones
Ġ Ã©
t re
t in
om o
Ġm an
Ġ Â¿
Ġa qu
Ġ "
a do
c ul
Ġl ib
al es
Ġ2 0
Ġqu am
Ġp re
Ġm o
Ġs ol
c on
Ġf u
Ġc or
Ġa p
Ġc o
Ġ ta
Ġqui d
s o
ec es
Ġin ter
Ġd u
c er
Ġn e
g un
h i
Ġper s
es ti
ar i
Ġes ta
e li
r u
Ġdi c
ĠA l
qu am
om n
or i
Â ¡
Ġf or
ĠâĢ ľ
Ġ O
en do
) .
h e
S ed
Ġi mp
Ġf ac
Â »
d es
os o
Ġ :
Ġ -
Ġo b
Ġo p
an o
C on
v it
C u
f ec
g ar
Ġs al
m e
Ġa b
an t
n e
Ġ omn
Ġt er
ch e
Ġn i
Ġp u
Ġh i
o b
ic o
on a
er ic
er i
P or
âĢĿ .
s a
N on
g ra
d as
Ġ is
n a
Ġqu ae
an a
e b
in o
l am
L os
Ġha y
Ġ r
Ġe ra
Ġp as
ec h
Ġ u
ĠE s
ĠIs ra
di a
i r
on i
Ġv ol
Ġen im
Ã© s
en a
li ca
p u
di t
ri o
z i
Ġsu b
Ġ tan
M e
em p
Ã± o
Ġse d
Ġdes c
em os
fi ci
b o
P ero
Ġc as
in i
S e
Ġc ar
Ġ bi
Ġ us
t ri
Ġau tem
eric or
f ica
Ġpo tes
Ġ tam
Ġg ra
Ġcon tra
om bre
m os
s im
Ġp l
ĠÃ© l
is i
Ã ł
in e
m an
Ġs a
j os
Ġt en
âĢ Ļ
Ġ ra
Ġmis ericor
Ã³ mo
l as
Ġn eces
Ġg us
Ġest Ã¡
d en
Ġte mp
a ra
Qui d
Ġd a
Qu Ã©
ci on
tion em
Ġf i
Ġaqu ÃŃ
Ġl u
v en
Ġe um
Ġ 3
âĢ ¦
am os
Ġm al
t en
âĢ ľ
A l
c um
Ġe ius
Ġn ues
0 0
ci as
p ues
di o
ce p
l is
Ãº n
Ġp ec
Ġv e
H a
Ġp ra
Ġv o
b er
Ġqui en
p or
an c
Ġm ul
tion e
Ġv el
el la
j e
ĠIsra el
an te
Ġmu ch
Ġre c
am ente
Ġc os
gu i
g e
Ġs ec
Ã± os
p ar
Ġf uer
Ġf ue
Ġdi ci
Ġm on
Ġpue de
Ġp i
u i
Ġv os
Ġqu a
Ġ or
ĠC on
b e
Ġ20 1
Ġbi en
di c
ar io
Ġque m
Ġqu o
or um
Ġs im
Ġes to
ti tu
ta e
Ġqui a
Ġm or
Ġes te
al e
Ġde ci
u c
ra s
re c
Ġg en
Ġ1 9
Ġa ut
Ġh um
Ġfa ci
Ġdi ce
Ġpotes t
li a
Ġen tre
in ci
du c
Ġo c
Ġpro p
f ic
un d
ĠS e
Ġin s
er on
la h
Ġper o
Ġso bre
us a
Ġd ÃŃa
Ġan te
m in
Ġh oc
Ġpri m
Ġf e
Ġpr om
z o
Ġe r
f or
ÃŃ as
ĠÃ ¨
Ġgus ta
Ġc am
ri a
Ġy o
I l
Ġv en
b us
Ġc he
Ġqu Ã©
Ġi p
un c
m ente
Ġver dad
un do
Ġha cer
ĠÂ «
Ġ ri
d em
ĠE l
Ġs em
C om
Ġno che
Ġto do
ti c
i or
Ġm in
Ġqu is
x it
Ġcom p
Ġa t
Ġv ero
Ġc ol
Ġ ?
ti a
Ġti ene
Ġvi da
er ra
Ġs it
Ġno c
s um
Ġcu ando
r os
Ġb u
gn i
Ġs ab
un i
Ġl le
ta te
Ġm at
" .
l ar
Ġl es
o g
p ul
Ġc an
ti vo
b le
tion es
n i
Ġ Y
qui d
D i
b is
Ġp res
Ġ La
v os
Ġto dos
Ġomn es
ent os
a u
Ġ os
te l
Ġ 4
j a
er unt
ci s
Ġan no
n os
Ġan im
li c
ri m
Ġe a
Qu e
v is
pa ra
Ġ 5
enti a
Ġh ora
di e
Ġdi cit
v an
A n
Ġj u
ti ca
Ġh as
as i
Ġ No
Ġna tura
er os
g os
Ġp od
g en
al a
Ġv is
ris to
p ec
Ġf in
ĠA n
Ġres pon
R e
Ġin c
Ġcon si
ĠR e
g li
Ġg ran
I I
Ġna da
t ÃŃ
Ġres pues
Ã± a
d re
es ta
t on
ĠAl lah
Ġera t
Ġvi de
Ġm ÃŃ
an to
ĠDe i
Ġs ac
zi one
Ġha ec
C Ã³mo
Ġmo do
Ġcom enta
en o
g is
h il
b u
an i
vi d
ĠÂ »
m as
ar ia
Ġh omin
ac ob
es pon
Ġin v
Ġp at
ĠIs a
Ġd os
p ro
ti am
e di
ĠC h
ÃŃ an
Ġmi hi
j er
ci ta
Ġe m
Ġp la
Ġvi r
us ti
1 0
mi ento
ta tem
Ġrespues ta
ti r
oso tros
el o
Ġmu y
Ġf al
te d
u b
m is
Ġpr inci
l an
cri p
L e
al is
es t
Ġa mi
Ġel los
Ġdi jo
d am
Ġh u
Ġqu ando
h a
o y
ĠIsa ac
Ġdel la
Ġdi v
Ġmis mo
Ġe go
Ġc er
1 4
l ec
ĠS i
Ġs um
2 0
Ġel ec
Ġh ombre
Ġd ol
Ġp ues
Ġs ic
g el
ta do
E x
gu a
i Ã³n
en da
Ġo f
ta d
tor ia
1 9
Ġi ta
Ġd om
Ġ .
) ,
ta l
Ġha bi
x im
Ġcon se
Ġh is
Ġca usa
ech o
e a
li dad
n am
Ġti em
Ġcu al
c an
Ġn um
gn o
A s
Ġ /
g an
g ina
z ar
Ġpos t
Ġb ene
Ġm enti
ci l
ĠE n
e ter
Ġpers ona
Ġ ...
Ġdesc end
Ġy a
gn os
L o
Ġter ra
Ġex p
ul ar
r Ã¡
Ġdi f
du ce
Un a
L as
e x
Ġe os
ch i
ĠC ar
p h
Ġh er
Ġsin o
o ci
ris ti
Ġfor ma
Â «
Ġf ili
Ġhab et
1 1
l u
ĠM a
ver s
ĠD omin
P ro
Ġa Ã±os
un tur
Ġ Qu
h ora
p is
Ġsu a
bi Ã©n
P er
b an
Ã £
g Ãºn
Ġun o
d is
Ġcomenta rio
ĠE t
Ġn ue
li g
O R
Ġv eni
ib us
ÃŃ s
D es
Ġf ra
p re
Ġc ul
les ia
Ġde c
Ġtra ba
el ar
Ġm uer
Ġsu per
da e
u ta
Ġpro f
a re
Ġm en
Ġpers on
g re
A r
Ġme j
c ar
ce t
Y o
l em
d ere
pi o
Ġ U
Ġp e
an os
Â» .
tion is
Ġm ar
Ġnos o
Ġes o
end er
bra s
Ġl lam
m on
Ġtiem po
te g
Ã± or
at us
pos i
d in
v es
â Ĩ
c c
u it
d or
en es
cul o
h o
Ġpos s
Ġnoso tros
u p
Ġsu o
e ta
ri tu
Ġ Un
Ġe i
l us
Ã© is
ĠL e
Ġsol o
Ġ W
g in
Ġun i
di am
ĠâĢ ĵ
s er
or ia
Ġm undo
emp re
Ã³ lo
Ġv a
re o
b res
om e
si on
Ãº s
Ġc el
Ġde b
] .
Ġpar te
Ġti bi
Ġdici tur
Ġs an
Ġt ran
Ġta ber
Ġsu e
Es t
ĠC anc
o k
ens a
Ġtu a
ch o
j ar
pe ci
. "
Ġal go
Ġi m
ĠR om
Ġt res
ĠD i
Ġ20 0
Ġp on
ĠCanc elar
Ġc h
ĠM ar
ul la
Ġha ce
gn a
espon der
Ġtam en
Ġi am
ĠP ro
Ġin f
ci p
Ġ 6
Ġha c
Ġcre a
t Ã³
Ġa Ã±o
us to
ti va
Ġs ÃŃ
v eni
A d
Ġme a
Ġcon f
tu ro
Ġti erra
Ġv osotros
Ġal l
Ġali qu
Ġis ra
Ġh e
M i
Ġde i
Ġs ci
gi tur
Ġam or
Ġre li
un a
Ġt esti
ue go
tro duce
ta t
ĠÂ ·
Ġhi jos
ĠA r
ĠC risto
Ġdeci r
C a
Ġa g
Ġas ÃŃ
ol o
im us
Ġpor que
ī l
Ġali quid
Ġes cri
e o
Ġ |
b ar
V i
ci os
Ġd on
ĠC a
1 2
O S
li o
dad es
ra r
re m
tra s
Ġtam biÃ©n
! !
Ġf am
ĠIn troduce
Ġus ted
Ġb on
Ġau di
Ġper fec
C or
Ġcom m
1 5
Ġal gun
Ġfu turo
Ġm ol
Ġt ri
Ġprom is
Ġhas ta
Ġe j
g res
Ġver ita
u a
Ġh om
Ġfac ere
Ġmisericor dia
Ġex is
u la
Ġle g
si ones
Ġ1 0
Ġm om
Ġsin e
Ġfa v
Ġh an
Ġt Ãº
ton ces
tam ente
Ġd omin
Qui Ã©n
Ġme di
Ġde f
i u
Ġest Ã¡n
ch a
Qu am
i ci
n on
Ġpa re
i re
Ġser vi
Ġtan to
i ores
Ġpar ti
Cu ando
Ġquid em
l um
ta re
Ġv es
Ġi d
ĠP a
C omo
Ġo ra
Ġn un
Ġb a
tan te
oc o
u el
P ara
Ġla b
p ti
Ġ ro
Ġhab ÃŃa
Ã ¨
Ġel la
ri t
ib le
ver si
er to
Ġci r
ĠC om
l la
li um
Ġi u
l ti
Ġcu i
en en
it ter
R ec
Ġre ci
p era
c to
Ġs enti
al mente
a ce
v as
1 8
Ġes s
Ġqu an
Ġ 8
Ġd o
Ġab s
Ġto da
. âĢĿ
u ro
en si
for ma
is se
endi t
y o
de o
Ã §
r um
Ġin tel
Ġvir tu
ĠN a
Ġve z
Ġsic ut
Ġa y
Ġre p
es a
S u
or em
e at
end um
I mp
Ã³n ico
h el
r ÃŃa
Ha ec
b at
Ġso y
p li
d um
v ere
m us
Ġil le
Ġdi xit
Ġlib ro
Ġcos as
Ġelec tr
c us
Ã³n de
1 3
Ġe is
Ġd oc
lo g
Ã£ o
omo do
Ġel lo
Ġmu jer
Ġmej or
ar on
Ġnoc tur
Ġse a
ĠJ es
Ġco gnos
i ento
di ca
Ġh ic
Ġmisericor diam
T u
Ġpa dre
Ġpo pul
Ġmuch o
er ia
ĠSe Ã±or
1 6
in g
Ġcas a
Ġn unc
Ġv ul
s is
er um
on o
Ġh echo
T i
em bre
Un de
u da
ĠÂ ¡
ti co
P os
o la
Ġre la
ri os
Ġp uer
Ġpl us
Ġ 7
s us
Ġnoc te
Ġ X
un que
Ġp ala
bo ok
Ġcon fi
As ÃŃ
v el
Ġpos si
Ġv ia
Ġ 9
Ġlib er
tor es
Ġm od
Ġelectr Ã³nico
Ġn ombre
Ġes e
mi r
g as
Ġvi vi
en de
qu a
es to
und um
ĠS an
c el
Ġc al
Ġlu gar
. )
ad re
g ue
u ra
Ġsin g
T o
Ġqu in
T e
1 7
S in
en za
Ġm as
Es to
Ġsi gni
Ġtu o
Ġni hil
Ġcon tin
Ġreli gi
Ġfam ili
Ġesta ba
Ġvi ta
b it
d ar
Ġe mp
pa Ã±
Ġdis tin
ent um
Ġl i
Ġpu b
Ã© r
g ando
in os
Ġtemp ore
ci d
E r
M Ã¡s
Ġn om
ĠD a
p ÃŃ
M a
y a
er no
T er
Ġhom bres
ace book
Ġpue b
Ġme us
ti que
ec e
Ġip se
tra r
bi le
un to
Ġnues tro
Ġe o
ul ta
c as
an dae
Ġil li
qui er
m or
an s
p ero
Ġso ci
ec u
Ġsu f
ver unt
Ġmi l
ĠS a
Ġcon c
ra m
ÃŃ n
i d
an za
Ġer r
Ġap ud
Ġpri ma
g io
v ar
s u
Ġt us
Ġan ti
Ġtran s
Ġdi e
tam os
er at
Ġs ta
an tes
Ġde us
v ia
Ġe tiam
âĨ Ĵ
Ġer go
Ġv al
Ġel e
Es ta
Ġs Ã³lo
Ġf un
Ġg l
Ġaqu el
Ġcar ne
pu Ã©s
P o
Ġqui Ã©n
Ġsi empre
Ġpre gun
at um
ran te
Ġcu er
Ġsin t
Ġmom ento
Ġre ali
Ġa do
Ġqui ere
Ã ¹
Ġesse t
ci do
bi li
v ol
Ġ Ãº
âĢ Ķ
per i
A t
Ġn es
Ġi r
ĠC or
Ġfav or
Ġh o
er es
ta ciÃ³n
Ġsu r
cu ent
Ġ1 5
D ios
C um
A N
g eli
Ġqu asi
Ġ1 8
cul os
is ti
m ar
er is
n es
ĠV i
Ġa hora
Ġm er
Ġi gitur
fer os
Ġser Ã¡
Ġn ulla
g lesia
gui ente
Ġtu t
qu Ã©
] ,
a g
Ġ ul
H ab
ĠP at
M u
an d
d ores
Ġsing ular
ĠÃ ł
z Ã³n
Ġen con
an tur
Ġnues tros
Ġma y
Ġa f
Ġse gu
Ġac cep
Ġconsi der
n ae
Ġm es
E S
or da
m ina
Ġ ori
Ġes tar
Ġu ti
ech a
c ere
c era
s it
N a
V I
os a
Ha y
Ġ ris
Ġf r
Ġmor tu
ic os
ter ior
ĠA s
Ġvol un
Â ª
Ġcam bi
Ã ²
Ġno bis
is te
Ġo tros
v ÃŃa
Ġ Ã¡n
Ġan tes
p r
Ġe f
Ġ '
Ġsi do
ar ios
ĠAl Ã¡
Ġd ÃŃas
ar um
e dad
ĠI acob
ĠS al
Ġnues tra
Es te
Ġpueb lo
Ġo tra
Com par
Ġ um
le za
Ġd ar
Ġg u
bi r
Ġes c
j un
Ġil la
ri mir
ÃŃ o
Ġau x
Cor reo
enti s
Ġin i
Ġe ran
Ġgen era
Ġbu en
Ġdi x
in t
Ġci u
Ġas c
ĠCar gando
Ġdon de
Er go
w itter
Ġn in
es o
Ġme um
ĠL os
e bra
am o
ol og
Ã ª
Ġin vi
di Ã³
Ġdol or
m it
S al
or d
Ġd er
Ġm em
Ġimp or
i to
Ã¡ l
Ġme dio
re t
tu d
Ġmen os
Ġnos tra
c ce
cion al
ĠIn feros
Ġ w
s te
Ġs or
or is
Qu ae
b as
h ÃŃ
Ġi ma
Ġs om
Ġti enen
ti vi
enti am
Ġl ec
Ġsa pi
ĠUn i
2 2
I ta
Ġ >
E go
tri bu
Imp rimir
ĠP adre
u o
tu lo
Ġes tu
Ġdi es
Ġpue den
t Ãł
en cias
im o
E R
t res
ĠJ acob
f a
c om
A braham
Ġdes de
Ġc Ã³mo
ĠâĢ Ķ
ente m
er do
Ġmuer te
Ġo tro
Ġperson as
R esponder
Ġto das
Ġca da
im os
ĠD E
is ta
De us
Ġcon di
Ġp oco
Ġl in
Ġil lo
Ġcon oci
j es
l in
Ġac tu
Ġnos tri
Ġcor p
F acebook
Ġse gun
Ġhomin es
Ġ !
Ġa it
tor i
Ġta l
emp lo
Ġes cu
ĠS u
Ġcu r
Ġs crip
gel es
Ġa ma
D ic
Ġop era
Ġm ori
de a
Ġal la
is tra
A li
oni am
ti m
g it
Ġsub jun
ga do
ĠF ran
Ġali quam
Ġhi zo
Ġgran de
Ġsubjun tivo
ĠA d
Ġgen er
Ġd or
o t
Ġne que
Ġfuer it
T witter
o og
ĠÃ īl
it um
Ġ tur
Ġmuch os
or ÃŃa
Ġvol up
C ur
Ġj usti
Ã¡ r
oog le
ba tur
Ġqu er
ec a
Ġcon ta
Ġtraba jo
Ġma gis
Ġle y
Ġhi jo
Ġpec ado
âĢ ĵ
Ġcom e
si one
Ġpo t
c ur
Ġ âĨĴ
E N
Ġa bi
Ġen cuent
Ġca us
ĠâĢ ¦
ia e
Ġ tar
Ġconse qu
Ġse x
ti ma
z as
Ġt enta
m en
pi ritu
c os
Ġcos a
D is
ar is
Ġ ur
uer do
Qui en
Ġ âĢĿ.
tura s
N os
er n
Ġat que
tÃŃ culo
Ġvul t
tr um
ur rec
G ra
Ġfe cit
Ġ K
Ġvi v
Ġen vi
er te
Ġe res
ti t
un di
isi Ã³n
Ġsec undum
ci pi
Ġsigni fica
Ġaux ili
Ġv ues
ĠE x
Ġher man
er it
Ġmul ti
Ġprinci pio
y s
al em
Ġdu o
el l
Ġsus cita
Ġes a
Ġun de
b lem
Ã³ s
Ġpri mo
p le
Ġc ora
am iento
Ġali a
es i
sim o
N e
Ġan nos
Ġ1 2
3 1
cul um
la ra
er as
Ġde be
Ġpla cet
ĠN on
Ã¡ gina
ad or
en tur
Ġnue vo
ĠÃº lti
b les
ol e
ti um
Ġo l
Ġpa d
Ġson o
am us
Ġs cri
S ec
Ġnun ca
Ġf Ã¡
Ġdi mis
Ġhis toria
Ġh ere
Ġin di
Por que
la do
ĠDa vid
Ġes peci
i dad
j as
Ġdes i
Ġcon ver
Ġg li
Ġb us
eli tas
Ġfac tae
ĠT i
H eri
ti l
Ġpromis siones
H oc
Ġdi fer
Ġisra hel
od os
Ġpl an
Ġpra e
pÃŃ ritu
ent ro
Ġ1 6
Ġten go
Ġb el
vo ca
P re
V er
ĠM e
Ġe am
O N
a p
Ġin fi
g ia
Ġen tra
u di
ci r
Ã¡n do
Ġquo que
or o
Ãº m
Ġma dre
gui en
ĠV er
Ġtaber nam
s tan
im a
im mo
Ġdes puÃ©s
o o
Ġnoctur nam
Ġtaber nae
Ġi imus
Compar tir
so lium
Ġsub solium
ĠRom a
Ġquan tum
ri ca
g es
ĠM o
Ġsim ili
u x
Ġcon oc
H ome
Ġcre di
Ġall ÃŃ
2 5
Ġn isi
tu a
Ġex tra
Ġor den
Ġpare ce
Ã ¦
Ġso la
Ġf il
Ġsi er
Ġvo ca
Ġcual quier
N i
is mo
Ġ ,
Qu od
ĠL ib
z za
Qu is
ar Ã¡
Ġc ru
Ġm ora
Ġf eli
Ġem bar
Imprimir Me
A c
Ġca pi
Ġv in
ĠI ta
ĠA m
Ġvide tur
Ter cera
C re
Ġman i
Ġcomp le
S o
em o
n um
ci Ã³
Ġf o
li us
Ġ1 4
ta tis
Ġsac erdo
Ġal ma
P ues
Ġhab eat
Ġe qui
Ġcul pa
bi lidad
Ġten er
Ġs anc
Ġcre y
Ġc e
Ġqu os
di do
tr u
i cio
p res
ter io
T ra
un da
ĠI I
Ġtemp ora
Ġr om
Ġp ol
oni um
Ġverita tis
Ġd Ã©
2 00
Ġman era
Ġg ente
Ġl on
Ġconsider andae
g um
Ġb as
Ġnes ci
ĠH i
Ġes per
ob is
r Ã¡n
er s
ar es
ĠI glesia
der unt
Ġpos i
Ġc eter
i te
ti vos
Ġembar go
Ġprim era
sim us
l en
ĠR esponder
Ġtan tum
Ġsem per
A S
a dos
Ġqu as
in de
li ci
Ġfi de
Ġar ti
C I
ĠF a
Ġesto y
Ġpi Ã¹
Ġm us
Cu i
P r
b ri
pa re
Ġci vi
s os
y e
Ġca p
ti do
at or
bi lis
Ġu bi
ĠÃ¡n geles
tr uc
enti ae
3 0
Ġin fer
fi cio
S on
f o
Ġcu ius
Ġse gÃºn
Ġdesc endi
Ġha cia
ĠE uro
Ġcons titu
Ġinter ro
Ġtu am
Ġquien es
pos t
isse t
cc lesia
le g
ter a
Ġb log
sion em
ec er
ĠfÃ¡ cil
b ol
Ã ī
Ġpra es
P a
ent ras
A R
ens u
? ?
Ġp ens
Ġ1 7
Ġv esti
Ġfuer on
Ġfor m
van geli
Ġcuer po
Ġ1 1
Ġes pa
tan t
it us
Ġen tonces
ti fica
Ġt es
tin o
an as
la ciÃ³n
P ub
Ġdic ere
Ġtesti mon
Ġs Ã©
om a
Ġh oy
d era
ĠJ u
Ġac er
M ar
Ġta b
Ġqu al
ĠelectrÃ³nico ImprimirMe
I s
ter i
Ġerr or
e te
Ġa di
Ġprinci p
N um
Ġv uel
Ġdescend encia
Ġisra elitas
2 3
er us
Ã ¬
Ã± ana
Ġdel l
Ġpod er
Ġti enes
Ġre y
Ġs ali
at ro
tan tes
Facebook Twitter
Ġfu era
ta dos
Ġm os
Ġt ro
Ġhab er
Ã īl
ĠP or
Ġmat eria
. ,
r en
Ġlo qu
R ed
Ġd al
Ġcu enta
du ca
Ġher m
Ġciu dad
ri e
gn um
Ã¡ is
in as
pa Ã±a
2 6
d on
un o
Ġper man
Ġte x
u to
t Ã©
Ġg entes
tan do
Ġdic ens
Ġe rit
Ġv oc
Ġdescend ere
ri to
Ġdu rante
gun a
es se
Ġc risti
Ġs peci
Ġsim il
Ġanim a
Ġdi lec
Ġh omo
post Quam
Ġg i
ĠCh risti
Ġtu um
lica do
En tonces
Ġpar tes
Ġfu it
Ġherman os
R es
Ġ on
ra ciÃ³n
al o
le x
Ġpro duc
r on
Ġde m
Ġf ru
Ġsol us
t h
Ġlib ros
Ġis ta
sion is
Ġ Qui
qu ae
Ġdi ver
ul o
.. ..
A M
2 8
r Ã©
ta ti
Ġdomin us
Pos t
ĠC u
Ġdis c
Ġpue do
A hora
ĠM i
ĠJes Ãºs
Ġqui ero
Ġex c
g us
Ġv obis
uer ra
p as
ĠA gar
. -
00 0
t to
V o
da do
Ġt ene
fec to
Ġpec ca
Ġo jos
? "
Ġmul ta
T en
Ġs tu
Ġmay or
ĠP ar
qu is
Ġcas i
Ġay ud
Ġpala bras
Ġ 0
Ġs ent
Ġfili i
ru p
Ġmuch as
Ġmin is
pos to
i en
Ġqu oniam
Ġimp os
Rec orda
Ġc in
ter e
Ġpue des
Ġfue go
end is
Ġob li
Ġv eces
it os
Ġet c
Ġl ÃŃ
Ġcel ebra
Ġdi cho
ic as
Ġi gu
Ġres urrec
Ġa e
ti v
Ġl en
Ġpro pi
I am
. '
ci dad
L uego
on em
tic as
ĠA p
S er
l lo
e z
re g
b um
Ġfamili a
Ġcon t
Ġmis ma
Ġnatura leza
g ere
Ġvis to
d us
Ġomn ia
b ant
it Ãł
Ġsab er
os e
es s
Ġv ic
Ġdi lig
Ġap p
Ġan gel
p ere
ÃŃ do
Ġa v
te c
Ġbu eno
fec tus
2 4
Ġtoda vÃŃa
Ġposs unt
Ġalgun a
i de
Ġ *
Ġdef ini
te mp
rim on
en ter
Ġf re
bi a
Ġami ci
Ġin t
ĠA c
Ġpr ue
ce de
e tas
Ġhab ere
Ġqu omodo
te t
Ġhum ana
âĢ¦ ]
f ÃŃa
Ġhora s
Ġneces s
min istra
D Ã³nde
qu it
r ma
vi o
Ġfa cit
ĠH is
unt os
Ġdes per
Ġo dio
Ġop ini
Ġp es
si Ã³n
ĠC as
pe ti
er na
Ġcu anto
Ġpec c
Ġterra m
pi di
Ġsab e
Ġp an
za do
Ġna die
tic os
Ġc at
m enta
p an
Ġej emplo
Ġaccep it
Ġest os
ri Ã³
Ġami gos
d el
Ġprim er
em us
Ġn Ãºm
bi do
Ġmi ra
Ġop or
Ġmi li
p ra
de t
Ġre f
Ġma iores
xim o
g er
Ġpres ente
2 7
Ġper se
i e
ci al
Ġre pu
ĠS anto
e j
Ġ Ãºn
Ġinc re
Ġpos se
is s
Ġprop he
Ġc hi
Ġin forma
Ġsom os
Ġus que
r ÃŃ
h uc
Ġv isi
P ri
Ġb o
Y a
Ġsi guiente
Ġma Ã±ana
Ġami go
Ġ19 9
ta les
O m
on is
Ġexp lica
Ġi gn
In icio
Ġven it
to ra
Ġpa gina
tam ento
Ġ ;
ĠH a
A qu
Ġen t
Ġcas o
Ġhomin em
I N
Ġh emos
P ue
d an
v al
ĠâĢ ĺ
Ġre fer
Ġmol esti
Ġomn i
si o
v in
Ġex i
ĠCh ris
Ġpad res
sim a
Ġe di
Ġo bras
at os
Ġdom ui
ĠDomin us
Ġsu i
ali dad
Ġtut ti
b lica
l Ãł
Ġsal u
ch ar
Ġser Ã¡n
teg orÃŃa
Ġa hÃŃ
Es o
Ġcel le
Ġh on
Ġmal a
rimon io
c omo
Ġ Z
po t
Ġsal va
i ones
em i
Ġal guien
Ġme i
Ġdi rec
el e
ĠDe um
Ġman o
Ġfac tus
Ġw eb
Ġpu ella
ech os
Red dit
ar ta
Ġser v
Ġ Ã¡
Ġil lum
Non ne
. Â»
Ġesta do
ÃŃ cil
Ġno v
b ris
Ġdel ec
ĠY o
2 1
tÃŃ n
Ġnum quam
Ġre g
paÃ± ol
ĠN e
Ġpa cto
Ġt end
ce d
A p
gu ra
s titu
Ã§ Ã£o
pu li
Ġquis quam
Ġllam a
f ac
p end
Ġbu ena
Ġdi os
Ġneces ario
za ciÃ³n
Ġa i
Ġp ul
li co
es e
Ġmisericor die
ĠI o
zi oni
ti us
Ġnos tro
Ġgl oria
Ġ1 3
Ġgu ar
Ġg o
Ġpa z
Ġac uerdo
in is
gn is
Recorda tus
Ġin duc
Ġprop ter
To do
Qu omodo
Ġpro blem
Ġre con
Ġhab ent
Qu ando
Ġsu bi
Ġre gi
ĠS o
Ġne go
is o
ad as
Ġvivi r
Ġmor te
Ġip si
Ġdis pu
Ġre d
Ġpr os
p l
Ġse para
Cu Ã¡n
Ġcora zÃ³n
T ag
de ci
Ġhabi ta
Ġte m
Ġpro ba
as ta
N am
ĠP r
Ġaqu am
en as
Ġdic en
Ġsac ri
ti ae
ra t
ur s
t ina
Ġes tas
2 9
Ġcomm un
les i
e i
qu es
ter o
Ġcir ca
qu er
bi tur
Ġangel us
Ġor d
tan cia
ues tra
? âĢĿ
A m
li t
Â º
ĠT ra
Ġn omin
Ġex er
ari as
Ġgra cias
T odos
U bi
Ġn ec
eni do
v era
er an
Ġde jar
und am
b el
Ġf em
s on
Ġsim i
Ġdi ri
Ġc las
Ġinv eni
U t
Ġt ÃŃ
Ġo bra
Ġpo ur
Ġob ser
Ġtesti m
re a
Ġun os
Ġpr on
Ġdescendi entes
Ġn or
ar se
er man
Ġl l
ĠP o
Ġpos ible
Ġceter a
Ã «
Ġlo co
Ġi ra
Compartir FacebookTwitter
Ġt or
p to
Ġde j
Ġcom un
ita te
T am
Ġmat eri
Ġconoci miento
Ġso li
Ġsa tis
Ġv ino
Ġre ve
cu la
cip it
X VI
Ġr erum
Ġveni am
MÃ¡s Correo
P rim
Ġdesc endit
Ġpon it
Ġ[ [
Ġd Ã³nde
Ġar ma
II I
ic e
P ar
Ġneces se
Ġg uerra
Ġcum pli
Ġman da
Ġd ue
in ter
c ta
gre ga
Ġhac en
S ÃŃ
ĠA u
Ġverita tem
Ġob edi
duc ciÃ³n
es te
Ġan terior
Ġmo vere
din em
b os
ae pe
ba jo
uni dad
S a
Ġde ber
Ġtra di
eca ti
Ġvide o
Ġtestimon io
t s
Ġm Ã©
te a
A D
Ġcons ecu
Ġneces si
Ġs en
on s
Ġqu esto
Ġinter pre
Ġdiv ina
l l
eb at
Ġposs it
ce tis
f r
Ġtra s
ĠI am
pi e
Ġsal uta
Ġhay a
Ġbon um
ci ona
ĠL u
Ġpala bra
B u
Ġpa ci
Ġhum il
zi e
ter mina
Ġb eb
Ġpo ter
Ġl im
ca ecati
fi cia
hil oso
z ia
Ġ2 7
ĠO r
A ut
Ġc l
tor e
Ġb ea
ĠG oogle
Cu Ã¡l
s ta
Ġm it
Ġp eli
Ġcas ti
ci endo
em a
Ġdice batur
c or
fici ente
L ib
P ra
Ġmi entras
Ġsa bi
Ġex cep
CompartirFacebookTwitter Reddit
p es
u omo
ĠI es
Ġpa ÃŃs
Ġpas a
re mos
ter min
ti is
Ġdi j
Ġci er
Ġele gi
Ġinterro ga
Ġdu bi
bu la
CompartirFacebookTwitterReddit MÃ¡sCorreo
Ġlen gua
D a
ĠT u
eb ant
ĠIsrael is
h or
Ġc li
ĠDe o
versi dad
Ġsegun do
er va
Ġ2 5
Ġnom en
F or
ver so
Ġcon o
Ġp Ã¡gina
H e
S ic
ĠEs pÃŃritu
Ã« l
g gi
Ġa mp
Qu ia
Ã± as
Ġcognos cetis
tu do
Ġ2 4
ti cias
Ġcon veni
e do
p s
Ġj us
Ġqua es
Ġtab ular
e f
Ġv eli
ĠC i
enta l
p ia
Ġsol u
Ġcomp r
g Ã³
en se
Ġi deo
In ter
Ġl ic
Ġf ir
Ġpopul um
on te
Ġen se
Ġsu am
Ġn el
Ġvi tae
L es
Ġdi vi
ue la
Ġhab lar
Ġten ÃŃa
Ġv an
Ġsenti do
Ġdor mi
T I
u ti
C o
s al
ĠD es
ut os
Ġsier vo
an ti
Ġinduc am
Ġo per
ch Ã©
Ã¡ c
E a
Ġdes e
ra do
di os
ĠP er
ar to
Ġayud ar
Ġa Ãºn
Ġ[ âĢ¦]
Ġis ti
Ġpat er
âĢĿ ,
Ġpos simus
Ġcam ino
ĠmÃŃ o
] ]
ĠS er
Ġvi dit
r Ã¡s
Ġa iu
ad em
Ġlu z
Ġtar de
tu or
Ġi us
Ġlib era
ĠIsra Ã«l
Ġfin al
al l
Ġcom para
Ġcre er
OR I
Ġci elo
Ġos t
Ġvi ene
R espon
r in
Ġcon tro
ĠC o
Ġfac ta
Ġpe que
Ġuti li
Ġob s
Ġfra tres
H is
tivi dad
Ġjusti cia
Ġse u
Qu a
Ġan n
ĠIn ter
Ġ Quid
Ġd ado
Ġex s
Ġexis t
A L
Ġma tu
qua tur
g ro
gu ir
Ġb ar
enta r
Ġdi o
pis co
Ġcon ci
Ġme dic
Ġmo di
Ġprim ero
Ġprinci pi
N un
Ġpo tu
y ec
Ġlo cum
di ci
Ġo tras
Al lah
ĠIta lia
Ġpro ces
Ġse an
m es
vol u
Ġigu al
Ġsal v
ĠnÃºm ero
g gio
i tas
Ġa ca
4 8
ti as
Ġm ensa
Ġest Ã¡s
Ġdis ci
Ġlo qui
Ġmenti tur
Ġma xim
T Ãº
Ġop us
Ġdif ÃŃcil
Ġnin guna
f f
Ġc usto
tion s
di ta
ita tis
Ġasc endit
l ud
Ġmin us
es iÃ³n
Ġcom er
Ġrec om
d ur
Ġl uego
Ġdi co
ens o
titu d
c ol
Ã ¢
en tan
ĠD io
Ġpro posi
Ġtestim onium
Ġr Ã©
olog ÃŃa
Ġ ru
Ġen ti
Ġcom i
h ib
te des
Ġap r
Ġprop ri
Ġm Ã¡
Ġar gum
Ġad huc
re ta
Vi de
c em
e g
Ġa cep
So bre
Ġni Ã±os
Ġhu bi
Ġmani f
E B
us o
ca do
b or
s ic
en er
Ġre m
Con s
Ar chi
I usti
ol u
vi l
Ġprom esa
Ġeran t
ch as
Ġcu ra
Ġtra ta
Ġl ar
is Ã©s
Ġan che
Ġis te
S unt
e h
Ġtu us
p ed
Ġci erto
Ġi bi
Ġdel le
Ġal ter
ĠEs cri
gu en
Ġti po
ita tem
Ġa gra
ar ro
Ġin te
ue va
pec ta
Ġpri va
g ica
p ri
p se
er ÃŃa
Ġcre o
Ġgra cia
Ġpopul o
ÃŃ os
Ġse Ã±
ĠEs paÃ±a
Ġus tedes
E L
Ġob je
Ġc lar
Ġre gis
Ġso is
Ġpub lica
is t
Ġper d
gli o
u re
u ri
Ġto ta
Ġdis pon
Ġip sum
ĠT o
Ġba jo
f ra
ĠP i
A cc
ĠE cclesia
Ġne ga
qu o
ĠD is
Ġter r
b ul
Ġsi r
i entos
as ti
pues to
Ġvi ol
Ġlle gar
Ġprue ba
S us
Ġque da
Ġno ta
Ġpa ti
Ġcu atro
Ġma gn
Ġoc caecati
inos au
5 5
Ġencon tra
Ġpr Ã³
Ġcons um
tor io
Ġay uda
tur us
Ġdif fer
Ġpromis sionis
Ġf it
Ġdif fici
el li
Ġlib re
Ġintel lec
Ġin quit
Ġhu ius
ĠB ar
Ġmal e
I S
ĠL o
Ġsac ram
Ġca pa
ad ores
pro v
âĨ Ĳ
Ġcambi o
Ġex per
Ġqu at
Ġal can
Ġd inosau
un ci
ri l
me dia
e ti
Ġe u
hiloso ph
C i
b ora
Ġb lan
M o
Ġqui bus
Ġma ior
Ġfac tum
pec to
Ã© c
Ġhab eo
Ġs ensi
enti um
Ġencon trar
t una
qui era
Ġcorp ora
Ġherm ano
3 3
Ġlin gua
Ġ201 5
Ġsem ej
Ġcin co
c am
Ġc la
Ġcon vi
E cce
Ġa gua
ĠM is
Ġdes a
Ġta les
p et
Ġv era
C h
un cia
Ġf er
Ġj usto
Ġalgun os
Ġmem oria
ĠC an
ĠP re
ĠT es
Ġs aepe
Ġins titu
tu ri
ari dad
" ,
A b
omin i
Ġdic ta
Ġ201 3
Ġuni vers
F a
ec um
Ġne gra
n et
Ġa unque
Ġhab la
Ġdinosau rio
ab lo
ĠDomin i
Ġarti culum
" ).
Ġt ris
ĠG ra
Ġreali dad
Ġqui eres
ĠÃ ģ
gen es
Ġconsi dera
ma il
Ġcul tura
j us
Ġd in
ac er
Ġcum que
Ar tÃŃculo
c al
l ina
Ġa eter
ĠChris tus
4 0
er en
ci miento
ch os
ti vas
ri dad
ĠPa pa
Ġimpor tante
Ġv end
Ġdi vers
Ġliber tad
tra m
Ġas sum
Ġinfi erno
y Ã³
Ã©s ped
Ġcon ce
h ic
ta c
Ġh os
ĠV a
ven it
gu as
Ġex peri
Ġvi e
Ġpro pio
tr ina
z io
Ġdesc ensu
Ġmon tem
res pon
Ġan ni
Ġau to
am ento
Sec undo
3 7
p endi
di da
ĠF or
Ġauxili o
c ra
Ġf ec
En tre
Ġi dem
Ġi dea
Ġt h
Ġsu is
Ġper ic
il la
Ġ19 8
Ġdesper tÃ³
N unc
Ġde mon
Ġpas ado
Ġpossi de
O s
Ġj o
z ca
Ġi de
Ġnue va
Ġfre cu
an no
Ġle er
il le
Ġencuent ra
li cet
an da
pre h
Ġabi it
Ġma gni
Ġver um
Ġten emos
Aqu ÃŃ
Ġde li
Ġb endi
tar on
Ġap ro
Ġter min
b unt
ĠI II
) :
ĠP ara
ĠF ili
Ġoc ur
Ġhu Ã©sped
Ġmal o
Ġhum ano
Ġfaci le
Q U
ĠÃ© ste
Ġsub stan
Ġfili o
Ġora re
Ġd entro
Ġin de
ĠD ec
ĠV I
Ġlib ero
ari um
Ġvo us
ĠC re
ue il
ĠP os
Ġcons ue
Con tra
Ġof fici
m ent
Ġb ona
Ġex emp
ĠMar ÃŃa
V ol
ch es
Ġcons ec
ui cio
jer ci
! âĢĿ
Ġi usti
Ġca ra
Ãºs ica
Ġpregun tas
M ul
z e
Ġj am
Ġexis te
Ġgl ori
Ġd en
Ġde bi
Ġcer ca
Ġin g
Ġn am
Ġla do
Ġse p
A prov
qu ia
Ġg a
Ġexp res
Ġhum an
Pub licado
Ġv u
Ã³ m
Ġac cid
Ġmat rimonio
Ġcu pidi
ud as
Con se
Ġconoc er
( "
T E
r us
re to
J es
Ã ¼
or ios
Ġb re
ab le
cu ra
es are
Ġen can
Ġdix erunt
ta ri
Ġmej ores
Ġori gin
Ġes pera
Ġsol um
Ġa le
Ġju gar
ente mente
b am
ur os
Ġacer ca
l ine
ere t
Ġh ar
Ġpu Ã²
ender at
E tique
Ġaliqu is
\ '
di ce
ĠA N
Ġo u
lo ra
fica do
Ġ Que
Ġper mi
ti dad
Ġm ari
Ġle gi
Ġnin gÃºn
r Ã³
Ġcom paÃ±
Ġra zÃ³n
Â Ĵ
Ġqu ali
ens es
Ġomni pot
5 0
ar ra
Ġqui era
Ġb e
Ġpue da
Ġsec undo
m ento
Ġel em
Ġqua eso
Ġor din
Ġv ac
Ġdi go
ĠI mp
ĠM u
Ġpos sum
sim i
ĠM at
ĠM aria
g ent
Ġpra ec
ti bus
Ġar tÃŃculo
Ã© l
Ġsu p
uer unt
Ġqual quer
Ġl una
Ġun e
Ġu omini
ent us
Ġnun quam
Ġper pe
ch ia
Ġpo li
Ġfil oso
f ico
Aprov echa
e tur
Ġ ore
Ġa per
du xit
Ġimp er
Ġu x
el os
el lo
pe de
C hi
Ã ĵ
Ġl um
ar d
Ġser va
Ġa mo
Ġnatura l
R E
Ġpues to
Ġh Ã³s
ĠhÃ³s pede
L eros
v oc
Ġel las
Ġ[ =
Ġdic tum
ĠHi jo
b al
an e
am e
Ġf undam
Ġs os
Ġol vi
Ġh or
T A
ĠL i
Ġcon for
ĠS anc
R A
c in
Ġcor rup
Ġomn is
Ġtemp o
Ġes tamos
Ġin dica
Ġun um
Ġdel ante
Ġtra du
l le
An no
Ġtur bis
Ġsuscita vit
Ġtex to
Ġdem Ã¡s
la re
ĠS crip
ba do
ver it
enta do
ili a
Ġlle va
Ġquin que
ĠD oc
Ġmuch a
Ġpol ÃŃ
Ġdimis isset
3 5
Ġvi vere
Ġmon te
Ġcol or
Ni hil
c re
Ġes ca
di um
Ã© e
Ġha ere
Ġad ministra
ut us
C ar
ĠL as
ĠG ran
Ġpat ria
ter iores
Ġmis mos
Ġar te
Ġdimis sis
Ġle jos
Ġil los
ari i
Ġho die
te te
der i
ten er
Ġdici endo
Ġconc lus
Ġquat tuor
z Ã³
ĠEs t
Ali quam
M at
Ġt on
Ġmujer es
Ġqu esta
Ġse pti
ĠR es
Ġdic unt
Ġreligi Ã³n
Ġmortu us
Ġdelec ta
j et
Ġsu erte
ĠC hi
ĠEuro pa
D on
Ġ &
Ġe vi
it er
ĠIsra hel
Ġdij eron
3 6
? .
ti Ã³
ci pa
el es
Ġ Ã³
Ġ3 0
3 4
Ġp ena
n is
ti mo
end as
ĠB e
S im
Ġin ten
ia do
Ġcon os
Ġor g
tra n
ĠL at
Ġvolup tatem
Ġveli t
g ros
Qu em
Ġmi edo
Ġto tam
Ġvo y
Ġgran des
Ġpost quam
Acc ueil
Ġconse quatur
H ic
ĠB a
Ġpec uni
Ġinv esti
Ġpecc atum
ĠC am
ĠP h
mi go
tor um
Ġemp res
u ria
ci to
Ġcon tes
z an
Ġdic endum
Ġlle ga
vangeli o
N eces
t te
Ġcon ti
Ġimp e
on do
Ġcontra rio
Ġpa p
Ġac cus
ar te
Ġv ere
Ġf ab
di co
Ġfaci lis
V is
Ġo cul
Ġpregun ta
la e
Ġfal ta
J u
U S
e e
as o
Ġno vi
Qu in
Ġsi endo
Ġal gÃºn
Ġ k
Ġvi dere
lam a
Ġfal so
Ġe duca
pi ra
Ġmatu tin
Ġs piritu
el le
Ġti m
Ġmu li
Ġci e
Ġmuer tos
Ġs empre
Ġof re
Ġmuer to
pli ci
ĠJu an
Ġdin ero
f u
l er
Ġqu ale
b es
Ġdi ces
Ġvi ve
mi entos
ĠJ o
Ġdu as
ci eron
li m
Ġtraba j
Ġc ri
Ġf l
Ġre al
Ġar chi
ali a
Ġfuer te
N ulla
Ġco gno
Ġter ri
Ġverdad ero
Ġf ran
Ã¡ pi
Ġcom mo
ĠR a
Ġrec te
Ġ201 4
c Ã³mo
Ġ =
tam us
! "
L u
b ros
ĠP on
b ro
ic um
ab an
Ġd ul
ÃŃ r
ĠMo isÃ©s
ĠL A
3 8
Ġn ul
Ġex al
za da
Ġco gi
Ġess ere
O b
Ġl et
ĠP res
Ġpr ud
Ġdici s
g at
enta ciÃ³n
ĠV ir
Ġ- -
lic ar
Ġmenti ri
Ġmedi ante
ta da
Qu o
Ġg an
Ġcu Ã¡n
Ġservi cio
f rica
Ġes paÃ±ol
ĠC at
P res
n as
p lica
Ġad ul
tÃŃ culos
Ġes piritu
Ġres u
ĠO ri
Ġcrea tura
Ġlab orum
S Ã³lo
ta tes
Ġprop ia
Ġhab es
Ġpra ece
fic ar
Ġre qui
tan a
Ġmul tum
Ġmul tos
posi ciÃ³n
Ġmil le
z os
Ġle van
El los
Ġperfec to
D io
Ġa edi
Ġque d
ĠA t
Ġsi ete
ĠB ri
Ġfav ore
Ġe d
Ġsi tio
ĠF il
Ã©s ar
Ġprim eros
ĠS ara
dos e
Ġj e
Ġva ca
w s
Ġm ente
Ġi gno
ĠC ol
ĠP as
z co
Ġv ec
Ã¡ les
Ġsu ficiente
bi o
ĠS E
ĠS ec
pi ri
ran do
V os
Ġp unto
Ġin tro
ĠG al
in am
Ġpro por
Des de
Ġder echo
ĠS im
Ġense Ã±
C am
ĠS oci
Ġrespon dit
Ġtran qui
te tur
to gra
Ġsu as
tra c
cion ales
Ġju z
Ġlab ore
Ġqua re
Ġaliqu o
3 2
bi Ã³
U s
c k
us i
Ġcre dere
Ġquae dam
Ġvol ver
Ġnoctur no
i do
Ġv ari
tion ibus
Ġto tal
Ġs cio
ere tur
Ġvi vo
Ġex cel
R om
en os
ĠS ol
Ġcor rec
Ġsegun da
f fici
Ġc ria
is tas
Ġdic am
z on
Ġe v
Ġ2 9
Ġcer te
tud ine
Ġcredi derunt
E um
Ġconta c
Ġpo puli
Ġpod rÃŃa
ĠÃºn ico
a i
s es
Ġdi a
Ġinforma ciÃ³n
Ġhaere di
M t
Ġdes cu
ï ¿
en it
Ġc it
Ġpos tea
Ġfaci am
ĠÃºlti mo
Ġf ine
Ġmol to
.' [
F ac
om os
Ġca be
Ġver itÃł
Ġfi dem
Ġlu x
S oy
u li
er ta
en tas
Ġque l
ga ciÃ³n
Ġj unto
Ġmori r
Ġproblem a
b ere
c at
h ab
Ġad mi
Ġman os
ï¿ ½
c f
Ġa us
Ġp ia
Ġsi gue
Ġpro ce
O M
Ġen emi
ic ae
ĠN i
3 9
Ġa posto
on om
Ġtu i
g ente
li gi
od as
ĠH e
Ġ" .
Ġin tra
Ġre pro
se d
ma el
gn ore
ĠV al
Gra cias
N es
ĠW EB
P od
ut ri
Ġnues tras
Ġof f
p ter
Ġcrey entes
c ces
Ã µ
Ã ģ
Ġcon temp
tr Ã¡s
por is
Ġquan ti
Ġign ora
ic us
Ġad vers
Ġ2 6
Ġil lud
ĠN os
A dem
I d
Ġp Ãº
ul os
du ci
Ġneces ita
gre di
dea tur
Ġsacerdo tes
Ġdilec tam
Ġpul ch
M as
in s
Ġdu da
Ġnum ero
!! !
g et
Ġd ans
Ġa pare
Ġme o
Ġdistin c
Ġsapi ente
C A
r Ã³n
Ġa fi
Ġin e
Ġpro gra
Ġj un
Ġci to
Ġsem en
gin ta
Ġconsequ untur
Ġposside at
Ġpecuni am
H o
l ÃŃ
m Ã³
Ġse qui
Ġcre e
Ġci encia
Si guiente
Ġoc asi
Ġcomenta rios
Mi hi
F ue
v im
at ore
Ġcom par
ĠJes us
ĠSan ta
Ġc ae
Ġen ga
Ġprof eta
ĠB ib
Ġhacer lo
Na da
ga dos
ĠT e
Ġse Ã±or
ter um
El la
fer endis
ton io
Ġterra e
Ġdec lara
Ġdoc um
f uer
j or
Â ·
Ġn as
Ġr os
Ġ201 1
V el
ue vo
ur is
ĠT er
Ti ene
H i
Ġa go
Ġj ue
Ca teg
Ġvolun tad
Ġinter ior
Ġanim ales
B us
s unt
Un o
Ġj uicio
Ġip sa
Hab eat
c co
Ġno i
ed ro
ĠF ide
Ġesta ban
Ġpossi deatur
f ru
Ġre almente
in ae
gra da
Est Ã¡
Ġinf in
ĠSal om
G li
Al Ã¡
Ġprof etas
in k
ĠG re
ĠG ener
Ġneces idad
j ado
Ġo fici
Ġcre d
Ġus o
ĠÂ» .
Ġsigni fic
Ġmes es
Ġnesci unt
sim os
Ġtu vo
g lia
di tiis
Ġre ver
tur um
Ġsi gui
co gi
Ġp edi
Ġca tegorÃŃa
ina ciÃ³n
Ġr Ã¡pi
Ġneces i
Ġ201 2
Ġaliqu ando
Ġperfec ta
Ġnomin e
D u
P at
Ġcons ci
Ġescu ch
fec ta
D ec
g amos
Ġo culos
Ġ2 2
Ġsan gu
Ġquer ÃŃa
tes t
I A
m u
Ġn ella
Ġh al
Ġver ba
Com e
4 2
t un
ti tur
Ġma is
Ġpi e
Ġ19 7
Ġsan gre
B ene
p us
es as
Ġv as
du cir
ĠB o
cas o
Adem Ã¡s
n ia
y en
an cia
ĠI V
et te
Ġvis ta
Ġcupidi tate
S olo
T O
v em
ĠP ra
Ġ2 8
Ġam ar
Ġdeb es
Ġomnipot ens
V eni
ĠS em
ĠM an
ĠFa tu
r se
x erunt
B ien
Ġ $
Ġe adem
Ġd an
gn e
D E
P as
p it
Ġt um
ĠC Ã©sar
gu o
d ÃŃ
Ġse pul
Ġad el
tr Ã³
Ġma i
Ġcir c
g ico
os Ã©
in c
Ġde mas
ti ve
esti Ã³n
Ġora ciÃ³n
v or
Ã Ī
Ġcor reo
Ġpod emos
Ġim pi
O r
h er
Ġm Ãºsica
am a
ÃŃ pul
Ġper der
Ġvo z
Ã§ a
Ġsaluta tione
P i
f e
Ġe fecto
Ġa Ã±a
ues tro
Ġac to
Ġali ud
Ġinter es
Ġtemp lo
Ġfili os
Ne que
d amente
Ġra tio
or ibus
Ġest re
ĠM on
Ġto mar
Ġabs ur
Ġvolup tas
I tem
Ã ®
Ġes pÃŃritu
Ġen fer
Ġun ir
Ġg al
ĠS ac
Ġme li
Ġmon tes
ĠRe y
h an
ĠN um
Ġcor ri
Ġimpos ible
Ġd ob
ta rio
ci lia
Ġin con
se t
Ġvi gi
Ġvol unt
ĠlÃŃ ne
Om nes
Ġcons ul
fica ciÃ³n
Ġmenti ens
Ġde le
Ġin si
ĠA li
pos itum
por ta
Ġleg em
c ti
Ġi usto
Ġre di
Qu are
Ġ19 6
Ġsimili que
erus alem
c end
v Ã©s
Ġa ves
Ġp Ã¡
Ġmu ta
Vo us
Nun ca
V erum
p ta
qu em
un g
Ġcon ven
Ġrec uer
oo oo
Ġqu eri
im e
ĠIs mael
Ġar ri
eb r
a da
Ġen trar
Ġam is
p ic
v re
ĠO m
Ġnum eros
Ġall Ã¡
4 5
Ġ q
Ġp al
Ġqu anto
Ġen via
Ġper i
Ġper tin
Ġto ma
Ġma es
deci m
I V
ru pti
Ġ201 8
Ġlon ge
F i
k i
ce per
Ġescri bir
Ġvirtu d
Ġimpe dit
P la
S ab
Â °
Ġa leg
Ġcon migo
ce at
pis ci
Ġte ma
endi do
Ġanim al
Ġcontin ua
F u
M is
ĠS in
oc u
Ġgra tu
Ġdifer encia
H asta
g unt
Ġex pe
V en
Ġsu cces
Ġcre en
cum que
Ġciu dades
Ã³ so
Ġpa ce
Ġcontra dic
dur ÃŃa
Ġg ru
fi cit
Ġsegu ir
Ġcon cu
Ġlib ri
Ġgen ere
Ġima gin
I pse
ĠDomin e
y os
Ġc res
em ent
Ġhab ÃŃan
Ġpre para
Ġinter na
Ġmolesti as
um en
Ġin du
Ġmin ima
h om
an us
vi eron
gi pto
Ġas es
Ġor o
? âĢĿ.
ga re
Ġpl u
V a
i res
li ter
Ġ201 7
Ġdeci pi
Esto y
u al
Ġper ferendis
ĠS ed
Ġrec or
Ġabs ol
Ġaiu tar
Ġclar o
4 6
m Ã¡
x i
ent en
Es pero
Ġprof es
Ġreci bir
. ]
er em
ti ene
Ġn Ã£o
tion i
ib les
gres o
ĠScrip tura
C ol
ri r
Ġme dia
Ġgra tis
Ġrespon de
Ġsci licet
R I
Ġpr omo
Na die
L A
Ġes tis
ĠP ri
qui Ã©n
end en
Ġcor poris
Ġbene dic
Ġaquel lo
Ġentra da
p at
u do
Ġal ta
end ere
Ġma li
Ġpod ÃŃa
Ġd omo
Ġde gli
or k
Ġes os
ĠN or
ĠG erman
ven es
Ġconf es
Ġbon us
Ġparti cul
tu is
ul as
enti bus
Ġdeb en
Ġves pere
ĠTi erra
ĠVa tic
D el
m ino
Ġa la
Ġde dit
at ores
ĠC omo
Ġg esta
Ġ201 6
Ġlle var
truc ciÃ³n
? Â»
Ġ â
Ġse i
Ġsi gnis
tam en
ĠÂ §
Ġab and
Ġconta cto
ĠI l
Ġfor mas
Ġej ec
Ġado ra
Ita que
ti die
Ġin qui
vi Ã³
ĠV ol
crip ciÃ³n
qu od
Ġn atus
an ia
Ġcon cep
ĠI u
ent re
Ġex itus
Ġar bit
Ġita que
Ġini qui
ose ph
Ġa si
Ġt Ã©r
Ġper ten
ĠE S
Ġcar rito
Ġsue Ã±o
ĠPro p
Gra zie
Ġdiffici le
us tra
el ÃŃ
Ġpro vid
Ġpar s
Ġdici embre
Ġrespon diÃ³
Ġdie z
ĠPat er
Ġgener al
R O
ĠC al
Ġ2 3
ven tura
Ġima gen
ĠIes us
tu re
Ġt r
Ġcu ales
Ġfor te
Ãĵ N
A unque
u ve
Ġla tÃŃn
ÃŃ amos
ĠD el
Ġsu um
Ġper di
Ġsi tua
ab o
ella t
Ġmon do
Ġinv oc
Ġconfi rma
Ġexplica bo
os os
Ġp hilosoph
Ġde termina
Ġvi d
ĠM il
Ġcor respon
gun tas
Ġop tio
Ġpu ta
au di
Ġassum enda
H ola
at ti
Ġcor re
Ġdisc ÃŃpul
Ġbea tae
er da
Ġl ud
ti i
ĠÃ© s
Ġhum anos
ĠFran cis
ĠBri tan
C an
Ã į
on ia
is a
Ġcrea ciÃ³n
Ġn ub
Ġv ÃŃ
Ġsu ce
Ġdes tino
Ġ1 00
Ġ2 1
sim e
Ġbuen os
H oy
R a
Ġm ens
Ġes p
as e
âĢ ĺ
cu i
Al gun
Ġvues tros
tu al
lus o
s ub
ri co
tan o
ran t
Ġus u
Ġdilec tio
Ġpec ados
Di xit
Est ne
Prim era
A u
qu ando
Ġfin em
P u
Ġe duxit
Ġs p
Ġin im
Ġo cu
Ġverdad era
ĠSi gnore
Ġpon er
Ġsta tu
Ġsimi le
Ġmul tas
Ġsier vos
R i
l las
Ġl itter
ta le
ran s
tar ÃŃa
Ġdispu ta
ru it
m at
n eces
ti os
bi les
Ġmu riÃ³
xim a
Ġpot entia
4 4
v ant
v isi
di te
bi to
et ro
ica ciÃ³n
Ġm undi
ic er
ĠCh risto
Ġmil l
Ġenvi dia
ta li
ĠS am
Ġdis cip
tri b
Ġcan tidad
Ġescri to
Ġbus ca
b be
Ġen c
Ġg io
Ġal um
Ġco la
Ġpu te
ensi Ã³n
Ġdoc trina
Ġj ud
Ġar ro
Ġprom esas
Ġsuper ior
Ġ200 8
Ġsuf fici
Ġvoca tur
l Ã©
Ġa ver
tu bre
Ġme am
Ġlo c
der os
Ġsal ud
Ġins trum
X X
p lic
t Ã¡
âĢ ¢
de dor
ent ÃŃ
Un i
Ġfi eri
gli e
Ġopini Ã³n
Ġd um
Ġser ÃŃa
ĠF acebook
Ġdu ra
Ġvol o
Ġtraba jar
Ġconsue tudo
u ar
ĠD ÃŃa
Ġca li
Des puÃ©s
Ġcir cum
Ġess ent
Ġestu di
Ġcondi ciones
Ġon line
Ġhubi era
Ġinte lig
I o
d al
f es
p ae
t y
tu la
Ġi terum
ĠE gipto
Ġpos uit
Ġ201 9
ĠDomin um
Ġag ere
Ġves tram
Ten go
Tam biÃ©n
Ġvi di
Ġar tic
Ġfe cis
Ġnue vas
' .
Ġv ale
Ġaquel los
Ġsepti embre
Ġvaca ciones
b et
g ine
an tas
Ġpro yec
D os
ta tio
te o
Ġcre at
tre m
Ġoc cur
Ġvis ita
Ġcusto di
s ec
Ĥ ¬
Ġpro hi
Ġdis posi
Ġap ar
Ġap par
Ġ200 9
Ġtut to
Ġcono ce
A y
Ġde p
ec en
ĠS y
Ġca elo
ori dad
Ġfuer at
Ġdec ÃŃa
Ġdeb et
Ġiu re
p la
an tum
Ġdi versi
vi r
Ġam at
Ġam ico
Ġcol ores
ĠLe vi
Ġrep res
iss ent
Bu eno
D ol
t Ã³n
Ġin cid
Ġb oni
Ġfu git
ĠmÃŃ n
Ġhac emos
Ġtris te
Ġp ed
bi erno
Ġsi len
Ġil lam
Ġfuer za
gos to
Ġaiutar mi
g al
p ens
Ġcom en
ĠP la
Ġpr Ã¡c
Ġr en
dis ti
Ġvues tro
Ġcristi anos
Ġn u
Ġi acob
ĠM us
Ġcor de
ani dad
Est Ã¡s
Ġconsequ antur
teri um
Ġhaeredi tatem
m ica
t endi
Ġv amos
Ġno ti
Ġre cha
Ġvo tre
Ġfaci unt
Ġ200 1
Ġ200 7
Ġes ti
si to
Ġpor ro
Ġcre ado
Ġprim um
Ġparti cip
b r
to do
ĠR us
ĠH ome
ali ter
Ġquando que
Ġley endo
C reo
um us
Ġen s
ul us
Ġnesci ens
Ġtro va
ĠTes tamento
c en
i tur
da de
Ġi glesia
ic h
Ġsi g
od erat
Ġres ulta
ĠJ e
Ġam ore
Ġmor tem
Ġdom um
Ġreve la
termin os
Ġsemej ante
Etique tas
L uc
b lico
tu dinem
Ġha ciendo
Ġfr ente
Ġserva ta
ol Ã³
Ġrespon der
Ġdifer entes
tu lit
Ġdes cri
no us
D o
er vi
rec en
Ġalgun o
ci dos
te cto
bi ec
Ġg ior
gi r
Ġsab es
Ġmatutin i
Ġe jerci
ĠP ero
pon e
Ġ201 0
Ġpotu it
Ġdelecta bis
ĠF o
Ġfu ga
Ġperpe tu
Ġsi te
dad os
ĠM os
Ġsci re
Ã¡ vel
enta les
Ġat tribu
s ÃŃ
u ales
Ġde v
pi ci
ĠV il
cc lesi
Ġposs es
ĠEscri tura
Us ted
F ran
e os
Ġp h
in ar
Ġqui eren
cita tionem
Ġdios es
en ci
Ġpri mi
Ġmat er
Ġexper im
G oogle
Ġdes arro
tar um
Ġali as
Ġdisci pul
Ġpute um
M aria
Ġes pec
od er
Ex inde
Ġdal la
Jes Ãºs
om ina
ĠM as
ĠF i
uni Ã³n
Ġlab ora
Ġsimi ente
Ġmensa je
S an
S ol
c enza
f ia
f fer
el u
Ġres ul
Ġfor tuna
Ġpas ar
Don de
s in
Ġv arios
Ġi di
âĢ ĭ
Ġal le
end us
Ġerr ores
Ġost enderat
k e
t ta
ĠC esare
vi du
Ġfra ter
QuiÃ©n es
P h
Ġc ena
Ġn emo
di to
Ġver bum
Ġdic untur
Ġdescend erunt
iste ma
A caso
F eli
Ġes pos
Ġv ali
Ġpor ta
cia tis
Ġesta ble
Pue de
Ġe dad
Ġe fec
Ġf oderat
ri d
ĠA b
ĠM ensa
Ġhab l
Qui ero
Ġman e
Ġcorp ore
Ġejec tam
Ġest Ã©
Es cri
Ġpre cede
Ġrespues tas
ex t
Ġtri bu
Ġpuer i
ĠSu per
Ġsimili ter
Ġfru c
Ġfrecu entes
Ãµ es
Ġg ius
ĠH ab
Ġni Ã±o
di eron
Ġun as
Ġpas sa
Ġcaus as
Ġord ine
D I
I ste
In s
Cu Ã¡les
Ġomn em
Ġ4 0
Ġpe ti
Ġmolesti ae
Ġblan ditiis
m un
Ġg ol
Ġg eh
Com p
Ġllam ado
Ġiu di
Ġl lo
an um
Ġen ci
Ġlle gado
ĠW eb
Ġgi Ãł
Ġencan ta
ĠPon ti
C O
N em
Ġe li
end am
ĠB el
pos ta
au x
Ġmen or
J o
s ol
Ġha ga
Ġac ces
Ġtra vÃ©s
Ġfi gura
pues ta
Ġfal sa
Ġdol ores
Mu y
Ġmit tit
N osotros
\ "
g h
ĠE go
Ġto tum
ĠAn ti
Ġobser va
L O
Ġa dae
Ġsi bi
tra da
Ġpro xim
Ġtu as
Es tos
Ġpat rem
Ġilli us
Ġresurrec ciÃ³n
c ora
Ġf on
di r
Ġconsi lium
ĠC um
ĠP ablo
ran o
Ġhomin e
Pri ma
Ġsep tem
C he
b en
Ġe cce
ti ci
Ġcon i
Ġg ob
ĠS us
ĠP rim
Ġle gis
Ãº a
ĠT ur
Ġpre mi
Ġmon s
Ġsue Ã±os
qua ta
ĠAm eric
Ġde ve
Ġv aria
Ġin ven
Ġun us
Ġsol uta
Ġra tione
Ġoc cid
Ġef fici
olog ia
ĠPi la
Ġ om
ĠG reg
O h
Ġs es
Ġs pec
ci dit
li za
Ġt he
Ġre ino
Ġpa u
Ġle ge
cion ado
Ġhomin is
Ġdemas iado
Ġc lam
Ġra p
Ġmisericor di
Ġdomin io
Ġlin gu
ti di
Ã³ lica
Ġno ite
Ġpa cem
uer it
Ġ5 0
ĠAn tonio
dus tri
Ġopor t
Ġamis tad
? ".
oc ra
De inde
Ġam bi
Ġco che
tal la
Ġgenera ciÃ³n
Ġbas tante
Ġigno ran
T al
e de
es sa
em e
Ġb esti
Ġhab e
Ġim mor
Ġej emp
Ġapp ella
Pri mo
Ġsabi durÃŃa
Ġre fi
Ġvi tam
ĠM oy
od em
Ġcier tamente
ebr ero
h n
es tas
Ġc lic
Ġl it
Ġimp res
Ġprop rio
Ġdol orem
Ġent ender
Ġmanif esta
Ã³so fo
) ;
Ġde ja
ul is
ĠP ol
Ġpers ecu
Ġmal os
veni re
tati bus
L E
e Ã±o
r er
u te
» ¿
ï »¿
Ġad em
Ġman dam
Ġsalu do
Ġloqui tur
, ,
. [
ar ius
Ġex ire
les c
Cu Ã¡ndo
Ġsoci al
esi on
ĠÃºlti ma
h um
ic am
Ġpo eta
ĠR o
A h
s ent
or io
tu i
ul um
Ġtan ta
Ġsa pis
Di cit
Ġof ficia
ĠHis pan
ĠlÃŃne a
? âĢĻ
g Ã¼
Ġe pis
Ġin voca
Ġdes con
Ġar re
fer encia
uc risto
ĠAr chi
Ġvirtu des
Ġcasti go
Ġcabe za
Ġm ecum
ar la
ri do
Ġha ces
Ġsi ento
Ġvues tra
T ut
Ġm ÃŃa
tu los
Ġno va
ĠM Ã©
fici os
Ġoffici is
Ġdecipi ebant
b ruit
Ġs cit
Ġp one
ar lo
Ġi ac
Ġre gno
Ġper f
ini dad
Ġquo i
ĠDi v
Ġpeli gros
4 7
D omin
Ġa qui
ora s
ver sa
Po tete
Ġdesi erto
piri tus
j u
z ones
us andae
ĠE pisco
tan to
Ġres pecto
ĠB ra
Ġta li
Ġcomm uni
Ã¨ re
Ġintel ec
Ġespeci al
Ġi is
Ġi do
... ]
Ġser mo
Ġser ve
ech as
Ġfin is
id ente
Ġhere di
B o
t end
Ġm ys
ul t
Ġpro hib
Ġtu os
tr is
Ġfu gi
Ġrela ciÃ³n
Ġsegu ro
Ġesc la
Ġform ul
Ġincre bruit
us iÃ³n
un de
li ano
Ġis to
Ġcol um
lex i
Ġjus tos
Ġmill ones
T U
i es
ar Ã¡n
Ġf ur
tan Ã¡s
Ġej us
Ġreci bido
z quier
Ġde mo
Ġn utri
enta rios
Ġfa re
Ġman us
Ġco e
Ġvo to
ĠCon ci
Ġpot encia
Num quid
Ġbeb er
Ġamp lius
Ġconos cenza
E se
a ut
Ġ x
Ġh Ã¡
Ġque dar
du ra
pÃŃ tulo
Ġbuen as
Ġespeci es
Ġempres a
4 9
l Ã©s
us e
ĠS en
ĠP edro
tis mo
tar se
ĠJ osÃ©
Ġmar zo
Ġalgun as
Ġespa da
ĠHis toria
ce gli
tr ui
Ġhab Ã©is
ĠCon se
ĠCon grega
Ġprop ria
Ġpuer tas
z zo
er ci
ĠA posto
tar Ã¡
con s
Ġanim o
Ġdiv isi
Ġsapi et
Ġtenta vit
V e
r y
Ġa un
ci tur
un e
Ġconver sa
6 0
E di
Ġs cis
at ori
le t
Ġob is
Ca da
Ġmagn am
n em
Ġsab ÃŃa
Ġinc lu
Ġnovi embre
r ÃŃan
te is
Ġha go
Ġres pe
Ġdis fru
eni que
Ġsus cipit
ĠLib ro
erus al
m um
r oso
Ġe orum
Ġci Ã²
Ġlux uria
Ġde fici
Ġt enido
Ġvi o
ĠB u
Si empre
eb las
Ġnom ina
Ġvic toria
Ġobje to
E ra
Ġd as
ĠC ul
ĠP ala
Ġca teg
ĠF ac
Ġcons ola
Ġpas tor
Ġdec em
ĠPro f
4 3
f in
i i
m al
te z
an di
Ġin m
Ġlo ca
ĠP e
Ġall Ã¬
Mu chas
Ġsali r
Ġav ec
Ġnecess aria
Ġterr ena
N ombre
b lic
e go
s am
v amente
ļ lti
Ġi mi
Ġj uego
ĠH um
Ġfra tel
Ġul tima
y endo
Ġpotes tis
gui dores
rem us
Ġol vid
h Ã£
y as
Ġd uer
Ġno us
Ġpro vin
Ġpu tas
Ġlab orios
Ġtene bris
Ġexperi encia
Ġmuli er
d ena
s em
Ġin mor
Ġpro tec
Ġte le
Ġdes ea
Ġmi gli
ĠT he
ĠG o
Ġhabi tat
Ġveni do
ĠNa tura
M or
Ġl un
ĠC ur
que da
pi ciatis
Ġres titu
Ġnue vos
Ġpecca to
Ġmaxim e
Ġfec erunt
m Ã¡s
Ġnos ter
Ġman hÃ£
Ġmul to
Ġmon as
Ġspeci es
Ġdistinc tio
p tio
Ġe tique
ta tur
Ġm uestra
te ur
Ġt re
qui en
ga da
Ġdol ore
Ġveni r
ĠFran cia
ĠCu ando
ef fectus
B ea
v ic
ĠL ot
cu ando
Ġfu i
Ġfu tura
erusal Ã©n
v imus
Ġ Ã¡r
Ġs tes
un ta
ri que
ĠF in
vit Ã¡vel
Ġine vitÃ¡vel
Ġincid unt
C as
v ÃŃ
Ì ģ
Ġ z
ci mus
Ġuni verso
ĠPat rem
Ġadae quata
d alo
p in
Ġe cclesia
Ġs ens
Ġc lara
ĠR ec
Ġten ga
Ġrespon sa
ĠQu ae
Ġaliqu a
Ġdesi der
Ġsen cil
His toria
Ġs cel
ar Ã³n
Ġper eg
Con si
ĠAu gus
j ec
an is
an dum
fici um
ine a
Ġindi vidu
iso gna
Ġlar go
er tamente
Ġp oc
Ġm un
am ini
Ġt ini
ca tur
Ġcom Ãºn
Ġtra c
fer t
Cu al
Ġter mina
ĠEs te
Ġsci entia
Ġef fectus
Ġrepu di
di go
Ġg au
Ġgra tiam
Ġconse jo
Ġbel lo
Ġexi it
Ġpron to
Ġe vid
Ġa um
Ġsu l
Ġpro gres
ĠF am
ĠN O
ĠCon stitu
Ġmus ica
. :
h is
v Ã¡
es tion
Ġn arra
de z
Ġb ra
lem ente
posi tio
Ġpuer ta
Ġsimil em
Ġvu ole
ĠÃ³ r
Ġi ret
ĠP ers
ĠM in
ĠM ad
Ġaqu ella
Ġgra tia
Ġoc tubre
Ca tegorÃŃa
Ġmateri am
Ġs tra
Ġp is
Ġg enti
Ġcor rupti
Ġve o
âĨ ĳ
Ġsignifica do
ĠIo an
Ġdebi tis
N emo
Ġ +
Ġen car
el as
Ġsegu ridad
Ġquaes umus
Ġtini eblas
5 9
s en
Ġen ero
ĠM er
Ġj untos
Ġbi b
Ġsab en
os as
Ġa ta
ar o
Ġdi gn
Es se
gu la
gi do
ĠF u
Ġsal var
Ġven gan
CuÃ¡n to
Ġp in
ĠA qu
pi rito
Ġali o
Ġval or
Ġhere deros
Ġexc lu
r or
Ġe mo
Ġpre ci
cion ar
Ġfuer unt
Ġim m
gnis simos
ense z
T res
Ġl an
le o
ĠE vangelio
ĠB us
Ġab und
cion ario
Ġid enti
Ġsta to
Ġae qu
b un
Ã ĳ
or ÃŃas
ĠA brah
Ġg ri
tin us
L I
N O
j ero
Ġdes eo
Es tas
ĠT Ãº
pec tu
Ġref u
Vide tur
ri el
Ġse l
Ġcom unidad
Ġpro du
ĠL on
ĠL OS
ĠO c
? ,
Ġs anto
re tur
ĠD u
Ġmis it
Ġis la
ĠCon s
Nes cio
i am
m enti
Ã³ sito
Ġno tre
Ġex ac
era tura
Ġmi em
ĠG e
Ġop ti
Ġsub dit
Ġbien es
v esti
Ġs tan
um e
Ġpar tem
ĠEs to
Ġpra c
Ġpres encia
Ġcognos cere
ĠX VI
d ens
an ta
Ġin media
Ġlo gra
Ġdes tru
ĠB ene
ĠY a
Ġperse vera
Ġadem Ã¡s
E li
m am
p lan
ĠV en
Ġhi cieron
Ġpas o
lis is
Ġpres enta
Ġnatura les
Ġmay ores
Ġgener ans
Ġprophe tas
- -
E M
c ter
Ġe mail
qu en
Ġb au
Ġex tre
Ġas per
Ġpl eni
Ãī tique
ta ria
Ġh echos
to l
ĠC iu
Ġb or
ĠJ erusalÃ©n
Ġsec und
Ġs can
Ġc aridad
da t
Ġdi ga
bi lia
Ġmo glie
V amos
n oc
Ġc en
ĠD ia
Ã¡n dose
ĠN uevo
Ġas pi
Â¡ Â¡
Ġsim p
cip ere
Ġa po
Ġdi re
Ġsi amo
Ġpro v
cia li
Ã©n do
den es
Ġaccep turus
tto bre
plici ter
Ġattribu ta
L le
d ÃŃa
e ci
Ġdi em
Ġdi gni
Ġma re
Ġ3 1
Ġ? Â»
Ġdo ce
Ġcru ci
Ġobedi vit
Ġper dido
Ġna vi
Ġsec unda
Ġgen ua
Ġfaci em
Ġpat res
Ġveni re
Ġtrans gres
Ġlec tura
ĠHa ec
Ġjam Ã¡s
ĠÃ©s tos
l or
Â Ń
er io
li te
Ġver bo
Ġtra ducciÃ³n
Ġpre cios
Ġmul tis
Ġent endi
Ġsigui entes
H as
Ġp untos
an u
Ġcon grega
Ġmis terio
ĠH er
cion amiento
Ġnatura e
lec tamus
ĠRom ano
ici endis
Ã§ Ãµes
Ġpro c
ac k
Ġj ur
Ġescu char
Ġubi que
Ġenvia do
h am
z er
ri c
Ã© es
si bile
ac o
Ġado lesc
Ġesper anza
c endi
h ar
Ġc rim
re dedor
ĠT om
ĠF lectamus
Ġexist encia
ĠChi esa
Ġp ensez
Ġal to
za dos
Ġam et
Ġrec orda
fic e
Ġparti cipa
Ġgi ung
Ġopor tet
Ġorigin al
ĠdiscÃŃpul os
B a
Ġqu ad
ÃŃ tulo
Ġdi cer
Ġpa pa
Ġac ciÃ³n
ĠH ebra
Ġam bos
An te
19 9
Ġinf ini
Ġmora l
S pero
v ero
Ġe vangeli
tu ali
Ġac om
Ġut rum
Ġcos e
Ġins tante
Pro pter
Ġsilen cio
u ali
Ġe c
Ġa bra
te ca
do ra
Ġque lla
Ġdi ab
Ġper ro
Ġex ces
ĠB i
Ġsol amente
Ġter tio
ena ventura
Ġquin to
Ġpaci encia
Ġproposi to
Ġespiritu al
L i
S em
b lec
g ÃŃa
h as
l y
Ġde cep
Ġo ttobre
ĠâĢľ Â¡
ĠÃºlti mos
Ġvoc Ãª
Ġofici al
Ġjud ÃŃos
F o
H u
g ran
Ġi zquier
la ce
ent ra
tas se
Ġali is
Ġpre gunt
Ġdom us
Ġmenti ra
Ġfecis ti
Ġgeh en
C E
p sum
t enta
Ã© ra
Ġun am
ĠI N
ora r
gra fÃŃa
Ġposi bilidad
Ġgiung ano
T emp
g on
Ġa gosto
Ġh eri
Ġen tr
Ã¡ lisis
Ġt esto
Ġsi gnum
Ġsol e
Ġimp edi
Ġni e
Ġpl en
Ġcam po
Ġpat ri
pis c
Ġinvi dia
Ġder echos
Ġposse t
Fa ci
ĠFrancis co
an im
Ġv endi
Ġsu pra
Ġre ce
Ġper du
ed ere
po li
pos tÃ³
Con tac
âĢĻ .
Ġinv ent
Ãºs queda
Ġcuius cumque
Ġprincipi um
Ġqued Ã³
Ġlaborios am
te lo
am ientos
ĠA Ã±o
bi os
Ġb las
gu ar
fec tum
Ġmat rim
19 7
Ġvirtu tem
ĠAd Ã¡n
Pr Ã³
Ġexer citationem
Archi vo
ĠPos t
Ġtim ore
Ġinfin ita
c asi
Ġs omn
Ġn uo
Ġsu puesto
ac es
ĠB log
Ġmar ca
Ġservi cios
Ġcontin u
Ġesc uela
ĠPor que
Ġenemi gos
Ãītique tte
M in
g encia
ta to
Ġde tal
is tis
Ġno ches
Ġmis era
ĠR os
tor em
Ġtri bula
Sal ve
Ġespeci e
Ġproblem as
Ġmeli or
g am
Ġi re
ia tur
ĠS ÃŃ
Ġex ter
ues tros
Ġpat ris
Ġfru to
E res
N in
n er
te x
ĠS ur
ina do
ĠNo ticias
Ġviv imos
A T
S it
Ġs pa
Ġa se
Ġc ha
Ġh am
Ġre gres
ĠH o
Ġprom e
Ġmom entos
Ġconfi anza
ĠÃ¡r bol
I deo
b ano
Ġau c
ĠÃ© sta
cum b
Ġsem bra
Ġdiv ino
Ġauxili um
Is ra
tora l
Ġsalva ciÃ³n
O f
m atus
u v
v ano
Ġs y
Ġf lu
Ġo ÃŃdo
tur ba
Ġb ende
Ġpos e
Se gÃºn
Ġvide t
Ġtiem pos
gin as
ĠAr gent
Ġtempora da
ĠSanc ti
Ġbenedic entur
J n
am as
Ġf at
la dos
Ġrec uerdo
Ġtri bus
Ter tio
Po ur
Ġescu cha
Ġserv orum
ĠSalom Ã³n
Ġdob le
ocu pa
] :
g em
t ti
Ġp ic
Ġm eri
ĠM or
Ġqua er
Ġsab emos
Pue des
Ġcapa z
4 1
j Ã³
m ma
te les
di ciÃ³n
ÃŃ simo
Ġre man
ba ra
Ġac cipi
Ġherm ana
ĠpolÃŃ tica
Bus car
- Â¿
6 6
Ġa peri
ti les
Ġv arias
Ġcon iu
ĠC ON
ter ios
era ciÃ³n
Ġgra vi
Ġprop rie
Ġinc om
Des cu
tiv amente
N ueva
P l
b amos
Ã ĥ
im i
Ġb ri
ĠP ub
ĠM en
Ġver sione
po ca
pos ita
ten ciÃ³n
Ġmin or
Ġcol lo
Ġfeli z
Ġsalv ino
Ġgob ern
! ,
P on
er ro
Ġan num
Es a
bre o
Ġmu tu
pr ender
Ġcomple to
Ġapr ender
Ġcit tÃł
D O
I dem
d ero
ĠD I
Ġsi gno
Ġcre ar
vis ta
Ti enes
Ġprae dic
CI ÃĵN
Ġconti go
Ġcie gos
Ġadel ante
Ġa trÃ¡s
Ġf is
Ġre bel
Ġda re
Al guien
Ġcam pi
Ġmod us
Ġcal or
Ġreali zar
Ġprincip al
Ġquibus dam
ci da
an ce
ic amente
Ġper chÃ©
ĠS pirito
pi do
Ġhab rÃ¡
Ġpl ena
gui endo
ĠUni versidad
Ġdiver ti
ĠCas a
Ġconci encia
C er
F in
T odas
s as
Ġt esta
Ġna ti
Ġhum ili
Ġri di
Ġtraba jos
Ġinvi diam
Ġsubi ec
Ġheredi tate
" ?
p p
Ġp uni
Ġm uni
Ġf ebrero
Ġre peti
mp oco
gu os
Ġac c
Ġsem ana
lus i
Ġvirtu tes
Ġencuent ran
Ġsacerdo te
Ġresurrec tionem
Ġpes ar
B i
M on
r om
t ent
Ġd ud
Ġs ar
Ġa tra
ÃŃ dos
Ã¡ g
ĠA mor
Ġpre fer
Â» ,
Ġpas iÃ³n
Ġjun io
ĠVatic ano
Ġd udas
la ciones
Ġse qu
Ġre i
ca to
Ġvi ven
Ġ[ ...]
cu it
Ġlib enter
Ġpers piciatis
Ġgus te
ĠSe p
lar es
Ġrep ente
U M
qu in
Ġac Ã¡
ĠF re
Ġna ve
por te
Ġ19 0
ho vÃ¡
Ġpopul us
To da
ĠVer dad
Ġcli entes
ĠL es
ĠV ic
ĠO remus
min os
Ġpla ceat
Ġguar da
Ġlud ere
Ġ uer
Ġin ici
Ġto m
Ġta mpoco
Ġab ril
Ġtemp oribus
Ġanim i
ĠRom ani
Ġsolu ciÃ³n
titud ine
eg y
ĠseÃ± al
Ġaband on
Ġesti lo
O ri
P are
S O
c uno
ĠD o
Ġad min
ĠT ri
Ġsal e
Ġfo to
Ġspeci e
Ġnov um
Pra es
Vol up
Ġnub es
U N
a a
Ġe uro
Ġin for
enti o
tis simi
va do
Ġfili us
Ġconfi r
Ġpossi bile
Ġho gar
Ġenvi Ã³
Ġjo ven
Ġtradu zione
d res
l Ã¡
Ġs ti
Ġs ana
Ġl len
Ġen ter
ĠS O
Ġpi er
ĠRe ino
Ġlengua je
Ġpeque Ã±o
Ġgru po
B isogna
in te
an tium
Ġh ones
Ġi ba
Ġre cu
Ġan cora
enti as
Ġma ra
il lo
Ġam an
Ġpl ura
ĠEt hic
ĠLe y
Ġsenti r
ĠCor Ã¡n
Ġcambi ar
O ra
c Ã³
f ini
Ġes cogi
bi da
Ġper mis
vi dad
Ġam icos
Ġob lig
Ġsub sis
Ġcos tum
Dic e
Ġsacri ficio
ĠFili us
Mul ti
Ġbre ve
Ġs tel
ta ciones
ĠE mp
ĠP al
Ġra tionem
Ġsim ple
din is
ĠJes ucristo
Ġconc ur
?? ?
Ġpap el
E os
ð Ł
Ġs is
ĠA ra
mo di
ur um
gi da
ĠL uc
Ġver siÃ³n
Ġpar tir
Ġsal vos
Ġlle gÃ³
ĠY ork
Ġim Ã¡
blem ente
Ġpoter it
Ġetique ta
V ale
b lo
x ico
qu isi
Ġde vo
ci one
Ġf ri
ul e
et to
tan tur
Ġpu di
Di jo
Ġintel lig
At que
Ġobs tante
Ġfiloso fÃŃa
T ÃŃtulo
c unt
f t
Ġs pe
Ġdi gnissimos
Ġo biec
Ġcom pe
Ġcu arto
Ġmo vim
ĠO s
Ġconse jos
Ġdif fic
Ġquan ta
Ġespa cio
Ġproduc tos
Ġopini ones
C risto
J e
Ġs ia
Ġs cu
Ġa van
Ġn ell
tu l
Ġdi rÃ¡s
endi te
ĠâĢľ Â¿
Ġgu ber
Ġadi pisci
Ser vi
Ġloc utus
5 1
L c
U R
Ġa ire
Ġcon ten
el ec
Ġsi ente
ĠP et
bra n
era dor
Ġca er
Ġac ce
Ġres ur
der it
cul as
Ġtan tas
ni dad
Ġpereg r
Ġm io
Ġla v
Ã³ venes
Ġre cep
Ġpor tat
uer te
Ġci entÃŃ
ĠG ali
In di
con tra
Ġcor po
Ġrec usandae
Ġinc luso
cur so
Ġfre qu
Ġlic et
ĠrÃ© pon
Ġpulch ra
E cco
ta vit
Ġt ria
ue ba
ĠE cce
ĠG u
Ġni vel
ĠEs paÃ±ol
Ha z
ĠW i
Ġcrea ta
ĠAs ÃŃ
Ġorg ul
Ġprogra ma
Ġet erna
Ġdi je
Ġme os
Ġil um
ĠF eli
con om
Ġimp on
Ġpas Ã³
Ġcar ta
ericor dia
Ġgra ve
Ġemp e
Ġpueb los
Ġanti ci
Ġbus car
Ġcru z
Ġfeli cidad
Ġrom ano
Ġartic le
5 7
Ġ Una
Ġe lig
re xit
Ġes pero
Ġin gres
Ġi ci
Ġha i
bi l
Ġb iso
Ġdes id
tr ue
Ġca lidad
Ġpos teriores
Ġcons tru
Ġfor o
Ġch risti
Mi entras
Ġaudi re
tori as
Ġe pisco
Ġc erra
di tur
ri um
Ġdi vis
Ġr eno
Ġsim ul
Ġess entia
ĠVi da
Ġdor mir
ĠEuro pae
Ġclas e
ĠtÃŃ tulo
PrÃ³ ximo
P Ã¡gina
x ito
Ġf um
ĠA frica
ch is
Ġcu Ã¡l
mi te
ver i
Ġca el
Ġma yo
ĠJ oseph
Per chÃ©
Ġ200 6
Ġsoci edad
Ġcorp us
ĠVer bo
Sic ut
ĠimÃ¡ genes
6 4
A Q
p rim
Ġv enta
di erna
ĠD ic
Ġan geli
Ġser es
des t
ÃŃs ticas
ĠSa tanÃ¡s
Ġimpor ta
Ġfide i
Ġexcep turi
Ġalcan zar
Ġdemon s
D Ã©
p ol
y pe
Ġqu alis
Ġf ic
Ġres to
Ġvia je
gus tÃŃn
Ġconsecu encia
? Â».
o cia
p Ã³
x ta
Ġp uso
Ġc ari
is ten
ĠA udi
ĠT rin
Ġvo ce
Ġhu bo
ĠNa cional
Ġcaus am
Ġhon or
ĠPre guntas
Ġdul ce
ĠFil Ã³sofo
Ġsitua ciÃ³n
d ec
Ġde dica
Ġcom pa
Ġb ella
ces s
Ġpi es
Ġaut or
Ġsuo i
ĠVi de
Ġinveni re
ĠAbrah Ã¡n
! âĢĿ.
5 8
a tur
m er
m entum
Ġe odem
Ġla d
ĠE u
ens is
Ġpri us
sim um
Ġdeci mas
Ġenci ma
. ÂĴ
i on
z c
Ġs istema
on da
Ġf echa
Ġsu pre
Ġg anas
ĠL ÃŃ
Ġver i
Ġpar i
Ġcur so
don de
Ġsatis fac
6 5
T ex
h os
j eros
er nos
Ġs ome
Ġp en
or din
ci te
ĠA egy
Ġre preh
Ġme is
Ġpro pon
Ġhi ja
Ġsec reto
Ġperfec ciÃ³n
Ġado raciÃ³n
Ġperd Ã³n
b em
Ġe as
tu ales
Ġin ci
Ġcon duc
ĠA AS
Ġre us
Ġper don
Ġres pi
ina li
Ġelec ciÃ³n
forma ciÃ³n
Ġamici tia
Ġpia ce
A mor
Ġd ro
es ar
Ġin oc
Ġin dustri
Ġse is
Ġsi gna
tin g
Ġverita te
Ġmedi da
Ġcon tar
Ġdel lo
Ġsi l
vi lla
lo go
Ġtu erto
ve la
Se guir
Ġos cu
An tes
Ġtran si
Ġintel le
Ita lia
Ġcont enido
sic ut
c fr
Ġd atos
it es
ue ve
Ã± ar
ĠT a
Ġquod dam
Ġcons er
gun o
Ġcar o
Ġda ta
Al lÃŃ
Ġins ta
Ġhis tÃ³
Ġiu dic
Ãª n
cumb ent
T om
Ġ {
Ġti pos
Ġdis per
Ġsum us
Ġul tra
and ro
ĠAc tividad
volu ciÃ³n
C al
Ġa tre
Ġde mos
Ġg Ã©n
Ġg ui
pi ente
na tura
Ġtan tos
Ġve ter
Ġlle v
Ġsuf ri
Ġscrip tum
Ġmagis tra
Ġll ena
Ġencontra do
Ġvie jo
Ġide as
d Ã³n
h em
Ġa ve
in um
Ġqu isi
Ġre cumbent
Qui enes
ĠT odos
Ġob ed
pu ta
Ġvel le
vis o
Ġum quam
Ġcelebra n
ĠCre ador
D em
G O
N ext
Ġc oc
Ġes fuer
ĠC risti
ma d
Ġex termina
Ġdesc ar
nos tra
alis mo
19 8
Ġvuel ta
Pat er
b ur
u de
it s
Ġal rededor
ut bol
In tro
Ġsan tos
Ġ200 5
Ġbo ca
Ġconsecu tam
Ġdisci puli
Ġidi oma
! Â».
p al
Ġe cclesi
Ġcon uer
Ġpa c
et Ãł
Ġmi erda
ĠG a
Ġsec re
Di f
Ġperson al
Ġori gen
Ġproces o
Ġsir ve
QU E
Ġconsec tetur
Ġs Ã¡
Ġse gui
Ġpro teg
tan ti
ĠÃ ī
na da
âĢľ Â¿
Ġescri tura
lio teca
Ġservi r
ĠÃºn ica
Ġl am
Ġper mit
ut um
Ġdes pi
Ġpu do
ĠCar ta
Ġval de
Ġfun da
Ġobli vi
Ġexer ci
Ġdeber ÃŃa
Ġpersevera re
p tum
Ġc Ã³
Ġc entro
Ġvi enen
ch er
ac ula
ĠM ic
Ġcons erva
Ġanim ali
ban tur
ender it
Ã§ o
Ġrep ellat
lin as
Ġsuscita re
Ġcrey Ã³
Ġsimil is
ĠInter net
c ent
k a
Ġ )
ti dos
Ġqu es
em po
Ġpro ve
ĠM al
end ario
Ġpre cio
Ġqua erat
Ġoc chi
dem ia
Â« .
Ġuni dad
Ġmod os
Ġestar Ã¡
ĠFa vor
Ġoport unidad
D oc
m et
o ce
er tos
an ae
Ġb en
Ġpro te
Ġma gna
Ġar tÃŃculos
ĠIn g
Ġcan dida
Ġincre ÃŃ
lesi as
Ġcommo di
E C
bi amo
ue gos
Ġte mor
Ġso lici
ĠIn fi
ĠÃ© xito
Ġmo da
gra do
Ġten gan
Ġ3 5
Ġsec ondo
Ġdeci matus
Ġmin utos
Ġinc or
Ġag ri
Ġleg ere
bul um
Ġux orem
Ġplu res
ĠJe hovÃ¡
O p
l ui
Ġde termin
Ġen g
di rec
Ġpo u
Ġcons iste
Ġop ciÃ³n
fic os
und us
9 0
E j
S ine
c ando
f ono
ĠD er
Ġpro fec
In f
ad en
rec ÃŃa
Ġfaci s
ist encia
Algun os
ĠBra si
ĠÃ³r denes
D A
g ri
p pe
x o
Ġs enza
am i
Ġf ini
Ġle o
Es tamos
ver dad
Ġquid am
Ġdic at
ĠAn geli
Ġves per
ĠcuÃ¡n to
Ġejerci cio
D enique
G ran
e um
ti or
Ġqu Ã¦
or s
ĠT h
pe dia
ĠJ ud
Ġcontra ria
por que
Ġoc ta
Ġcomm enta
Ġleg atum
Ġur gente
Ġtend rÃ¡
Cons ul
Ġeduca ciÃ³n
ink ed
T a
m od
p hi
s w
z Ã¡s
Ġre co
uer to
Ġfuer int
gen da
Ġquin ta
Ġsex o
ĠprÃ³ j
Sim ili
Ġantici po
Ġse as
ĠD em
Ġtu yo
Ġcu ad
il las
Ġcre do
ĠIn icio
ita e
Ġman u
Ġmal um
Ġva ya
rit Ã¡n
Ġmortu i
Ġmortu is
Num quam
Ġrecon oci
Ġregi ones
ĠtÃ©r mino
S ub
S cegli
c ro
Ġs per
Ġf utbol
Ġre per
Ġcum ple
Ġali os
Ġta le
Ġsub li
Ġrec ta
titu do
Ġinv entus
Ġherman as
200 8
Ġprue bas
Ġprophe ta
ĠPr inci
Ġevi tar
Ġcria tura
S ta
g ens
Ġcon den
im iento
ĠO b
unc ta
Ġcul to
Ġtut te
Ġconoci do
Ġcristi ana
Ġnecess ario
ĠmÃ© dico
.ÂĴ ÂĴ
7 48
s ti
Ġ ]
Ġa j
ta ble
Ġre iciendis
bi tis
ĠS ue
Ġb ur
Ġmi ente
Ġmi les
Ġhab rÃŃa
ĠB en
Ġpra eter
Ġer unt
Ġinc endi
Ġhac ÃŃa
Ġpens ar
ĠIes u
Ġsacram ento
Ġgehen nae
F al
M A
em ania
ĠA gustÃŃn
Ġtu is
Ġna cido
asi Ã³n
Ġfal sum
Ġprof esion
fa ci
Ġdivers as
ĠGener al
Ġprovid ent
N om
d Ã©
m ul
Ġf la
Ġdi i
Ġo fer
Ġre gnum
ĠM Ã¡s
No ticias
Ġlu i
Ġmon ta
ĠSe guidores
Ġfe ci
Il le
Ġri chi
Ġju ro
usti cia
dis tis
Ġdec ÃŃan
Ã©c n
Ġafi rma
ĠFavor itos
P s
j an
ti fic
om pe
Ġg rie
Ġad ver
Ġdes erunt
Ġil lis
ĠCon si
ĠSi guiendo
Ġlec tores
Ġsent entia
ĠSo bre
Ġintellec tus
5 3
D OS
Ġsu ces
vi e
et ti
tion um
ĠT or
Ġdu ae
eli ta
tad or
Ġaeter num
elu ia
ĠMad rid
Ġextermina ti
M an
p ue
u dos
Â ©
Ġme tus
ĠT ro
ĠB er
ili o
ĠFatu ae
M ol
Qu asi
ĠC l
Ġpo bre
ĠCa pi
Ġdiscip lina
N ec
Ã¡ li
Ġo cho
Ġmi lia
Ġac os
tar Ã¡n
po test
Ġam as
Ġdu ri
Ġfi eles
Ġ3 8
Ġexis ten
ĠPala bra
M us
er ent
on as
Ġp eso
Ġin se
Ġf ino
Ġdi ven
gn at
Ġac us
Qui eres
Ġtra i
Ġmo tus
Ġvo i
Ġante quam
Ġnom bra
Ġsuf fra
Mu chos
tivi dades
Ġencuent ro
Ġprincipi os
Ġorg ani
ĠrÃ¡pi do
5 6
S omos
t eni
Ġp elÃŃ
qu ÃŃa
Ġcon dena
Ġpa ge
Ġsi quiera
Ġad sum
gan tes
ĠQu in
Ġreli quis
ĠX X
Ġrom anos
Ġesper ar
tiv um
Ġviol asti
ĠGre cia
T R
t ÃŃa
v isiÃ³n
Ġd am
un ti
Ġg iu
ĠE va
Ġau dio
cri bir
Ġesta blec
Ġu omo
Ġaut Ã©n
tica e
Ġnatura m
Mi ra
Ġservi re
mit es
Ġsor te
Ġarri ba
Ġcontinua ciÃ³n
Ġalum nos
A udi
an ci
Ġsin istra
ten de
Ġri dÃŃ
ram ento
Ġtene tur
Ġdilig ere
Ġregi one
pie za
t enido
Ġtu orum
Ġco pi
Ġfi el
Ġuni versi
Ġinf atti
versi Ã³n
Ġsoci ales
Ġcivi l
Ġreve laciÃ³n
Ġelegi r
Ġing lÃ©s
ĠpÃº blico
ĠFatu e
Ġcirc un
Ġrepudi andae
Ġe ro
Ġf ues
Ġre tro
Ġpro duce
ĠM edi
il s
Ġmis eria
gra ph
Ġexp lic
ĠQu ando
Ġabs olu
Ġini tio
Cre dite
Ġabsur do
ĠprÃ³j imo
! .
V al
i ra
Ġs ensu
Ġes as
Ã³ r
Ġo ve
ĠR ed
por t
Ġcuer pos
Cum que
Ġmulti plic
Ġcrey ente
Ġfir ma
ĠHispan ia
S S
S Ã©
Ġm am
Ġv ini
Ġse de
Ġg oogle
gi os
ĠT r
ĠN ombre
ĠO n
Ġimp endite
Ġus ar
Ġlu ce
âĢ¦ .
Ġllam ar
Ġtri un
Ġsuf fecta
ĠÃ¡n gel
Ġvuel ve
Ten emos
Ġala ban
d s
p po
z ando
in es
ci les
Ġin j
Ġcon fer
Ġo h
cul tura
Ġmo tivo
Ġim pie
Ġaudi vit
Ġmom enti
Ġrela ciones
Ġfamili as
Ġdirec ciÃ³n
Ġll eno
Ġelegi do
Bien veni
Ġmiem bros
Ġdigni dad
Ġizquier da
D ÃŃa
Ġde man
ti endo
an de
Ġh arÃ¡
Ġpa tet
Ġtu ae
ora ciÃ³n
ed ra
ĠEs ta
Ġdeb emos
ĠInter na
C ir
Ġs c
Ġf ÃŃs
ri as
Ġal tera
ed or
ĠÃ ļlti
Ġsal vo
Ġomn ibus
Ġpu ri
man di
Ġmul tae
Ġfra trem
Ġpe or
Ġnes cio
Ġcondi ciÃ³n
Ã¡r cel
Ġpecca ta
Ġconfor me
Ġaedi fica
F ra
P e
is tir
tu vo
ĠD ani
ĠC ru
ĠP Ã¡gina
ch io
ac to
Ġmis eretur
ĠAl l
Ġfaci es
Ġoc cu
Ġanti guos
ĠAu g
Ġsubstan tia
Ġresu cita
Ġespos a
5 4
U ti
k s
p ensa
r era
Ġe ri
Ġa tribu
Ġa peti
ĠE sa
ĠV eni
In c
Ġ" Â¿
ari amente
Ġop in
Ġbu on
Ġfra se
Ġvoc es
Ġlet tera
Ġcria turas
trib ui
ĠGe or
Ġc ris
ti da
di an
em pio
ĠD ure
ba te
Ġac tus
ĠN ueva
Ġda to
Ġpare cer
Ġdifer ente
Ġpropi edad
Ci ertamente
Du rante
A C
u elo
ĠD amas
Ġpro bar
tor no
ad amente
Ġfu isse
ĠCon tra
Ġven ga
Ġdom ani
ser va
fa ut
Ġmari do
Ġaleg rÃŃa
Ph one
w are
Ġ ÃŃn
Ġa pa
ti mos
li ce
Ġin teg
Ġf as
Ġf eria
Ġvi vit
Ġvi vos
Ġvi deri
Ġmi la
Ġres erva
Ġhab etur
ĠL una
Ġcre Ã³
ĠB on
Ġali us
Ġap pro
Ġ4 8
ser it
Ġintel leg
Ġmes sa
Ġur be
Ġsubi to
CuÃ¡n tos
Ġcomi da
ĠÃģ n
Ġconcu pisc
C ul
I sa
f Ã©
Ġ #
tu lum
to ire
Ġsu je
Ġre ti
le a
ter ra
ĠE duca
mo do
Ġcre es
Ġlib res
Ġsub lim
Ġgus tarÃŃa
Ġpec adores
Ġmon tana
min is
ha bi
Ġesc Ã¡n
Ju an
Ġadmi ra
Ġgol pe
I bi
Ġsu yo
Ġpro va
ĠM em
Ġma gia
ĠF e
tura m
Ġni Ã±a
Ġip so
Ġtes tamento
Ġprincip ales
Sa tis
Ġfundam enta
Pu ella
C ara
d unt
i as
j unto
z Ã¡
Ġp le
Ġc ib
Ġh echa
Ġf ere
ĠA ut
ĠA na
Ġre tribu
tan s
qui dem
ĠR ob
Ġfac ti
Ġera m
Ġri es
Ġnatura lis
Ġdiv enta
Ġreci be
Ġreligi os
lin io
Cre a
Ġped es
! Â»
b Ã³
ci pe
la da
el los
ĠM es
Ġdes ta
Ġcu rios
ba to
ĠR ab
Ġcre de
Ġson t
Ġcons c
Ġap lica
Ġu b
Ġvol uit
Ġpla cer
Ġreci bi
Ġestu dio
Ġargum ento
Ġcapa cidad
Ġmaes tro
Ġejemp los
m em
Ġs toria
Ġl ista
ÃŃ so
et us
oc er
Ġimp erat
Ġcam era
Ġado p
Ġscri bere
Ġplan eta
Ġfo togra
ĠtÃŃ tulos
C asi
E mp
g or
di ciones
Ġan ci
Ã¡s ico
Ġpri or
ĠÃ ª
Ġprop Ã³sito
Ġdiv or
Nem pe
ĠFam ilia
Ġconsc enderat
c ci
h u
r ÃŃas
re z
to dos
om as
Ġan g
Ġcas as
ÃŃs tica
Ġloqu ar
Ġsublim ibus
E adem
g entes
v um
x a
Ġm el
Ġqu oc
Ġla tino
ĠA ca
Ġvi ento
vit Ãł
Ġter cera
Ġ3 3
pues tas
Ġconsi lio
Ġbel leza
Ġpraes entium
Ġcorpora l
Ġindu rat
Ġbiso gno
c ero
s ci
en cial
Ġno ticias
Ġcu estiÃ³n
co unt
il l
Ġob tin
Ġgus tan
ĠAn g
Ġpla ta
Ġcer to
Ġher mos
ĠSa grada
Ġbas e
ĠSer vi
Ġformul ario
ĠCul tura
inked In
D al
G u
G al
L in
c tus
f os
er amente
en ce
Ġc Ã¡rcel
ti eron
Ġv it
ic em
ĠA dam
vi de
tan as
brah im
Me jor
Ġcos Ã¬
Ġsuper fici
Ġdeb ent
cel ona
ĠdÃ© faut
Ġtene bras
Ġnego cio
Ġinteres ante
Ġqueri do
Ġgior ni
Ġtrac tare
Ġham bre
V III
c ina
g lesias
qu ista
Ġin ca
Ġf eri
Ġg as
ĠS ab
si oni
Ġex terior
Ġdes crip
ĠV II
Ġinter net
ĠEs tado
Ġquo t
Ġescri be
Ġmedi os
Ġvolun tatis
Ġestu vo
Ġactu al
Ali quid
Pr inci
Ġinterroga verunt
Ġexpe dita
Ġoccur rit
Ġrefi ere
Ġduri tiam
Ġsuffra gi
H emos
d Ã³nde
Ġa gu
is to
Ġg entem
Ġ" Â¡
omn es
Con tin
Ġve hÃŃ
fic ab
Ġreligi osa
Ġpub blica
ator io
Ġnecessi tate
Ġinterpre ta
Ġpeli gro
Ġcono zco
Ġmanif es
Ġexemp la
Ġocasi Ã³n
Ġproyec to
Ġdetal les
N uestro
d Ã³
j al
n io
Ġs eno
Ġa gi
Ġa bajo
Ġc ere
an zas
us ta
Ġb at
Ġpro pe
ut es
Ġle ga
Ġres ta
fi rma
Ġser m
Ġar mas
cer n
ant s
Ġtemp oris
uc aris
Ġcual quiera
ĠQu is
veni et
Ġabs que
Ġlugar es
Ġpub lic
and us
Ġquer er
ki pedia
postÃ³ lica
e tis
f lu
r ent
ca da
Ġb an
ĠE vangeli
Ġpo ten
ed er
co la
vo ir
ĠIta li
Ġinfer ior
ĠFor ma
true bat
s an
Ã ´
ar do
di endo
Ã¡ tica
Qu os
Ġal em
qui tec
ĠV o
Ġpar ole
ĠJ a
Ġne gar
zi on
dic os
fic ere
Ġro pa
Ġord ena
Ġtotal mente
Ġpertin et
ĠmÃŃn imo
Ġresul tado
Ġmandam ientos
t Ãº
ra ta
do ma
Ġme ta
Ġpa g
Ġcom ien
Ġver itas
Ġali menta
ces sit
Ġpi ens
Ġmor tales
Ġhomin um
Ġlon gi
Ġmit titur
ĠOri ente
Ġaperi am
S I
S ur
i dos
Ġ Quien
Ġl imos
Ġm ore
Ġes pe
di as
Ġse lec
Ġcom pon
Ġan al
Ġex t
pi da
Ġas ocia
Ġco tidi
Ġaut oridad
ĠSal va
Twitter Facebook
pres entan
Ġimpos sibile
Ġperse ver
Ġcie go
ĠOc cid
Ġadsum ptio
" Â¿
d ent
g ed
Ġs cho
Ġet erno
tur is
oc Ãª
Ġac tividad
cer ca
Ġr in
Se Ã±or
lar o
Ġpod rÃ¡
tÃŃ simo
ĠU r
olo ca
Ã¡r telo
Ġsuscita bit
200 7
Ġdiffer entia
Ġesca par
Ġocasi ones
, .
A Ãºn
c le
k o
l on
t Ã©s
u is
â Ĥ¬
er tas
Ġs entado
Ġa z
ci enda
am eric
Ġdi ablo
Ġal co
si gnum
Se gu
Ġmon aden
Ġcol e
Ġhomin i
Ġdec re
erum que
Ġris posta
Ġdix issent
Ġord ina
Ġsos p
Ġpau per
Ġcateg oria
Ġacom paÃ±
m m
Ġe ch
Ġn ar
to lo
ĠE li
cu entes
Ġ20 00
Ġob tulit
Ġins ula
Ġtraba ja
ĠDi xit
Ġli bra
ĠConse jo
Ġimpie tatem
5 2
F onte
c uela
l li
Ġs ensa
es tro
as te
Ġen er
Ã© rica
ĠD on
ue ves
ĠM el
Ġex am
Ġcu Ã¡ndo
Ġac ciones
Ġma tar
Ġco ok
Ġis tis
Ġmas cul
Ġgo ver
Ġaspi cias
Ġdicer es
ĠHebra ico
D ico
Ġcom uniÃ³n
Ġal c
tion alis
ba i
ĠH oc
Ġcons tat
Ġcan ta
ĠDi rec
ĠCa usa
Ġbon o
ĠÃº til
âĢĶ Â¿
Ġima gina
ĠnÃºm eros
Ġdesa pare
t ena
Ġs pera
Ġc rÃ©
an ismo
Ġdi m
res urrec
mp a
Ġso ber
ĠIn stitu
Ġea que
Re ci
Sin t
Tra ba
Ġsali Ã³
pend entemente
m entos
Ġc rÃŃ
Ġl lu
Ġm Ã³
Ġn em
Ġsi guen
Ġcu arta
Ġj Ã³venes
Ġna ciones
fec tos
tic amente
eter ea
vers us
Ġess endo
Ġmus ul
Ġpeligros amente
Ġentendi miento
C erte
D uo
y eron
Ġp ur
ci am
an tos
Ġvi am
tam enti
Ġac aso
ĠT ag
Ġar tis
Ġfa ce
des a
Ġhi ci
na tur
Ġgra tias
Al go
Ġpec un
Ġju di
ĠU S
Ġconc lu
Ġum a
Ġasc end
Ġdejar Ã¡
Ġparticul ar
A B
L inkedIn
Ã »
Ã© tica
it y
Ġre pe
ĠM inis
Ãº blica
lam ento
Ġoc casi
20 14
Ġconse guir
jar os
Ġtesti go
Ġfo tos
Ġrey es
ĠcompaÃ± eros
Ġfl ores
i da
m ine
Ġd at
Ġd abo
Ġs con
ci ales
Ġin noc
Ġo i
bi lem
il es
Ġali anza
Ġoc ci
20 12
ĠPa ulus
Ġvul n
Ġsor ores
Ġcomple ta
Ġdej ado
Ġsatis fec
Ġmanda tum
preh ensi
Ġestre llas
Ġpregunt Ã³
Ġinvent ore
Ġscu ola
Ġd ur
ci oso
Ġque dan
Ġdi mit
Ġsu el
ter anno
Ġvi ri
Ġan Ã¡lisis
Ġdis tancia
Ã±o la
Ha ce
Ġcan e
Ġmortu os
Ġmani fi
Ġpraec onium
ĠAugus tinus
e dades
s y
Ġe vangelio
er ar
Ġl iter
Ġvi va
ĠE d
Ġex cus
Ġdis cu
Ġtra duc
cul ar
Ġmin im
erra mi
ho dierna
Ġch ica
Ġsex ta
Ġconver tir
Ġnecess arium
ĠEscri turas
ĠArgent ina
6 9
E ius
L L
V II
f as
y an
ĠC I
Ġb ril
Ġan un
Ġma il
Ġmu ere
ĠG en
Ġco gni
che zza
Ġcas u
Ġten Ã©is
Ġsec reta
Ġmor tal
Ġhum anidad
Ġir ra
ĠUni dos
Ġinfi r
Ġgo bierno
Ġsar Ãł
E uro
L ec
M ulta
v Ã©
Ġd ona
Ġl oro
Ã³n imo
Ġser vid
Ġpre ocupa
ĠAl emania
Ġab o
eb am
Ġfal si
Ġvirtu te
Ġmay orÃŃa
ĠPar ÃŃs
For mandi
Ġayudar me
Ġsignific at
Ġrecuer da
Ġtesta tur
ĠWi kipedia
M en
l los
Ġ !!
Ġa esti
Ġde jo
Ġes encia
di mus
Ġt ren
Ġal mas
ĠE N
lica e
Ġneces aria
Ġgus to
ĠSe de
Ġgusta do
Ã¨ s
ĠCom un
Ġfugi at
Ġstes so
g hi
v us
y mp
ar me
ul tad
ĠC la
ĠC Ã³mo
ter ius
Ġsi gnos
vi endo
pa do
co li
ĠG i
Ġop ere
gra cia
Ġqua eri
Ġoc to
Ġami ga
Ex emp
ĠMar co
Ġanti guo
Ġris pon
ĠUni versi
Ġdesi gn
Ġdisc or
Ġinte gra
Ġinvesti ga
Ġcae li
Ġnumeros am
Pare ce
ĠLÃŃ bano
ĠInfi erno
O dio
b ÃŃ
ta tionem
Ġv isiÃ³n
ri us
ari is
Ġu i
Ġpotes tate
dic to
Ġri c
Ġ4 5
ex cus
ĠMa gis
Ġul timo
Sec undum
ĠVir gen
L at
ta lis
Ġm ere
ĠIn s
Ġap re
ari am
Ġcam pos
ani tas
Ġreci pi
Ġcristi ano
ĠHe breo
Ġros tro
Ġdemons tra
I u
O tros
c Ã©s
Ġ ï¿½
Ġc ine
Ġre mo
bi en
Qu ot
ĠC ui
Ġcom bat
Ãº lti
ina je
Ġali i
alis ta
Ġhabi tantes
ĠU N
Ġbon dad
Ġmora les
Ġenemi go
ĠMensa jes
ĠMÃ© xico
Ãªn cia
ĠescÃ¡n dalo
Ġlimos na
G en
a pon
g ini
h at
Ġd oy
es pera
Ġa vi
Ġp elo
Ġde fecto
Ġqu arta
ci ae
Ã© g
Ġcu yo
gi um
Ġver so
Ġpar ola
ĠIn di
lam os
cep to
Ġcomp rar
20 10
Ġher encia
Ġdoc tr
isti t
til las
ĠChris tum
Ġserv us
ciona dos
Ġiudi cia
Ġmara vil
Ġove jas
H ac
L ux
O F
Ġm enda
or y
un tia
Ã¡ rio
Ġsu jet
Ġre des
ĠP ad
Ġpro voca
Es tu
ens or
du ras
Ġaqu Ã©l
Ġap peti
Ġfac to
ĠSe x
Ġquis o
Ġvide te
Ġess entiam
ĠquiÃ©n es
esi ones
Ġform ula
Ġcat ho
ĠEcclesia e
Ġprovin cia
Ġpoc os
Ġ \"
en im
ri eron
it or
Ġo ÃŃr
Ġg eni
vi era
Ġac tum
ĠT ar
ve z
Ġas s
Ġfe de
Ġcomp et
Ġju lio
Ġfin es
ha ec
Ġdom ina
Ġexp licar
ĠDomin o
ensi one
Ġequi po
ĠIo ve
Ġperten ece
ĠprÃ¡c tica
Ġdemo cra
Ġmovim iento
A Ã±o
C el
d ul
e is
an al
Ġin dic
da te
ĠS ant
Ġb la
Ġad qui
Ġan cil
Ġex pec
La b
Ġto l
Ġmis er
Ġrec ur
Ġinv icem
Ġmenti um
ĠEn tonces
Ġapare ce
Comp Ã¡rtelo
E m
S ara
Ġa o
or re
an n
Ġan teriores
ora do
ĠR espon
Ġdis cus
Ġra pi
den tur
Ġdescend unt
Ġfili um
Ġfun ciona
Ġdar Ã¡
Ġsali da
Ġobli ga
Ġresurrec tionis
Ġpropi as
Ġllama da
Ġobedi encia
Ġrecom i
ĠCat ho
Ġdescu bri
Ġconuer sionem
sw ord
ĠDani el
9 9
I ma
p am
r ere
on um
qu os
ci um
is tere
Ġla ud
Ã¡ logo
ĠA ma
ĠI erusalem
Ġpa gar
Ġser ie
cu ius
Ġcor reg
Ġap or
Ġmor tis
Ġcomp ra
lic os
ha re
Ġdiver sa
tiv ae
dici um
Ġsuffragi is
G i
R erum
s ab
Ġde bo
Ġes con
Ġin cer
Ġf ar
Ġque llo
Ġi Phone
bi mus
Ġper si
Ġsi ve
ĠP aris
ĠF ara
Ġna ves
ĠB al
ĠH on
na re
pues tos
Ġante pas
bu it
ser v
Ġreali za
ord ina
tifica ciÃ³n
Ġexs pec
Ġcontac tar
Ġbau ti
8 0
U I
f on
p ut
Ġde trÃ¡s
um a
Ã³ cra
Ġnon dum
vi da
Ġan o
cia ciÃ³n
Ġpl uri
ĠU t
Ġinf lu
Ã¨ res
ell endus
Ġrom ana
pend encia
Ġcomun ica
Ġagra da
Ġconsec uta
Vis ita
Ġexcel ente
ĠBus car
B ib
w e
Ġe ris
ar ÃŃa
Ġv emos
ĠI X
Ġvi des
tan os
ĠF ra
ĠN ic
ĠO jos
Ġpas tores
ven tu
Ġdiv es
Ġnum erus
ĠW ord
Ġtri bun
Ġintel ligi
Ġir ri
tim um
ĠmÃ¡ ximo
ĠBib lia
ĠOm nes
Ġdesid era
Ġrepreh enderit
Ġquoc unque
G enes
b untur
t ens
Ġs pes
ÃŃ m
ĠE r
ĠE bora
ĠM undi
Ġex pecta
ver is
ĠR eli
Ġdiv isiÃ³n
Ġllam Ã³
din es
ua da
Ġfun das
ĠPat re
Pa gina
ĠÃģ frica
Ġocur re
Ġperpetu o
Ġhabl ando
enaventura dos
Ãĥ O
j am
an es
Ġha z
Ġte mas
Ġsol lici
lam an
pu la
Se qui
Ġten ÃŃan
Ġfi gu
fic as
Le er
lidad es
Ġopera ciÃ³n
Ġequi voca
Ġigu ales
Ġapro v
Ġresulta dos
ĠincreÃŃ ble
A P
b y
h ema
k et
Ġ Q
ÃŃ c
Ġvi ola
tra do
Ġlas cer
Ġsal ve
gra ma
Ġu tique
pu re
par te
ras es
ble a
Hab ÃŃa
Ġuti le
Ġtes oro
Ġminis tro
Ġunivers al
Ġconsci entia
Ġlascer Ãł
' ,
U lti
v ent
y m
ti vis
ci ente
Ġb Ãºsqueda
Es paÃ±a
mi do
Ġpo b
tis simo
gi Ã³
âĢĿ ?
Ġver bis
ĠV ene
Ġdis tribu
Por ro
Ġcognos cat
Ġplan e
Ġvin cti
tru zione
ĠprÃ³ ximo
Ġpedi r
Ġunir Ãł
Ġgal linas
ĠAnti guo
ĠConci lio
Ġdiven teranno
Ġapeti to
T es
f al
Ġc Ã¡n
Ġin venit
ĠA us
Ġt est
ĠC er
tur os
Ġb al
Ġex positio
Ġdes pe
Ġac tos
Ġau g
ĠG io
Ġap elli
Ġco o
gun do
Ġimp ro
Ġneces itas
min atus
ĠRe vel
Ġem bara
Ġinfer num
Ġpens amiento
Ġbendi ciÃ³n
Ġintelig encia
ĠPila to
Ġcrim en
e Ã±a
n de
r Ã©s
Ġc entum
Ġn im
Ġdi gno
em as
vi le
Ġte c
ĠB as
ĠH om
ĠH ombre
Ġam ica
Con f
Il la
Ġpres idente
ĠU bi
Ġdilig endi
Tam en
Ġinterpre taciÃ³n
Ġhumil dad
Ġdispon ible
Ġsangu ine
Ġâ Ĥ¬
Ġfratel lo
l ori
Ġs pon
Ġm ia
Ġn ymp
li zaciÃ³n
Ġf oras
ĠP ue
tem ente
omin es
Ġpu ra
Ġcar is
Ġri que
ĠX II
ĠEx ite
ĠLib er
Ġtempora l
vio us
Ġmedic ina
Ġelem entos
ĠPh ara
M er
T omo
c Ã©
g Ã©n
u isti
re as
ĠC os
Ġmi to
tem bre
Ġser vo
ĠR i
Ġcor rer
Ġ: )
Ġ3 2
Ġdom ande
Ġhom ici
Ġhic e
Ġtenta verit
Ġproduc to
CuÃ¡n tas
Ġfem ina
Ġrequi ere
Ġresponsa bilidad
ĠRevel amini
V ia
V esti
b era
i gn
Ġa tenciÃ³n
ti enen
Ġsu lla
Ġre b
Ġb ritÃ¡n
Ġpro di
Ã± ado
tan tia
Es cu
ran tes
cu li
Ġcons trucciÃ³n
Ġpers u
Ġsal ven
Ġof fer
ĠEuro pe
Ġexc usa
Ġpecca ti
Ġreve lado
ĠGran ada
Ġofre ce
Ġiac entis
Ġnymp has
7 0
C H
I X
a y
s ino
v Ã¡n
z zi
Ġde x
Ġh unc
Ġcon tat
Ġdi entes
Ġdi fic
vi tas
Ġtu do
Ġmu tare
Ġpar iatur
Ġta ma
Ġhay an
Ġ3 4
Ġmor s
Ġsac ra
20 15
Ġsan ta
Ġdo po
Ġley es
Ġdemon ios
ĠaÃ±a dido
Ġunir Ã¡
Ġgio van
Ġdiverti ti
Indi pendentemente
6 1
u f
Ġc es
Ġm enses
ci tas
Ġn n
ĠA f
ĠD O
Ġcom ed
Ġal tri
Ġci elos
Ġco elo
Ġpu ro
Ġcas os
dam us
uel ve
Ġcognos cit
Ġdistin gu
Ġcaus ae
Ġdelec tus
Ġpeque Ã±a
Ġrecom enda
Ġobje tivo
A mo
T ras
[ [
l oria
an tia
ÃŃ tica
Ġno vis
ĠT erra
Ġco di
Ġter ren
ni um
ĠAn gel
20 13
zar on
Ġder echa
Ġimpor tantes
Ġgener ales
Ġdal le
Ġvisi tar
Ġhabita bat
Ġlar ga
Ġtribula tione
0 3
T ri
p les
z ios
Ġl inaje
Ġen v
di tos
ĠC icer
Ġdes erto
Ġpo enas
Ġmis iÃ³n
va re
Ġau dit
Ġaqu a
Ġpas sword
Ġfuer tes
Ġanim alia
ĠNo Ã©
Ã³lo go
Ġba ja
Ġabi erto
Ġsimil es
Ġpuella e
M em
p pi
v entos
Ã© ro
Ġt y
Qu esto
ĠM ora
et h
Ġac on
Ġac cidit
tor ios
Ġcre ador
pe te
Ġdis cri
Ġsus p
Ġpas si
Ġ3 9
Ġpat re
ĠSi cilia
Ġim media
Ġcrea vit
Po test
ĠMe dia
Ġpaci ente
ĠBar celona
Ġcontes ta
ĠProf eta
C U
Ġqu ic
Ġdi u
Ġno vo
le j
ĠC ir
Ġte cum
Ġdes pre
Ġto mÃ³
gi Ã³n
Ġcre dit
En tra
En trada
Ġcons enti
Ġpre dica
me di
Ġhabi taciÃ³n
Ar tÃŃculos
Ġllam an
eta tes
Ġreligi ones
Ġli tur
pr end
Ġsanc ti
Ġstu l
Ġnecessi tatibus
55 5
Ġth esa
Ġcogi ta
Ġpou co
N uestra
P adre
_ _
Ġd ra
Ġa fec
Ġa vis
Ġo jo
Ġre peri
Ġnon ne
ca te
ĠM adre
Ġle tras
ver at
enta rio
ĠO bis
Ġvol viÃ³
Ġdeci siÃ³n
Ġsab Ã©is
Di rec
ĠAn d
Ġdol us
Ġnum quid
Ġmod era
Ġdiver tido
Conse qu
Ġpermi te
Ġcorrespon de
Ġolvid ar
Ġentr en
E p
O tra
Ġf antas
el las
Ã³n ica
Ġper dere
ut to
ues ta
Ġac usa
Ã©n dose
Ġcons ulta
Ġlle guen
Ġmenti ras
ĠQu am
ĠQu omodo
Compar te
Ġama re
ĠMe dio
Ġinfer ni
Ġai uta
Ġrecon cilia
Ġius tus
ĠFara Ã³n
% .
6 8
S E
p sis
t ene
y es
on t
ta glia
ti f
Ġen fr
Ã© m
Ġse t
Ġo li
Ġali ter
pos o
Ġco tidie
Ġtemp us
Ġrespon sum
Ġinv ol
14 2
eta tis
Rec uer
Ġmod elo
Ġado rar
200 9
Ġexemp lum
Ġgan ar
ĠSec reta
ĠVil lar
gh t
Ġesfuer zo
7 5
b ero
p lo
z z
Ġp ran
Ġc ens
Ġes co
Ġdi catur
Ġqui eras
ĠS ta
ĠM ac
Ġti ran
Ġac count
Ġar tes
Ġman ten
Ġcor da
Ġpotes tatem
Ġbene fici
Ġcui dado
Ġorden ado
Ġvesti menta
Ġmateri ales
Ġacep ta
Ġimper io
ĠtÃ©r minos
ĠCiu dad
M al
N isi
T um
Ġqu ere
am ur
Ġi uris
Ġsu cede
Ġre para
Ġg er
ter os
vi er
pi ta
Es per
No ta
Ãº l
Ġser io
pon itur
Ġpar entes
Ġcar nem
man es
Ġhum anas
Ġaudi at
Ġaudi ant
rit to
Ã©r er
Ġnom bres
Ġactu ali
Ġmulti plica
Ġlim ita
Ġconclus i
Ġadvers us
Bea ti
Ġprome tido
Ġcostum bre
Ġeng end
9 5
D ue
D AD
Ġ âĢĿ
Ġs piritus
li que
ro ga
Ġcon tado
it Ã©
Ġre tra
Ġg re
ent Ã³
vi les
ĠP hilosoph
Ġpro cura
Ġpor tanto
Ġle gitur
ver tir
Ġsus tancia
con si
Ġne gli
Ġ3 7
Ġfaci at
ĠAn te
Ġperson ali
Ġder ni
Ġsex to
Ġedi ciÃ³n
Ġmateri al
Ġpoter at
Ġoffici um
Ġolvi do
Ġconclus iones
Ġpap Ã¡
ffici le
oooo oooo
Ġabsol uto
ĠvÃŃ deo
Ġcorreg gere
S up
T rans
t ente
ra l
Ġm ic
Ġet ern
Ġcon dem
Ġt unc
ol as
ĠI ra
ca dos
vi tatem
ĠE ucaris
Ġdes en
pi to
No vi
Ġca bo
so la
Ġomn e
rim as
Ġ6 0
Ġag it
ĠCa p
Ġini cio
ĠLib ano
ĠÃ¡ ra
ĠMu jer
Dixit que
Tut ti
cter ÃŃsticas
n ologÃŃa
Ġ ÃŃdo
Ġs Ã³
es Ã¹
Ġcon minatus
Ġdi versidad
vi ene
Ġvi disti
fi r
ĠT emp
ru bia
Ġlu cha
Ġima go
Ġvoc em
Ġlen guas
Ser Ã¡
Ġpoli tica
Ġsig lo
Ġbri lla
A di
C at
P lan
Ġa ere
an g
ĠA lex
ed u
En im
Ġam bas
Ġman tener
tri a
Ġcomp re
Ġconfi ar
uo i
Sec unda
dur re
pri mo
T on
d y
d ecer
e ius
m ia
t bol
v at
Ġ ðŁ
Ġla tin
Ġre uni
ĠS ci
Ġb r
Ġac tiva
cit Ã³
Ġcor ona
Ġdu cit
Ġgra zie
par ti
Ġgen eros
Ġsem ine
Per son
ĠLe o
Ġag ente
Ġdon na
Ġele va
Ġaf f
Ġmem ori
tori al
Ġclas es
Ġaca ba
Ġintellec tu
Ġhuman ae
ĠSE O
Ġimpi i
Ġabsol uta
ĠsÃ¡ bado
Ġfues e
ĠAll eluia
n ica
Ġde bajo
ri x
Ã¡ m
ĠS ub
Ġad di
Ġac ceper
Ġser vos
ĠâĢ º
vo us
los o
Ġdic as
Ġter re
Ġpu gn
Ġquo tidie
Ġaut ori
fic ina
ĠMa ps
Ġsuf ficit
Ġfr utos
diÃ³ s
Ġextra n
Ġtestimon ia
Ġpeque Ã±os
Ġenti endo
ĠTo do
Ġev entos
Ġsel lam
z amos
Ġl inea
te li
Ġv ender
ri am
ĠI brahim
ent s
vi do
Ġad mit
Ġdes er
En cuent
eni ti
Se x
Ġneces ito
Ġfi esta
Ġprom eti
Ġiu dica
ĠNa ciÃ³n
Ġrep et
Ġul ti
Ġuti lis
EN T
Ġacer car
Ġdisc re
Ġpan e
Ġdej Ã³
Ġterri torio
Ġdocum ento
Ġgenti les
Ġec lesi
ĠridÃŃ culo
E u
a qu
s s
Ġh echas
Ġf os
Ġen f
Ġno ve
ĠS I
Ġcom mis
ĠE L
ch aris
ĠV is
Ġprim eras
Ġconsi li
Ġmen se
Ġparti ci
Ġcognos ces
Ġir re
Ġjusti fica
Ġguar dar
Lib ro
Ġasper natur
Ġimpon unt
? '
T an
or ca
Ġn up
ar ma
Ġin gredi
âĢ ī
Ġal tro
ĠE di
Ġte lÃ©
ĠM ul
ba udi
ĠT im
De b
der is
Ġfor ta
Ġpra edi
Ġanim ae
Ġita liano
Ġpromis sionem
Ġcal endario
Mu jer
Ġcat Ã³
Ġperpe tua
Ġinvesti gaciÃ³n
ĠSep tem
I m
N ess
g ues
g ante
m ulta
r oni
s ur
Ġe char
tu it
ÃŃ da
de cir
Ġsu os
Ġtu ya
Ġcu jus
Ġca bel
enta dos
ĠL et
Ġcre dis
cu a
Si ento
Si gue
Ġpre dic
ĠO ra
Ġop ciones
uc le
Ġins truc
Ġ200 4
Ġescri biÃ³
Ġdef in
Ġdef ensa
Ġro bo
Ġdor mit
Ġquer emos
Ġbel le
Ġequi tant
Ġesper ando
Ġconvi erte
Ġperic ulo
Ġjuz gar
Ġefec tos
ĠVillar rubia
U B
Ġe qu
Ġe jer
Ġd eri
es ÃŃa
in ten
li x
di jo
ĠD Ã©
Ġre ales
Ġlo cus
Ġan d
Ãº tbol
Ġpos esiÃ³n
Ġfu ere
Ġtam quam
Ġgra do
Ġer ra
ja ja
van tes
Ġdiv inae
Ġforma ciÃ³n
Ġconf ia
Ġmol es
Ġpuer um
Ġfr on
Ġvolun tas
ÃŃo do
200 6
Ġminis tros
ĠImp erio
ĠJo hn
Ġexal ta
Pres s
Ġproce dit
ĠNum quid
Ġrecor dar
ĠIu dae
ĠProp he
Ġlitter as
ĠSam uel
Ġmys terium
Descu bre
M I
N uestros
e u
Ġe arum
er int
tu ario
Ġen o
di cit
ÃŃ e
Ġdi li
ĠA bra
Ġsu pera
Ġre cipit
Ġpro positum
du zca
Ġso cio
ĠN am
ĠÃ© poca
Ġfu ente
Ġter cer
Ġtan dem
alis tas
Ġelec ciones
ĠUn iÃ³n
Ġfun cion
Ġcora zones
Ġcumpli r
Ã¡c ter
ĠGerman ia
ĠRus s
Ġepis to
Ġcruci fi
Ġperdu cit
Ġbat taglia
Ġtama Ã±o
R o
R oma
g icas
n us
la te
ĠA arÃ³n
bi erto
Ġg eo
Ġcom b
Ġac tri
Ġnos tros
Ġhab uit
Ġso por
Ġsus tin
Ġam ice
Ġam bula
so bre
Ġob via
Ġpi ensa
min ar
Il lo
ĠelectrÃ³nico Me
Ġsoci e
Ġcambi a
tifica do
Pub lica
Ġperman ece
Ġdormi re
Ch ris
Ġfiloso fia
ĠSoci al
Ġcontemp la
Ġcola zione
Ġcreat oris
Ġboni to
ĠCongrega ciÃ³n
Ġempe zar
A hÃŃ
h ol
Ġh oloca
Ġf en
Ġg la
Ġsi entes
Ġex pul
De i
Ġci ta
ĠG uerra
Ġ: :
for me
rim us
Ġhabi to
ĠQu od
Est Ã¡n
Ġconf undi
Ġliber tÃł
Ġemp erador
ĠAs cend
Ġmem bra
Ġbo da
Ġtem er
Ġexs pecta
Ġdemon io
Ġvu ol
Ġarchi tecto
ĠpelÃŃ cula
I gitur
h oc
t unc
u bi
x x
Ġs tat
un io
Ġun ius
Ġsu elo
tem ur
ĠF eb
ĠV e
Ġsus cipi
con Ã³m
Ġpas iones
ĠEs tados
Ġpl ante
Ġpi de
Ġsim pli
enda t
Ġbene ficio
Ġperson ae
Ġmol ti
su per
Ġmer ece
Ap p
Ġsabi o
Da vid
Ġenti ende
Ġdivers os
Ġfran cÃ©s
Ġmatrim oni
Mol esti
ĠÃļlti mos
Ġantepas ados
Ġfundas ti
n ulla
p enti
qu ina
Ġde os
Ã¡ ma
Qu aliter
ca re
Ġcu ya
ens us
Ġna cimiento
ĠG ab
ĠG ala
Ġdu cimus
ĠAl tÃŃsimo
ori e
min u
Ġverdad eramente
Ġpod eros
Re almente
Ġvir tus
veni r
Ġtenta ciÃ³n
Ġvues tras
Ġent end
Ġsemej antes
Ġfrecu encia
Ġcorrup ciÃ³n
ĠBe atus
Ġdefici et
Ġz ona
Ġalaban za
ĠMundi al
H um
s t
u jo
Ġe duc
Ġs pl
Ġa guas
qu antum
ta ba
in us
Ġi o
la to
Ġo tor
ĠD ol
ol us
se Ã±a
ca ra
Ġme glio
Ġac tio
Ġar g
gun da
Ġip sam
cis te
ĠNo che
pti embre
Ġpregun to
pr inci
Ã³s tol
Ġvin cere
Ġmos trar
Ġexc lusi
Ġcli ente
Ġmedic amento
Ġpraec edi
Ġacos tum
D er
H er
um que
Ġin Ãº
ec onom
Ġg es
ĠP lan
enta lis
per s
Ġcons istit
ori z
Ġomn ino
Ġcar cer
man e
Ġfi glio
Ġfi estas
Ġcol o
Ġju gare
ĠMa y
Des c
Ġaudi vi
Ġves tra
su baudi
Ġgenera ciones
Ġimpor tancia
ĠUni verso
Ġscrip sit
ĠAd ministra
Ġfeli ces
Mar ÃŃa
Ġqual cuno
Ġminis terio
Ġdese os
ĠMis ericordia
ĠpÃ¡ ginas
Ġappar uit
Ġcompre h
! )
f esti
g ge
m ur
p ora
Ġ ran
Ġs ch
or n
ci di
Ġn acer
an dam
Ġf ore
Ġen lace
Ġsi to
Ġex pon
Ġcu ar
Ġto t
ab it
tor is
Ġdis s
Ġsol dados
Ġco inci
Cu ius
Ġcol ec
Ġora tio
Ġreligi one
Ġtar tarum
tifica ciones
Ġsimil ar
Ġnor ma
Ġense Ã±a
Ġmensa jes
Va ya
Ġdep ende
Ġdesarro llo
Ġllo rar
A mi
F uer
M os
P R
n un
Ġs pero
ta res
am ore
Ġin jus
Ġf lo
Ġla cri
el s
ere bat
ĠM t
tr onom
No us
Ġau da
ĠV ia
Ġtra bal
Ġap ri
ĠEs tu
Ġcar ga
Ġra ro
Ġgus tÃ³
Ġfi del
Il li
Ġbu oni
Ġvide os
Ġcer ta
Ġtri um
ĠPa z
Ġ8 0
ĠAs ia
Ġsor or
Ġsanc tifica
erman os
QU I
ĠcompaÃ± ero
ĠMoy ses
Ġvuln era
Lux uria
! ".
6 7
l Ã³
p en
z can
Ġm one
ri i
ÃŃ fico
Ġcon tex
Ġo ves
Ġan uncia
... )
uer i
Ġac tiones
Ġpos terior
Ġpos ee
ĠL in
ĠR eb
Ġj a
ĠF AQ
cit Ãł
Ġfu turum
Ġimp eri
Ġsem in
Ġconoc en
ĠlÃŃ mites
Ġestado uni
inter est
Ġpropri um
ĠpolÃŃ tico
Ġphilosoph us
ĠEbora ci
ĠAscend unt
S cio
Ġe veniet
Ġs pecta
tu des
li to
li bet
Ġo gni
Ġper io
Ġex audi
Ġdes n
gi one
Ġdis cul
ĠIs lam
Ġcar n
Ġsac er
Ġami cis
ĠCom entarios
Ġmer git
Ãª tre
Ġenvi dio
Ġae que
Ġnor te
Ġcomi enza
Ġaccid ens
Ġimmor tales
g roso
Ã ļ
Ġp enit
Ġes empio
Ġre gula
Ġb lo
Ġti me
no va
ĠB ea
Ġali en
Ġfa zer
ĠH ar
Ġman eras
Ġap enas
Ġpas ch
Ġ3 6
for d
Ġmat rem
Ġcausa ti
Ġves trum
log ÃŃa
Ġloqu eris
ĠMi ra
Ġsent encia
Ġpropi os
Qua es
Ġinde pendi
Ġincon veni
Ġmisericordi ae
Ġpleni tud
Ġelig endi
ĠgÃ©n ero
T he
U U
a tion
m ac
w n
Ġs chia
Ġqu arto
Ġre vel
at que
ĠS on
Ġcom porta
Ġan tena
Ġdes gracia
Ġcu ento
ris tÃ³
cu enta
ĠB ur
ĠV es
Ġinter Ã©s
Ġinter esa
ru c
Ġob tener
Ġmul torum
uni dades
ĠCh a
Ġinf eli
Ġparti do
Ġanti gua
com prehensi
ĠNe w
Ġcier ta
Ġconvi r
Ġafi r
Ã® te
ĠFre cuentes
> >
E tiam
i um
Ġc ent
in ta
Ġle ones
pa gna
Ġhab emus
Con fi
ona dos
Ġr uego
Ġr osa
Ġcer tum
dis se
Des car
Ġinf ra
ĠNa vidad
Ġdistin tas
Ġtur ba
Ġpaci entes
Ġnul lam
Ġabsur dum
Ġduer men
ĠWord Press
Ġantena ti
G n
O c
e to
Ġp un
Ġde di
Ġm ur
em is
Ġest Ã©n
Ġno vio
ĠA riel
Ġqui es
Ġvi derunt
ut h
tem Ã¡
Ġac cipere
fi l
Ġar b
Ġtan ti
ph ys
ĠMa estro
Ġreci biÃ³
Su per
ĠFran ces
Ġduo decim
Ġorden Ã³
ecum que
Ġtrabaj ando
ĠFil oso
Ãĳ OR
Ġquad ra
Ġinfini to
Ġaprov ech
D im
D ale
S ci
S ac
Ġd Ã³
Ġs esiÃ³n
Ġa de
or nada
Ġcon venit
Qu anto
Ġme lius
Ġpro ximo
ĠM undo
Ġca b
ens ere
ĠL ae
Ġver sa
Ġna ciÃ³
Ġlib rum
Ġne ws
ne que
eb as
Ġcar Ã¡cter
ten tur
Ġvel oci
Ġhum o
ĠmÃ¡ xima
Ġrepres enta
Ġfratel li
ĠDu bai
Ġfat to
ĠrÃ©pon ses
ĠtelÃ© fono
C in
C arta
P S
c eni
Â Ķ
in do
am ici
Ġo dit
im ento
ĠP AR
Ġdes ci
cia do
ues tras
Ġac or
Ġres plan
ens um
Ġsus tan
ĠEl ec
Ġat tin
Ġrespon dere
Ġfal sos
ha el
Ġconf lic
Ġris pet
Ġextra ordin
Ġbas ta
ĠfÃ¡cil mente
Ġ; )
ĠFili o
Ġinvoc andus
ĠGreg orio
Ġclic k
Ġinmor tales
ĠGo bierno
Dif ÃŃcil
comprehensi ve
A gnos
P ul
U T
Ġd og
Ġs ano
Ġv im
Ġse pa
ĠC ab
Ġpa recen
Ġver siones
tura e
Ġdesc an
Ġcar go
Ġcomp ro
Ġju ra
Ar tic
Ġim mo
CI ON
Ġjus ta
ĠPri ma
Isra el
. âĢĶ
E o
G Ã©n
Ġe mi
Ġv Ã¡li
Ġin cipi
di re
Ġper ros
ĠS ch
Ġcom peti
ĠP ues
ĠP sal
Ġan da
Ġhab ebat
cu Ã¡n
Ġpue dan
endi Ã³
Ġas um
Ġdu ro
Ġgra dus
Ġdici mus
Ġpi edad
dic tus
dem us
Di fficile
Ġvis uali
Ġsum ma
uta ti
Ġpare ja
Ġ9 0
Ġmod um
Ġpub li
Ġmortu a
Ġsapi entia
Ġvesti dos
Ġprincip ia
Ġcat Ã³lica
Ġamp li
Ġiusti tia
Ġreal tÃł
Ġcola bora
Bo Ã®te
Ġauc tor
ĠPet rus
ĠInterna cional
Ġcook ies
Ġs emp
es ne
Ġl ine
Ġm ales
li tia
da c
ĠS oy
Ġb eni
ĠE m
gu al
ĠL it
ga ta
Ġpri vile
ena to
ĠCon desa
titu dinem
An terior
Ġinc ol
Ġinc ur
Ġsuper iores
Ġnul lo
Ġespiritu ales
Ġescla vos
p si
Ġp p
em pi
it re
Ġpro voc
io ra
Ġpo tius
Ġres i
ĠL ec
Ġver s
ĠâĢ ¢
tor ico
En c
Ġsus ceper
Ġinter i
Ġdic entes
ĠEs pa
Ġra cional
Ġvos tro
Ġcan oni
Ġanim am
lig io
Ġleg al
ulta des
Ġespa Ã±ola
Ġvuel to
Pra eterea
Ġargum enta
Ġalter na
unci ar
Nes ci
ĠpÃ¡ jaros
Ġgru pos
Toda vÃŃa
Ġcircun stan
jal Ã¡
Ep pure
0 4
8 5
I B
u ter
v imos
Ġp ho
Ġde vol
ti es
Ġm acula
Ġf Ãºtbol
ĠA M
Ġt Ã©cn
de x
Ġo di
le y
ĠS or
Ġan tem
Ġpo p
Ġver de
Ġver sÃŃ
Ġne gro
Ġfor um
Con c
Ġmol esta
rum p
Ġliber tate
Vo ici
Ġnov amente
ĠSE ÃĳOR
Ġjue gos
Uni versidad
mod um
G o
J am
ta cto
an ÃŃa
Ġv ÃŃn
li tÃł
Ġin gra
Ġin uti
Ġla pidi
Ġen am
ĠI d
Ġpro pos
Ġac tividades
il li
Un e
Ġcons tante
eri e
Ġfi er
ĠÂ« Â¿
Ġcol oc
Ġju eces
ĠNo vi
Ġpla cuit
Ex cel
rÃ¡ fico
Ġinf an
Ġba jar
Ġcontin uo
Ġcur sus
Ãºm ero
Ãī ste
Ġtex tos
temp o
Ġsacri ficium
Ġcumpli miento
olu ciÃ³n
Ġglori fica
Ġaccus amus
Categ orÃŃas
Ġblas ph
Bi enaventurados
Ġcelebran dam
ĠBrasi l
Ġresucita do
Ġsuje to
Ġsacer dos
7 7
B ar
C os
a f
o p
Ġa ce
ta rios
us que
Qu as
im en
ĠS k
ĠP ompe
ĠM ari
tan za
Ġto ut
tam entum
De ja
Ġta g
Ġfor tasse
gra m
Ġve hem
Ġvos tri
ja dos
Ġpe tit
Ġdeb ere
Ġpare cido
Ġlab or
Ġsegu ra
Ġris us
Ġder ro
Ġperman ente
Ġaiu to
Ġaccid ente
ĠDoc trina
ĠCat Ã³lica
Ġrecuer dos
Ġtr ono
Algun as
Ġignoran cia
Ġveter em
I O
N or
P lus
V oy
Ġp unc
Ġde bido
li bus
Ġdi eron
Ġest ra
ce tur
Ġex tin
Ġhab lan
Ġas pec
Ġfaci li
Ġins pira
gen itum
Ġdom esti
Ġnue ve
Ġmar cha
Ġposs int
Ġrep ellendus
Ġquin quen
Ġemp le
Ġestu dios
Ġvolup tate
Am bos
Ġllegar on
jerci cios
ĠcompaÃ± ÃŃa
Ġaleg ro
Ġsig los
Ġprov inci
Ġlapidi bus
9 8
O L
U r
f it
i cis
er se
on al
is e
is on
al t
de os
Ġsu ici
ĠI apon
Ġpa go
No utati
il los
Ġpre fi
con o
Ġra zon
Ġrespon s
Ġgran di
Ġita li
Ġch ar
Ġ6 4
Ġaliqu em
Ca pÃŃtulo
Ġlab ores
Ġgu ÃŃa
Ġnin guno
Ġw hom
ĠHa y
For ma
ĠDec em
Ġcogno vit
Ġprud encia
Ġinim ici
Ġexac tamente
Ġquere la
A ve
C eter
E le
E rat
V ita
c con
l lar
er ras
Ġl Ã³
ci es
di u
Ġque dado
se qu
Ġal o
Ġna ta
Ġter tia
Ġescri bo
Ġess enti
Ti enen
ĠVi e
Ġindi gna
Ġcomple tamente
CI A
Ġpecc atores
Ġost endit
Ġarchi vos
Ġexclu dit
Ġprac tic
Ġblas f
ĠGio van
festi vitatem
Ġpasch alem
S um
T anto
] ],
l ando
v ra
Ġe fica
Ġa ero
Ġen trÃ³
Ġcon quista
ĠA y
ĠS um
Ġcom pu
tra re
Ġlo g
Ġdes cripciÃ³n
tis sima
Ġcre cer
ĠV III
pos te
Ġcons pectu
Ġvol te
sim as
ven ciÃ³n
Ġins pi
gen cias
ha y
olo gi
!! !!
Ġmedi um
Ġfamili ares
Ġfr ustra
Ġvolun tari
Ġprincip es
Ġint enta
Ġdirec to
Ġveli m
Nun quam
Ġenfer me
Ġcolum bas
ft ware
Ġofer tas
Ġcib o
Ġscho la
A un
] âĢĭ
b olo
c ano
Ġdi cha
Ġsu yos
Ġlo cu
Ã± an
Ġca fÃ©
Ġsin cer
Ã©n om
fer encias
ĠIn fer
Ġmo ve
Ġpu to
Ġpu gna
Ġqua eris
Ġverdad eros
Re direc
ĠQu ia
Ġprof undi
Ġmas sa
Sal udos
Ġactu alidad
Ġviv unt
Ġpron uncia
Ġcompr om
Ġtranqui lo
Ġtrova to
Ġhabl Ã³
Ġsencil lo
Ġacostum bra
Redirec tum
N ul
V ocÃª
er Ãł
Ġc r
ci li
um ento
la ba
it ori
ul tas
ul gar
Ġex hor
Ġver ano
ga tur
du re
Ġpr ÃŃn
ali quid
gun tur
Ġcar te
anc os
Ġllam o
cios a
Ġfam a
Ġleg ÃŃ
Pos simus
Ġtestimon ios
Ġpublica ciÃ³n
Ġux or
ard ÃŃn
Ġnecesi tan
ĠSac ram
mÃ¡ tica
gÃ¼ enza
Ġarre penti
ĠSO Y
Ġpac tum
0 8
C laro
c ana
c untur
p len
v enta
Ġs co
in em
Ġde inde
Ġm ec
Ġn ervi
em bra
bi endo
at es
ĠC ali
ter ia
ĠS piritus
Ġpro cede
Ġto to
ĠIn i
me dio
Ġr um
Ġsa ggio
den se
Ġvis us
Ġvir um
Ġfili a
ĠUn de
Ġabs con
Ġfamili ar
Ġconc re
Ġscrip ta
zza re
Ġrefer untur
pl y
Ġexcep to
ĠVI LL
Ġglori ficado
Fran cis
Ġvengan za
ĠYa h
quitec tura
Ã³cra tes
Ġacon se
Agnos co
H ora
P A
V osotros
f era
p Ãºblica
Ġ %
Ġm uros
ci ter
Ġv ÃŃa
am enta
tu almente
di xit
Ġha gan
Ġo ye
Ġre ba
Ġre forma
Ġre ligio
ĠC el
Ġpa gan
Ġvi lla
Ġpro dest
ut or
Ġle ÃŃdo
ĠV os
Ġsol edad
Ġpec ador
Com entarios
ĠRe g
ĠLe Ã³n
Ġtaber n
Ġba talla
Ġnoctur nos
Recorda re
Ġmira da
Ġfem in
Ġpeli groso
Ġaccus antium
Ġfran ces
tent ri
ĠDer echo
ĠJud Ã¡
ĠÃª tes
Ġantem ano
A ca
b s
j ando
ï Ĥ
in tel
re i
tu lis
ri oso
Ġo ÃŃdos
at oria
ĠC rea
Ġme zc
Ġvi endo
Ġac qui
ĠG esÃ¹
Ġfa it
ĠH u
Ġcons a
ĠIn vesti
Ġsal uda
Ġab rir
Ġpas e
bo la
Ġpotes tad
man i
âĢľ Â¡
Ġcan on
Ġju dica
Ġsuper i
ĠÃº tiles
Ġdix i
Ġdicere t
Ġobli vis
Ġcultura l
Ġolvi da
Neces se
Ġcirc unci
Ġsuce diÃ³
Ġocu li
olÃ³ gica
Pl erumque
Ġcomien zo
F I
H an
y u
er ica
os ible
Ġp oni
te urs
ol ar
ul ari
Ġre v
Ġre go
Ġal bum
ĠE j
Ġte atro
ĠM eta
enta li
Ġam ena
Ġdu os
Ġu cci
Ġsim pliciter
Ġins cri
Ġcan ciÃ³n
Ġju dic
Ġdom ici
Ġ200 3
Ġcrea ti
Ġaudi unt
Ġ7 0
Ġmod ern
Ġef f
Ġpot enti
Ġbel lum
Ġciudad anos
Ġclas s
ĠPo li
Ġmanda ta
Ġbeb e
Conse jos
Ġpraec ed
ĠLat ina
Ġcogno verunt
Categ oria
Ġcred unt
Ġprohi bi
Ġnoti cia
ham mad
Contac tez
ĠÃģn geles
H os
R ic
T ER
U trum
] ].
c Ã¡n
p he
s crip
y si
Ġ QuÃ©
Ġs era
Ġc ro
Ġl Ã¡
Ġqu ales
Ġin gen
Ġque ma
Ġcon tam
Ġdi al
Ġdi gna
Ġse des
Ġto ca
ĠG iu
ir Ã¡
Ġsem illa
Ġmin istra
ton o
Ġess em
Ġcal um
Ġfun ciÃ³n
Ġcuer da
ste des
Ġapp el
Ġfab rica
Ġnecesi tamos
Ġsufri miento
Ġries go
. âĢĻ
E i
J a
g Ã©
h ere
en n
Ġn ucle
am blea
Ġf ul
Ġdi g
Ġre lin
Ġcom ba
Ġnos trum
cul e
ĠO x
eb is
Ġda gli
ĠCon f
og hi
Ġnatura le
Ġhabi tas
Ġisra elita
Ġamor is
Ġtesti gos
Ġrela tiones
Ġlec tiones
Ġplan tas
Pre gun
Ġpraes es
Ġobser var
Ġcomun icaciÃ³n
cor so
Ġnega re
Ġlum en
Ġtriste za
Ġsimp lemente
Ġllu via
ujo urs
M ant
y n
Ġc entra
ĠA z
ĠC in
ce don
ca e
ca pi
Ġpro bat
Ġ( ...)
Ġpers pec
fec tu
pu di
Ġgra du
Ġrec ti
Ġentre ga
Di es
Ġconsi guiente
Ġconf esiÃ³n
Ġdomin i
ĠX III
Ġvia e
Ġdesi deri
Ġvin um
Ġcomun es
ĠOr din
Ġcontro l
Ġmodi fica
Ġmaxim a
Ġvend ere
ĠBib lioteca
ĠVil laman
Eli ge
inten ant
ĠVillaman rique
B lan
y c
Ġs tri
Ġin co
Ġin cep
di zione
Ġre x
ĠS il
Ġcom bus
Ġvi ves
ĠE E
Ġdes tina
tan dum
Ġle vant
Ã¡s ica
Ġca yÃ³
Ġma intenant
ĠL en
ĠL ic
Ġmis mas
ĠJ ueves
Ġsol os
Ġsol da
Se a
Se i
Ġsec uri
Ġsem anas
Ġcan ciones
Ġinc lina
ĠCh ar
Ġpla ga
mis ta
lan dia
Ġpare zca
Ġora ciones
Ġdoc tor
Ġmas a
Ġgenera tione
Ġmus ic
Ġ199 0
Ġfir me
Cons ulta
Ġofre cer
Ġlevan tar
Ġsepul cro
Ġprohi bido
Ġprotec tor
Ġeuro pe
7 8
B el
G uar
H om
O pera
T ab
g y
r unt
an am
us cita
Ġh ues
Ġla c
Ġre tor
Ġre duc
Ġg e
ĠE dad
Ġpo bres
Ġser mon
il an
ĠN osotros
Ġas unto
Ġhis tori
Ġpersona jes
Per s
uel to
pti co
Ġval ores
ĠVi deo
Ġinfer iores
esse t
Ġtend rÃ¡n
ĠpÃº blica
Veni am
Ġesp al
Ġintelec tual
Ãºlti ples
D ES
M Ã©
m ini
Ġd ere
Ġp lo
Ġqu ar
Ġf ondo
Ġcon junto
ul am
Ġb y
et or
Ġto tius
tem os
ora dos
Ġca bal
Ġhab lado
ĠR E
Ġdis cern
Ġlib eri
Ġsal a
Ġab ri
eri tas
den al
Ġcol oro
lic as
Ġfal le
Ġof ficio
Pro v
Ġperson ales
Ġsan s
itter e
Ġini cia
Ġmora lis
Ġvesti do
Is ti
Ġtex te
Ġsimil ares
Ġperse qu
Lib er
Ġden omina
Ġelem ento
Ġordin es
ĠBritan n
ĠSy rus
ĠPrim era
Ġmandam iento
ĠDiv ino
Ġpreci so
C f
O l
b ene
b atus
g eni
h on
s erunt
Ġde por
Ġde uda
ti ens
Ġla va
Ġen or
de i
Qu arto
Ġg ros
Ġper ci
ter n
ĠS ua
ĠS omos
ue vos
ĠM c
Ġcu entas
ba dos
gi p
Ġna ce
Ġali mento
ĠG eh
In i
Ġman duca
eb it
Ġvol umen
Ġdeci mos
Re g
Ġperfec tamente
Ġba pti
Ġentra das
Pub lius
Ġsabi os
Qua eso
Ġalcan za
Tut to
Ġmatrim onium
Ġcael um
ĠCru z
Ġsuperfici e
anal isi
ĠFeb ru
6 3
8 8
A Ã±a
H acer
V eli
p Ã©
Ġ za
ti ble
at Ã¡n
ter is
uer po
Ġac ci
Ġpr or
Ġdis e
esti a
Ġimp lica
Ġera s
Ġfi gli
Al l
Al guna
Ġqua ero
Ġgen eris
ĠÂ« Â¡
Com ment
Ġcomp la
Ġmat re
ĠAn gli
ĠSi on
ĠEn tre
Ġpersona je
Ġforma e
Ġllam ados
ho w
Ġuni genitum
Ġvirtu tis
ĠJes u
Ġliber tatem
Ġpregun tar
Ġvolun tate
ĠUni vers
Ġsimili tudinem
Ġcapi tal
Ġfem en
arro llo
Ġpublica da
Ġinstrum ento
Ġconversa ciÃ³n
Ġrefu gio
Ġsti pendi
Ġmusul manes
we et
ĠEucaris tÃŃa
ĠÃŃdo los
8 7
B log
F ie
n ul
u ver
Ġs Ãº
Ġen tro
ec o
Ġre bus
ĠE lis
ĠP l
Ġad or
Ġex tendi
Ġle vitas
Ġnos so
du cia
Ġna ciÃ³n
Ġpue das
Ġam bul
Non dum
eb us
Ġda Ã±o
fic at
Ġante a
ser is
ĠPro yec
Ġej ecu
pti mo
Na tura
Ġscrip tor
Ġopera tur
Ġplan ta
Pre vious
Ġsanc to
Mar tes
Ġmanda to
Ġale gra
Ġfundam ental
Ġresu ci
Ġvec chia
Ġcres cere
Ġcorre gir
Au tem
Ġsens us
Ġase gu
ĠMen orca
Cir ca
errami entas
, ...
R Ã©
S ono
g ani
l d
r erÃŃa
Ã ĩ
Ġe conom
Ġes encial
Ġin dis
Ġse gre
Qu oniam
ue vas
Ġpa cis
ente cos
ĠP RO
Ġmi rar
Ġcre ÃŃdo
Ġtra cta
Ġcons tan
ĠIn forma
Ġco pia
Ġpu o
Ġus us
Ġra ÃŃ
Ġpod Ã©is
Ġch am
Ġ6 5
Ġdomin e
Ġgl orios
ĠPat ris
Ġsor prender
Ġnam que
Etique ta
Ġton to
Ġinten ciÃ³n
Ġresu citÃ³
Ġprac tica
S hare
U L
V ir
t Ãºa
ri mi
Ġi i
el is
Ġun quam
ĠC ris
ter ÃŃa
ĠS Ã©
Ġme u
Ġvi eron
ĠM ario
mi hi
gi te
Ġso u
ĠH ora
ces o
Cu anto
Ġfaci e
und is
Com menta
Ġat tra
ni pot
ĠY O
An ti
ĠNo va
ĠNo vem
gen era
Ġprinci pa
Ġhu ir
Ġdom i
Pro f
Ġdon ne
Ġabs tra
Ma gis
Esta ba
Ver dad
Ġceter i
Ġcivi le
Ġperman ecer
ĠPar te
Ġnov embre
Ġcompara tionem
Ġpropri ae
Archi ves
Ġvend rÃ¡
Ġarbit ra
sec undum
Ġbesti a
Ġoccu pa
A me
C ON
g ur
j eron
Ġp ene
Ġin vis
Ġcon g
Ġdi bu
la terra
ĠS piritu
Ġb om
Ġad ecu
Ġte la
Ġma j
Ġhab itus
ĠF Ã©
Ġap pa
Ġus a
ten us
tic us
tel l
Ġ4 2
Ġprima vera
Ġdix erit
Ġmori re
ap ud
Ġpoder oso
Ġpan es
Ġ199 9
Ġregi Ã³n
Ġargum entum
Jes us
Ġvari edad
Ho die
Ġescuch ado
Ri di
Ġdiscipul us
Ġaum enta
Ġpiens an
ĠPhilosoph us
A v
A it
P ec
s cri
v am
es es
ci entes
om en
Ġf res
Ġf inali
di ae
Ġo ggi
ch an
Ġti mi
Ġhab lo
Ġpr Ã©nom
Ġso br
Ġpar lam
Ġcons truc
Ġas pecto
Ġneces arios
Ġhum ani
duc tos
Ġ4 9
Ġinc ar
Ġinc rem
Ġinv enta
dere t
posi to
Ġpon ere
Ma iores
Ġef fica
Ġhere dad
Ġnor mas
Ġnor mal
Prim ero
Os serv
Ġhar Ã©
Ġempres as
Quin to
Ġenga Ã±o
Ġestre lla
ĠMoy sen
Ġpier de
Ġreno va
ĠGeor ge
ficab is
Euro pa
A E
M od
U E
g Ã³n
g icos
i le
y entes
Ġd ando
Ġa is
Ġa gre
Ġcon turba
Ġdi gi
ĠC ro
Ġdel eniti
Ġpara ÃŃso
per it
ĠN un
ĠJ ones
cul us
Ġpre cis
Ġcar nes
Ġsa pere
Ġra s
cep s
Ġve hic
Ġri cos
ĠRe al
ĠmÃŃ os
tad ella
Ġim ma
Ġfam e
Ġdef ender
Ã¨ me
ĠUni do
Dis eÃ±o
Ġcapi tulo
Pr ueba
Da te
Ġconveni unt
Ġblan co
Ġfec erit
Ġmari to
Ġrespe to
Servi cios
Ġetern amente
Ġpartici par
Ġpraecedi q
amici zia
. ).
C e
R is
v ale
Ġp usi
us tos
Ġla go
di ente
di das
ÃŃ sima
Ġi tem
la ces
it Ã³
Ġno tificaciones
Ġun iÃ³n
ĠI SO
Ġad duc
mi ra
Ġpo dido
Ġres uscita
ĠT ab
ĠO f
Ġimp ul
Ġr ue
Ġfaci lius
Ġer ro
Ġlle gue
au ri
ĠRe ina
lio th
Ġves tri
ĠPa ul
Ġori ente
Ġenvi ar
Ġextra Ã±o
ĠHi jos
Ġcap ut
Ġstu di
ĠpaÃŃs es
Ġinterroga vit
col es
Ġev ento
Ġnecesi dades
Ġconcep to
Ġestable cido
Ġobis po
ĠCiu tadella
Ġoblivi one
Ġformula ire
n uit
p tis
v ino
Ġs ae
es tre
Ġa bre
Ġin dul
Ġre for
Qu er
ac ta
ed ras
Ġcre are
ĠIn sta
ĠO p
Ġquae que
Ġr ÃŃo
Ġvol ar
Ġcontra seÃ±a
tel la
Ġju ga
ĠRom ana
ĠCom ment
Ġdie i
Ġscri b
Ġcrey eron
Ġproduc ciÃ³n
Ġhon ra
ĠOr den
Ġregis tro
Ġcla ve
Ġhar ÃŃa
Ã©l Ã©
uve au
Ġfruc tus
Ġorgul lo
Ġreper ire
* *
1 00
A lia
G a
I r
V EN
o li
Å ĵ
Ġa vere
ti cum
Ġh uc
om et
Ġf ol
Ġen ca
da li
Ġno vit
Ġt eni
Ġg ua
Ġper e
Ġper met
ca teg
Ġsi tu
tion ali
Ġac onte
Ġres ol
ĠT rans
ĠB os
ĠN uestro
Ġpas os
Ġu ult
pu blica
Ġcar tas
Ġoc cul
Ġ4 3
Ġdom os
ĠRom ae
Ca us
rem io
tare mos
Ġvivi endo
ulta tes
vol e
ĠPat ri
ĠAm Ã©rica
Ġespa ce
Ġae qui
Ġsoli d
Ġdue Ã±o
Ġide al
Ġindica tivo
jet s
Ġenfer mo
Ġproyec tos
ĠmÃŃn ima
enci ales
Ġperf etto
Ġbor ra
Ġacc usa
Ã¡g rimas
Ġobed ecer
Ġhermos a
V isi
d lo
j amiento
m ano
o go
Ġc ic
ta tum
ti vitÃł
un ni
Ġin ex
Ġf esti
em ia
Ġg uer
Ġle tra
tem as
cu al
Ġdis posiciÃ³n
Ġlle gan
Re gis
ĠW al
Ġdistin to
Ġho tel
Ġencon trÃ³
Ġmagis ter
ap Ã³n
ĠNe ws
Ġdiri ge
Ġutili zar
Ġviol encia
Consi gli
Ġabra zo
Ġnuo vo
Simili que
Ġprofesion ales
Sara ceni
Ġapelli do
Ridi culum
6 2
D um
O tro
V ic
a ch
a Ã±os
m Ã¡n
r ones
v ina
Ġc unc
Ġde buit
ci ar
tu us
to Ã±o
Ġen sa
Ġque do
Ã© ri
Ġre vis
Ġme as
vi ar
Ġb ru
ĠE le
ĠP linio
Ġpro ced
Ġpo ena
ver Ãł
ĠL oc
ĠB ern
con tin
Ġcontra s
Ha i
por um
Ġmul titud
Ġri dere
Ġfin ita
ĠRe i
20 11
rÃ¡ fica
Ġprof undo
teg ia
Ġexis tir
Ġiu ra
Ġpuer os
Ġdistin guir
Ġpub licado
Ġsoci ale
cir ca
Ġform am
Ġstu dio
entar se
Ġrecom pensa
Ġapr endi
Ġdispon ibles
Ġhos pi
Ġocur riÃ³
jet os
Ġcorrec to
Fac ere
ĠNor te
Fran cia
Ġdisfru tar
ĠvehÃŃ culo
Ġpob laciÃ³n
Ġcabel lo
P ens
n eli
Ġe rimus
en am
en ze
Ġc Ã³n
or os
Ġes tan
us us
da tur
Ġcon tribu
Ġcon ducir
ic he
Qu arta
ĠI glesias
Ġme t
Ġal tar
ĠE pis
et os
Ġle x
ues tos
za das
Ġpr isiÃ³n
Ġmu ro
Ġas a
Ġimp le
Ġlu ogo
Ġpi do
Ġprim us
Ġprom it
gni fica
cis mo
tad ores
ĠEn c
ĠMa h
gin ti
Ġag rico
gas e
Ġvolun tatem
Ġcapi te
Cre do
lici dad
rÃŃ amos
Ġproba ble
Ġcommun ia
Ġobser van
Ġpermi tir
ĠGener ale
Ġimagin em
Ġusu ario
Ġdiscip lin
Ġpassa to
Comp rar
Inc luso
Ġderni ers
Osserv atore
L ic
b ari
h Ã©
p y
v ento
Â ´
Ġs te
Ġc ess
ta ta
ci encia
ci das
Ġh anc
li e
Ġcon ex
Ġest Ãº
Ġt era
Ġo ficio
Ġdes trui
Ġac ord
Qui zÃ¡s
Ġpr Ã©
pe fac
Ġali mentos
Ġpar va
ĠH omo
Ġam icus
Ġ" (
emp los
Ġmal as
Ġsec un
Ġmon tium
ĠRe la
ĠRe pÃºblica
mas ter
Ġch icos
cip es
Ġris poste
Ġdal l
Ten ÃŃa
Lib ros
Ġcli ma
Respon deo
Ġapro xim
Ġcogno vis
Ġcomen zÃ³
Ġduer me
Ġcotidi ana
Ġcircunstan cias
P ol
P au
U b
W EB
g ma
g lis
r Ã©is
Ġe conÃ³m
ÃŃ fica
Ġdi ues
Ġdi rÃ¡
em ur
Ġha e
Ġha gas
Ġsu pon
Ġsu bir
at tribu
Ġper hib
ĠI P
ĠS ala
ĠS ocra
Ġpa recÃŃa
Ġal unni
Ġvi dentur
Ġan os
ed ech
Ġso cios
ĠF al
Ġta lis
ari tas
Ġpas sione
Ġquis que
ex tra
ĠQu em
Ġposs is
Ġsci entiae
gres sus
Ġama do
alo go
ĠmÃ© todo
Pra e
Ġth is
Ġing eni
Ġcontes tÃ³
Ġquel que
Ġcompar tir
hom as
Ġdetermina do
ĠBritan ni
ĠÃ¡rbol es
ĠPub lica
chis edech
Tex to
ĠMel chisedech
Ġdur mi
Ġquaeri tur
C et
C esare
b l
p licar
Ġ ^
ar ca
di tas
Ġi ras
ĠA L
Ġo uro
Ġre ina
Ġtu vieron
Ġmi enten
Ġil lic
ed ores
Ġdis tram
Ġpre oc
ten as
Ġrec ord
gui do
uc ar
Ġhacer se
Ġcol ore
ja da
Ġllam as
ĠCom p
Ġabs trac
Ġsoci alis
Ġul terius
Hab ent
Ġ> >
Ġbus cando
Ġmateria e
Ġnel le
Ġsir ven
ille t
Ġaposto lo
Ġocu pa
Ġcali ente
Dol ores
ĠIoan nes
Praes ent
ĠBen jam
Ġbril ha
tivis mo
Deb emos
Ġsusceper at
Excel ente
attribu untur
I T
M il
N uevo
O n
b la
r Ãł
t encia
es is
ta das
ta ils
tu alidad
do tti
Ġin fec
Ġel ab
Ġo ut
ĠS ic
ut ores
Ġan si
Ġdes ob
Ġdes espera
ur n
Ġnos sa
Ġil usiÃ³n
ĠR Ã©
Ġcre ÃŃan
ĠIn f
Ġimp ÃŃos
eb amus
Ġcar cere
par tamento
Ġmon tÃ³n
Ġor dinem
Ġven era
Ġ4 4
van gel
Ġdeb emus
Ġsci enti
Pre para
det ta
Ġcomun ic
Ġmedic us
Ġproposi tio
Ġalter ius
Ġdesa y
Ġing les
Ġlum bis
ĠSim on
Ġvigi lan
Ġposibilidad es
ĠRos ario
Ġpudi era
Ġsupre mo
Ġllev Ã³
ĠcÃ³ digo
Ġcere bro
A teli
R ob
V E
h asta
p ica
u vel
y is
â ĸ
Ġs oc
Ġm undum
un es
om bra
Ã© ase
it en
ca li
tes is
gi dos
Ġac um
les s
Ġdis sol
Ġdis curso
Ġpre ced
Ġra ccon
Ġeius dem
Ġpra eb
Ġ4 6
Ġhu jus
Ġsum a
Ġof r
Ġsan e
Ġpossi bili
Ã©r cito
Ġir reg
Ġtenta retur
Ã³s to
Ġol or
Ġpens ando
Om nis
Ġdirec tamente
Ġnecessi tas
Ġconci lio
ĠImp osible
ĠMu hammad
tran s
Ġoff erebat
Categ ory
mu y
ĠdiscÃŃpul o
ĠFo od
Ġconi unc
Ġrap presentan
Ġindustri a
ĠAug usto
excus si
Ġaiuta re
Ġobvia vit
, "
7 2
7 3
E cclesia
M am
S ali
es en
ti yis
Ġm endi
Ġin iu
ri lis
la ta
ĠA aron
Ġre ÃŃr
Ġg r
Ġb l
ĠE cclesi
Ġan gus
ma e
Ġmi tad
Ġac o
Ġpos tulo
ĠT witter
entes que
Ġfa ire
ĠJ ob
so cia
Ġfor tun
Ġr endi
ven is
Ġmon de
Ġsobre vi
Ġcol lec
Ġrela to
ĠSan tos
Ġjusti tia
Dis tin
Ġloqu or
Ġrefer t
Ġcommun e
Ġdubi ta
Ġacep tar
ĠDec lara
ĠRes urrec
Ġperi od
Ġvesper as
Ġserm ones
ĠcÃ¡n cer
zios o
Chris tus
? )
C icer
M O
R SS
S il
m uta
Ġa gli
Ġc essa
Ġm ue
Ġv arÃ³n
om ento
Ġf lam
Ġdi ario
el les
ĠA do
ĠA postÃ³lica
Ġg ana
ter na
Ġb em
Ġmi ei
ran ti
end es
Ġar m
Ġmo v
Ġap res
Ġimp u
Ġvol ta
Ġvel o
ĠCon greso
Ġsom bra
Ġauxili ator
Ã¡ndo le
Ġsanc tus
Ġposi ciÃ³n
ĠlÃŃ der
ĠYo ur
Ġnor m
ĠCi encias
Ġann orum
Ġaus si
Ġques tions
ĠSk ype
Ame i
9 3
A mar
a pa
i vamente
er nes
qu io
Ġde pend
Ġm ando
um entos
ri tur
ri ae
Ġcon du
Ġdi rÃŃa
ĠD om
Ġme ae
Ġsi enta
pi os
Es os
Ġca u
Ġca os
Ġca pÃŃtulo
ĠR osa
Ġau ro
Ġau fer
Ġar ca
Ġar ran
Ġpu ero
Ġdesc ans
Ġbi bere
Ġten gas
Ġfi ducia
Ġmal dad
Ġvo ir
tic am
An tonio
Ġinc lin
Ġem pieza
Ġdiv inas
Ġnum eri
Ġpe da
Ġsenti re
Ġdoc tores
ĠX I
ĠAd ri
Ġvoca vit
Ġconstitu it
Ġpropi edades
Ġtris tis
Ġexpres iÃ³n
Ġaedi fic
Ġtoma do
oriz ed
Ġvecchia ia
O jalÃ¡
S en
m bolo
p sa
Ġc Ã³m
ci us
tu dinis
Ġen ve
Ġen vÃŃa
di ante
Ġcon ec
Ġdi ritto
Ġse g
Ġre ac
Ġre mis
Ġre cher
at h
Ġb ot
Ġal as
ĠP O
ĠP entecos
Ġex cita
Ġdes po
Ġres id
Ġcre an
ĠF uego
Ġdis cur
Ġdis eÃ±o
Ġsus cep
ĠJ on
Ġdu c
Ġsa grada
Ġra zones
Ġrec tissimi
Ġpi erda
ĠCon stan
ĠCon tac
Ġdice bant
lic ÃŃa
Ġju ramento
Ġrespon dens
Re f
ĠCar los
Ġperson na
Ġ200 2
Ġch at
Ġbon os
Ġiu xta
qua ginta
Ġval et
Ġdar le
Ġrepu gnat
Ġred di
Ġtradi ciÃ³n
Ġdeli to
Ġhal la
Ġsucces s
ĠGerman i
ĠAqu ÃŃ
ĠIng laterra
Ġminim um
Ness uno
Ġperio do
9 7
P E
T ro
c ente
c rea
m uer
s ac
t untur
or ld
Ġv ar
Ġin feros
Ġf asti
Ġsu ll
Ġdel in
Ġvi der
ĠP oder
Ġpro fici
Ġte ologÃŃa
Ġser Ã¡s
il ar
Ġcum plen
ĠB ien
ĠV isi
Ġali cui
Ġci en
In formaciÃ³n
tre mo
Ġpre cipi
Ġis las
eb er
cion alidad
Ġmor ti
for tun
Ġven de
lar on
pro pter
Ġforma to
ĠMa dian
ÃŃs mo
Ġsuper flu
Ġreli qu
Ġvivi ficabis
Ġaquel las
At qui
Mu cho
Ġaf fert
ĠSal mos
Ġum bra
Ġadi u
Ġpros simo
Ġconsecu encias
Conse quatur
Lu gar
ĠGal lia
cco gli
Ġsucces so
ĠMus eo
ĠRus ia
Ġacces o
Ġproxim um
Ġlegis la
Ġcoe pit
Ġinmor tal
Ġmigli ore
ĠTom Ã¡s
Ġdiab olus
Ġrecu per
categ orized
Ġrappresentan za
A ma
F rum
f re
l ari
Ġs tare
Ġs piri
Ġa er
Ġqu esti
Ã¡ ticos
Ġsu ya
Ġsi tios
Ġlo go
Ġpor tas
ĠM ara
tion ales
Ã¡s tica
ina to
va li
Ġna tiones
ĠB ro
ĠB ab
In tel
Ġsus pi
Ġpri ori
Ġsol em
ĠAl ber
Ġve ÃŃa
Ġins crip
Ġcam in
Ġven detta
Ġveni et
ula ciÃ³n
Ġul lam
Ġfr ÃŃo
Ġdar se
Ġcome tido
Ġur g
Ġconver tido
til lo
Ġloqu untur
Ġred emp
Respon dit
Ġann unci
Ġhuius modi
ĠrÃ¡pi damente
Pla cet
Ġmigli ori
ĠConstitu ciÃ³n
anu arii
ĠLuc as
Ġocta va
Ġmam Ã¡
Ġopin io
americ ana
L on
V O
h acer
l ent
n do
os ex
Ġa hor
ci embre
us os
Ġh arum
Ġf amos
ĠA bi
ĠD os
ul es
ĠS ON
Ġcom and
Ġb is
Ġlo cal
Ġad ec
Ġan s
Ġan dar
Ã¡s icos
gn are
gi ones
Ġma temÃ¡
Ġci ento
Ġci encias
Ġar ras
Ġne gas
ori um
Ġpl eno
Ġra ra
Ġmisericor s
je z
Ġven eno
Ġsab bato
Ġ5 00
An im
An che
Ġfin anci
oci miento
cip lina
Ġdomin go
ĠCom unidad
Ġcal le
Ġsta tim
Ġfun ciones
ĠTi empo
ĠMe jor
Ġconoc ÃŃa
Ġproba do
Ġpati entia
Mo di
Ã©c tri
Ob je
Ġgior no
Ġgius to
ĠCum que
Ġlogra r
Ġasper iores
= =
A lio
I es
S elec
b on
b rio
c usa
d ona
g ono
s q
Ġ QUE
Ġc ÃŃr
um enta
ar t
Ġel o
de as
Ġo rar
Qu esta
ter Ãł
Ġme tu
tur no
ĠE ph
Ġtu e
mo ta
Ġmis terios
In vi
ud es
tre bbe
Ġcor to
che z
cion em
Ġprim is
Ġbene ficios
Ġleg gi
Ġmedi ta
Ġnes s
mit tit
ĠDE L
Ġley enda
Ġmora da
ĠAm bros
Ġhumil de
Ġaca bar
ĠmÃ¡ gico
Ġalter um
Ġmale dic
Ġperic ulos
ĠNos tra
Ġsuce der
Ġph ara
Ġparticipa ciÃ³n
Nin gÃºn
Ġdescan so
ïĤ ·
Ġimma gini
D en
P ala
S ino
S aepe
T or
k y
m io
or ius
ri can
Ġet si
Ġcon voc
ĠD esi
Ġsu g
Ġre cita
ĠS Ã³crates
ent ino
Ġpa ga
ac in
Ġcu Ã¡les
Ġti erras
ĠL E
Ġso gno
Ġdis ce
Ġpar o
ĠJ n
ĠJ erusalem
ces is
Ġam eric
Ġop tima
Ġvo tar
Ġven ce
Ġri det
Ġmat ri
Ġhis torias
Ġmen ores
Ca pi
Ġtri b
Ġexis ti
Ti bi
Ġreligi oso
Er ror
Ġmes ma
Ġestar Ã¡n
Imprimir Correo
Ġpot ens
Ġur bem
Ġnecessi tatem
Ã¢ h
ĠPh ili
Ob li
Dol or
Ġprove edor
Ej emplo
Ġalc uni
ĠvÃŃn culo
9 4
B as
J acob
J osÃ©
N Ã£o
m uni
Ġe ru
Ġe bri
er nidad
qu oniam
Ġl Ã¡grimas
ar Ã©
Ġv ine
Ġh orum
Ġin tr
ÃŃ ne
Ġdi gan
Ġt ÃŃo
ĠC ana
Ġvi as
Ġtu te
ĠM iss
enti us
enti do
Ã¡s tico
Ġma gno
cu Ã¡l
Ġdis pos
Ġquod am
Ġtra er
Ġmo bili
Ġdu raciÃ³n
Ġpas tora
ĠSe gu
Ġcam inos
Ġlle van
van ti
Re p
esta d
Ar ri
ĠRom anos
Ġconf und
Ġmol litia
Ġrela tivo
Ġdistin tos
ĠCor in
ĠFran ciae
Cur so
Ġconsequ ens
tua ginta
Ã¦ c
Ġarti culo
ĠÃºn icamente
Ġexplica ciÃ³n
Ġcommun ica
Ġunivers ales
ĠDoc tora
Ġsequi tur
Ġcircum ci
dal um
ĠMensa je
Ġspec ula
Ġdolorem que
Ġobis nuit
Ġmeri to
Ġlav oro
ĠAegy pti
ĠMes ÃŃas
ĠAca demia
ĠDixit que
Ġlevant Ã³
O ffici
U stedes
v ae
er ant
qu eri
Ġf ans
Ġcon tem
Ġi ei
la bora
Qu antum
ĠC ore
ĠC OM
Ġper so
Ġvi ver
ĠM ÃŃ
Ġpo de
Ġpr Ã©s
Ġtra tar
Ġcons uelo
Ġman tiene
Ġfu entes
Ġop por
Ġab or
Ġni Ã±as
ĠestÃ¡ is
Ġda i
ven tud
Ġpi ra
ui te
rec emos
ĠSe villa
Ġprim am
Di ues
Ġdeb ÃŃa
Ġch ose
rar on
Ġcir cu
Ġnostra e
ĠÃºlti mas
Ġequi voc
Tra bajo
ĠprÃ³ xima
Ġimper fec
Ġquel li
Ġapare ciÃ³
Ġinfin itum
Ġmuta tionem
Ġresponsa bili
Ġsubiec tum
Volup tatem
ĠEmp res
ĠConsi lium
Ġcombat tere
Ġgeni al
Ġfigu ras
ĠFrances co
Veli t
Frum os
K a
P interest
T OS
i va
j amos
Ġ ..
Ġa da
ra ccogli
Ġde dic
an nes
Ġi ub
ĠA B
at ri
Ġper diÃ³
se Ã±
Ġcom unque
co lare
ĠB ol
ĠH ol
los a
Ġam ministra
Ġimp l
Ġob e
Con di
Ġgra tiae
je je
Ġ4 1
Ġju dicium
Re la
Ġinv isi
ĠEn trada
vers ario
ĠU lti
ĠAr te
Ġcuer das
Ġactu ar
Ġconsequ enter
Ġcivi tate
Ġvoc at
Ġsent ÃŃa
Ġminis ter
Ġcont ento
ĠTra bajo
Ġdiri gida
Ġexcep ciÃ³n
ggi re
ĠPres uli
Ġcit tad
ĠpÃº blic
Ġfruc tum
Domin e
ĠSen ado
Ġprovin cias
Ġbau tismo
Ġrichi esta
Ġcondena dos
Ġinfir mi
ĠFiloso fÃŃa
raccogli erÃł
0 7
C eci
D om
F echa
i ente
Ã ļlti
Ġe gli
Ġe gip
er am
Ġs tud
Ġa gnos
Ġde fi
Ġm Ãºltiples
or ro
ci tos
Ġin tu
di que
di dos
Ġest rÃ©s
ĠA lej
Ġt rem
de cido
Ġre ges
at oris
ĠI r
Ġb os
ĠM ol
ba tis
qui to
Ġau dis
ene an
ĠN es
ĠH acer
Ġco ches
Ġinter iores
ĠAn no
Ġfal se
ĠLe gal
Ġch ico
ĠAr tes
Ġef fectum
entis sime
Ġlec tus
Ġsegun dos
ator ios
Ġopini onem
Ġ199 7
IN A
Ġsalu tem
Ġtem ere
Ġfem inam
ĠFor tuna
Ġbre vi
Ġfab ula
Ġfl or
Ġdele bitur
ĠMil ano
Ġestudi ar
gÃ¼ edad
Ġmila gro
: [
M P
R ES
T ales
] ;
f ÃŃas
v ales
Ġs to
on de
ti lla
an ima
Ġin tui
ec emos
Ġdi lu
Ã© quem
Ġt ru
at orem
im as
Ġad mis
ac cÃ©
pi entes
Ġlas ci
Ãº r
Ġpo esÃŃa
Ġac u
Ġres er
per son
Ġpos sa
Ġpos Ã©es
Ġver amente
Ġpr in
Ġso tto
ĠN er
ĠG Ã©n
Ġpre go
Ġta bula
ĠO li
Con o
Con oce
gar on
ne y
Ġpotes tas
Ġgra ves
Ġfi des
Ġsec ciÃ³n
Ġdici tis
Ġqua erit
ĠCon tin
Ġins ervi
Ġri co
tia go
Ġcan tar
vis us
lan d
Ġnue vamente
posi ciones
ĠUn o
rar se
Ġleg it
Imp or
Ġfamili ae
Ġconc or
ĠPat mos
ĠPat ria
Ġfr Ã©quem
Ġini zia
Ġsanc ta
Ġherm oso
Res puesta
Ġapp lica
Ġillum ina
Ġtestim oni
Ġdubi tare
dios os
Ġcupidi tas
Ġelem enta
Ġconcu pisci
Ġinterna cional
olÃ³ gico
Ġlit eratura
Ġpersecu ciÃ³n
Ġguber n
Ġvini eron
Ġannunci at
accÃ© der
ĠfrÃ©quem ment
d rÃ¡
h ac
s ine
z amiento
on ta
ra mos
Ġde tto
Ġm Ã¡r
un era
ri me
ĠA S
Ġre greso
Qu al
Ġvi ros
Es co
oc es
tem ent
Ġser ont
Ġso ftware
Ġfa ra
ĠJ apÃ³n
Ġcor on
ori as
Â» [
Ġsal tem
ĠIsra elitas
Ġsed em
Ġten is
Ġqua ecumque
Ġmin as
Ġnatura li
Ġdiv in
ĠLe er
Ġpon en
Ġhac Ã©is
Ġcrea turas
veni da
Ġmedi co
ĠPa ulo
Ġvirtu al
pra es
Pue den
Ġdej an
Ġexs ul
ĠPos i
Ġiusti cias
Ġordin is
ĠAli quam
trib utos
Ġestudi antes
Feli ces
Ġpremi er
Cual quier
Ġincendi o
Ġgrie go
Bienveni dos
ĠServi cios
Ġsensa ciÃ³n
Ġquic quam
ristÃ³ teles
Ġquadra ginta
ĠdÃ³ lares
Ġpop olo
Ġappa ret
Ã³sto les
C C
E pis
P I
P uer
g r
i das
s ue
Ġe lit
Ġe uros
Ġd unque
on ales
Ġde lica
an tem
an na
Ġin u
Ġla pi
Ġcon ces
Ġre le
Ġre par
bi e
at orum
im per
que z
vi um
Ġb ol
Ġle ur
Ġac uer
Ġver sic
du a
ĠT ex
ĠT emplo
ĠB la
ĠG ar
Ġtra durre
ali quo
Ġ20 20
ru po
ne z
Ġhi jas
ĠEs cuela
âĢ¦ âĢĿ
Ġve ge
Ġpi edra
Ġ5 8
Ġpod ÃŃan
Ġdiv inis
xim us
ĠMa g
Ġpe u
Ġmar ty
Ġay er
ing Ã¼
To tam
Ġdistin ciÃ³n
Ġli en
Ġsur ge
Ġdar Ã©
Ã³s tico
Ġprae cipi
Ġtes tes
Ġcelebra r
Ġsui vant
Ġaper ta
ĠBritan nia
Ġlingu is
Ġlingu ae
ĠArchi ves
ĠFu turo
ĠLon dres
Ġinmedia to
Ġinmedia tamente
guar da
Ġestablec e
resurrec tionis
Ġforta leza
ĠGiovan ni
Ġsermon em
0 6
A cerca
H unc
L OS
S crip
S oci
T ante
T weet
j era
en ces
ti ende
Ġn Ã©
Ġn ac
Ġes tima
Ġf le
di ptico
Ã¡ bamos
ĠA risto
Ġqui zÃ¡s
Ġcom ita
Ġb ro
Ġal b
Ġvi x
Ġvi ro
Ġte ch
Ġcu b
Ġti tu
Ġle al
ora da
Ġac re
ab les
Ġmu ito
ĠB rexit
Ġpar Ã¡
Ġpar cial
Ġar gent
tin i
Ġman et
Ġta rea
Ġne i
Ġtam b
Ġra dio
ber is
Ġqua ere
Ġfaci et
fic Ã³
ĠEl ÃŃas
Ġfin ales
Ġem enda
Ġhabi tual
Ġbene ficia
Pro fes
ĠU ser
Ġsan tidad
Ġperfec tum
Ġnoctur na
Ġanti guas
Ġuti lidad
ĠÃ¡n imo
Ġgenera tionem
Ġfeli cita
Ġdescendi ente
Vo ir
Ġstu pefac
ĠmÃ© dicos
Ġmaior em
Ġcla ves
Ġvie jos
Ġdeli bera
Ġapro pia
Dec lara
mÃ¡ genes
Domin us
Ġformul ette
Ġproc lama
Ġnie ga
Ġoscu ridad
Ġprofesion al
Ġappro pin
ĠEduca ciÃ³n
Ġalco hol
Ġpecun ia
Gi Ã¹
ign ez
ĠinÃº til
0 1
0 9
D ia
F am
O tras
T end
h ores
p Ã¡
p tus
Ġde lic
an ces
ar nos
ÃŃ ciles
Ã© tico
de te
Ġsu ena
ĠS ina
ĠE conom
ĠM onte
Ġdes truebat
Es c
ver se
Ġres truebat
ĠT V
ĠV illa
Ġdis puesto
Ġtra t
Ġu os
ĠSe ptiembre
Ġpod rÃ¡n
ĠSi ete
Ġfra si
Ġmar cas
ĠCa teg
Ġleg gere
Ġrep le
Ġtrans forma
ista des
Ġentra Ã±as
Ġfo ed
?? ??
ĠJu lio
Ġopini one
Ġquaes tio
Ġcompara ciÃ³n
Ġpriva cidad
ĠseÃ± ores
Ġencontra mos
Ġadul tos
Ġprepara r
uve z
Ġnu be
Ġparticip antes
Ġidi omas
Ġprotec ciÃ³n
Ã©ra mos
Ġdro it
ĠTr inidad
Ã¡ma ra
Ġangus tia
G A
S A
S cri
k er
er tim
Ġd amos
qu as
Ġm Ãºs
Ġse duc
ĠA tenas
Ġt ente
ĠC e
Ġcom ent
Ġcom puta
ĠP au
Ġad pro
ues to
Ġpo ti
end an
Ġver gÃ¼enza
ĠT ito
De fini
Ġdis p
ĠIn de
Ġman duc
Ġmo tor
ant Ã³
Ġhi erro
Ġus um
Ġra tiones
Ġmin ime
Ex isten
enda e
ĠQu o
Ġprof eti
Ġreligi osos
Ġdistin gue
Ã©r coles
Ġanti chi
Ġanti cipa
Ġtrans mi
Ãª s
ell entesque
Tra ducciÃ³n
Ġesper an
Ġimpos sÃŃ
Ġdilig it
Ġcumpli do
hiloso phi
Ġsolu ciones
Ġproces sus
Ġsemej anza
Ġexperi entia
Ġespera ba
Ġadul terio
togra fÃŃa
Rom ani
Ġofici ales
Ġpremi ers
Ġbesti as
Ġdestru ir
Ġaman ecer
Ġperegr inaciÃ³n
ĠrÃ©pon se
Ġquisi era
Op ini
Ġvit toria
ĠEurope a
Ġcontesta bor
Ġset tembre
Ġsch ol
Ġestadouni dense
ĠLit eratura
Ġpror sus
Ġpraecediq se
ĠMah oma
ĠResurrec ciÃ³n
ĠimpossÃŃ vel
9 1
D F
J oseph
P lu
S co
T M
V ero
f ol
i que
p ha
Å į
Ġp ensa
Ġp sal
ra da
Ġm esa
Ġm undus
re ve
to m
Ġen vo
Ġest ruc
ĠA R
Ġper fe
vi amente
Ġb odas
Ġvi dis
ĠP acto
Ġad s
ĠM uerte
Ġex ten
tr uo
Ġpara r
ĠT O
ĠF er
tar lo
Ġpar iter
ĠG er
Ġsus titu
Ġimp ara
gra fi
Ġcar denal
Ġus ura
Ġda vanti
Ġrec to
Ġprom ete
Ġdif f
ĠMar tii
gres si
versi one
Ġsenti o
ĠSan ti
Ġmer cado
EN TE
Ġcredi dit
Ġprophe tae
ĠTra ba
Ġelegi dos
ef e
ist ente
Ġfer ro
Ġux oris
Ġocul to
Ġprud entia
ĠenseÃ± anza
ĠlÃŃne as
Temp ore
Ġescogi dos
Ġpermis o
Ġprofec ÃŃas
Ġcole gio
Ġagrada ble
Ġsalve zza
Ġnim is
ĠSeptem bris
Blan ditiis
ilan cio
Ġespal da
Ġpreoc up
sq b
A na
C lic
F ili
G e
T ris
c l
i ga
Ä ģ
â ľ
Ġ 000
Ġc anc
in io
ti ga
an orum
ar le
Ġla uda
âĢ ħ
Ġo toÃ±o
Ġper cus
ch ado
ut en
ma ti
Ġcu entan
Ġac ta
ens as
va dos
los sa
Ġgra dos
Ġve jez
Ġfuer is
Ġdice bat
zo gna
Ġveni unt
Ġprof esiÃ³n
Ġmen zogna
ĠDi cit
ĠPa ge
Ġnun ta
Su bito
sis ti
Ġemp r
ĠSa ul
Ġtrans fi
Ġsegu ÃŃa
pr endi
tori um
Ġopera ciones
Ali quando
ĠEx cel
Ġposi cionamiento
Ġinfer i
Mar cus
Ġperman e
IN G
Ġll anto
Par ti
ĠIes um
Ġutili za
Ġolvi dado
Ġprogra m
Ho uve
Ġmaes tros
Ġusu arios
Ġintelig ente
tendi te
Sol amente
Ġimmor tali
ĠDiv ina
Cas a
Ġstan chezza
Ġprecios a
ĠVic toria
Ġrecu pera
Ġocta vo
' '
' s
7 1
E f
F AQ
R ap
e tiam
n u
p lus
y er
Ġe cha
re d
Ġv ad
Ġper tene
Ġdes ac
ĠF ern
Ġhi ciste
Ġtemp rano
Ha ga
Ġmon ar
Ġpi edras
Ġaut um
Ġmin uto
Ġat to
As es
gre ja
ender is
Ġconf usi
Ġdo ve
id el
Ġsta ta
pr ende
Ġposi tivo
ĠMi hi
Ġincre di
Ġsalu te
Mo isÃ©s
Ġtermin Ã³
ĠGran de
Ġconclus iÃ³n
Ġfran Ã§a
Ġgratu ita
let ter
Ġmigli or
Ġlun es
Ġevid ente
Ġthesa uros
Nesci unt
ĠOx ford
Ġdere li
A la
T ran
g s
Ġd atum
Ġa trac
Ġde lici
Ġf eb
ec tus
Ġno tas
ĠA D
ĠA mi
le z
Ġg em
ter ri
Ġvi lle
Ġpor no
Ġcu antos
tan e
Ġle zione
ran dum
enta da
Ġil las
Ġil lus
ga vit
ĠF ab
En s
Ġdis tantia
ĠG eo
ius ti
ĠJ usticia
Ġop ponitur
Ġpas tore
Ġcas ino
Ġcar itatis
Ġgra vis
Ġpi diÃ³
Ġins er
ĠNo bel
Re ali
tiam o
Ġpues tos
ĠCar din
ĠDomin gos
Ġconf usiÃ³n
Ġ| |
Ġleg ge
Ġmedi taciÃ³n
lla do
Ġintel li
Ġsta ti
Ġsom no
Ġopera tionem
Ġespeci ales
lex iÃ³n
tiv am
Ġmili tares
Ġgo bi
AD O
Ġtrata miento
Ch risti
Ġvie ja
Ġ198 3
Ġvac ÃŃo
Ġpossum us
Ġenvia dos
Ġphilosoph ia
Ġmens is
Ġescogi do
Intro duzca
Ġconvertir se
ĠPad res
ĠsÃ³ li
Ġcuar enta
Ġveloci dad
Ġvehem enter
" Â¡
B endi
V nde
b ria
d ece
n ec
qu al
ti mi
to la
ri culum
Ġcon quis
ĠA v
Ġt un
ĠC y
unt es
ent orum
gn am
qui tecto
Ġnos sos
ĠL og
ĠT en
Ġpr Ã¦
Ġdis se
ĠJ udas
Ġimp a
na io
Ġlu c
Ġpi enso
Ġdeci mo
Ġcomp lem
Ġpod rÃŃan
aria e
Ġpla zo
Ġdiv inidad
20 16
Ġelec toral
ular es
rÃ¡ c
Ġescri tor
Rec om
Ti po
Ġcal ma
Ġfun er
Hab la
Ġasc ensor
Quis que
ĠJu dae
Ġrepu blic
Ġlic encia
Ġperic ol
Conse jo
Ġspiritu ali
Ġlet tre
Ġrever tentur
Ġimpi de
Ġq UI
Ġejerci cios
Ġscel ta
Ġtermina do
Ġsolici tud
Ġcris is
zion ale
ĠSalva dor
ĠCla u
Ã©g orie
ĠIndi ana
Der echo
Ġconvir tiÃ³
" ;
B ilancio
R us
T ur
e bre
h h
p ales
Ġ ~
Ġe pi
ra to
al y
ec c
Ġt ono
Ġqui eran
ter as
Ġcom por
si te
Ã± e
Ġdes truc
pi dum
Ġti ens
qui tur
Ġcre det
ĠIs la
Ġas si
Ġap unto
Con stitu
Ġtemp s
cion an
ni hil
Ġem er
Ġhu ic
Ġcer ti
Ġdec reto
ĠU s
Ġsci ebamus
ua ciÃ³n
log io
ĠAs amblea
Ġsapi entes
Ġcelebra ciÃ³n
Ġrefer encia
Ġsalu dos
Tag ged
ĠLu is
Ġalter am
Ġconsue tudine
Vol ver
Ġcara cterÃŃsticas
Ġterri ble
Pod rÃŃa
Ġnoti tia
mun ica
ĠPol ÃŃtica
Ġdescon oci
Ġobis pos
Ġpoc as
ĠDI OS
cribir se
Ġdiscus iÃ³n
Cin co
- .
P et
e ux
u era
v Ã³
v ante
ta cta
in an
Ġn ome
as a
li cita
al tra
ĠA uto
ĠA viso
Ġre cogi
bi das
ĠS cri
que t
Ġsi ti
Ġb in
tra ciÃ³n
dad or
ĠM od
Ġle one
ur sus
ran di
Ġpos ter
Ġmu rieron
jo ignez
Ġam istades
ĠO N
Ġhi pÃ³
Ġgra dita
Ġda tur
Al ors
Ġpra esi
Ġvo ta
Ġor do
Ġmor tali
Ġfaci endum
ĠLa go
Re joignez
Ġhabi tu
Per dÃ³n
Ġperfec tos
Ġmod erna
Hab eo
iste is
Ġopera tio
Ġviv imus
Ġconstitu yen
Ġstu dia
Ġdefini tiva
Pres entaciÃ³n
Ġdocum entos
Ġjue ves
gne ur
ĠSuper ior
Ġridi culum
Ġdescar gar
Cul pa
Ġappeti tus
Ġcoo pera
vÃ¡n tate
Ġpusi eron
less andro
Ġstupefac ti
8 4
F il
M ad
M isiÃ³n
S or
g ÃŃ
u imus
Ġs ant
Ġa pos
ta zione
in di
ti ter
Ġm ueve
Ġf esta
ec co
Ġg lo
Ġal tra
Ġlo cos
mo i
Ġle e
gn us
No lite
fi que
Ġali ena
ĠH el
tin am
Ġop timum
fici entes
Ġsa pete
Ġmon o
Ġven erunt
Ġ5 4
Ġpues ta
Ġhis tor
zar se
Ġexp lo
Ġdif ÃŃciles
ĠQu oniam
ĠW ants
ĠAr men
Ġhom osex
Ġparti colare
Ġsenti dos
Dic en
ys ic
Ġdesi gna
Ġpraes enti
Res ulta
Ġcont eni
Ġ199 2
Ġ199 8
Ġconveni ant
Ġjo ur
Ġtradu cir
ĠSara m
Ġoff enderis
Ġinim icos
Ġdivisi one
ĠNatura leza
Ġmuestra n
Nin guna
Ġtom ando
Ġdific ultades
Commenta ires
C iu
P O
S anc
t ha
x us
Ġe ficiente
Ġa gitur
ta lidad
ra dos
or sum
un ciÃ³n
ar ent
Ġh y
li ae
Ã¡ culo
Ġi dio
Ġi ban
Ġno uveau
Ġt risti
Ġo dia
ĠI greja
vi us
Ġad d
si e
si va
Ġan ces
end or
Ġpos tula
ĠB ru
ĠV an
In de
Ġdu ele
Ġdic cionario
ori g
Ġhi er
na ta
Ġu ero
ĠIsra eli
Ġdesc endat
Ġcar ro
Ġsec undam
Com ple
ĠAn dre
ĠSi ria
As sum
Ġmenti r
ĠPro v
Ġconf un
Ġtrans gredi
Ġval ore
bili ter
Ġgener ale
Ġpot entiae
Ġcaus is
Ã¡ndo lo
Ġconoc emos
Ġlon g
Ġlon ga
don os
pidi tate
Ġpros pet
Prim er
Ġpoter ant
Ġperd ona
Ġsacram entum
Ã©c Ã©
Ġlegi ones
Mat er
Ġconti ene
Ġcommo do
Ġpraece ptum
Pod emos
Hi jo
Ġjue z
Sab es
Ġiniqui dad
tul erunt
Ġmanifi esta
Exemp lum
Ġdemocra cia
ÃŃc lica
ĠNovem bris
B on
E E
H OS
T RA
c un
f am
p od
Ġc ed
Ġc ho
un ior
Ġv asta
li ta
Ġla tina
Ġcon v
Ġun ica
Ġo pon
Ġo econom
Ġre to
at to
Ġcom andam
Ġvi das
Ġpro viene
pi as
Ġto car
Ġpo e
Ġma dera
Ġres istir
Ġil ustra
ĠR ic
ĠR emo
ĠT ec
Un os
Ġj ardÃŃn
ĠV ec
tos o
cri re
ĠH os
ita ria
ĠÃ Ĺ
con os
Ġpers one
Ġfor se
Ġfor mar
Ġfac erem
Ġob mittit
Ġpec uli
Ġven tanas
Ġcomenta r
Ġsua ve
Ġcrea to
Ġba Ã±o
Ġrela tivismo
Ġpub licar
Ma xim
Ġmortu um
ĠSal ud
tres s
Ġscrip tura
Pre guntas
Ġcivi li
Ġpraes um
Ġvesti bulum
Ġmos tra
vil le
ĠMis a
pira re
Ġinclu ye
Ġabund ancia
Ġsimp les
Ġrebel de
Ġstat t
Ġaspec tos
ĠMadian itum
Ġmutationem que
8 1
A qui
D OR
a unque
g ol
j ores
n ombre
s ado
x is
Ġd erra
Ġc lama
ta miento
ci tis
Ġes sa
Ġh eb
Ġdi am
ul tatem
res iÃ³n
ĠC las
.. ...
ĠS te
Ġvi ginti
Ġlo cura
ĠP u
ĠP ros
ma te
Ġex emplo
Ġcu esta
tr orum
ur us
gu Ã©
Ġpara dis
Ġac tionem
Ġac tÃºa
ga ti
Ġpar ere
ĠN eces
ĠG loria
Ġtra e
ado ra
Ġsal en
gra cias
Ġra tionis
ĠCon fer
Ġsim plici
Ġcol oni
Ġpres so
au tem
vis se
Ex iste
Ġ6 6
Ġsenti miento
Ġvul tis
Ġvivi enda
ĠSa int
Ġtut ta
Ġvolun tario
ĠcÃ³mo do
Ġcora m
Ġdifer encias
Ġpol vo
ĠdÃ© tails
Ġnov em
inter pre
Ġconce dimus
Ġtermin ar
Ġorigin ale
Ġesca pa
ĠSalom on
Ġadel an
Ġcomen zar
ĠPrim er
Ġclara mente
Ġproc lam
Ġecclesi as
Segu ro
Recuer da
ĠAbra m
ĠGab riel
indo ws
Ġenferme dad
ĠMeta phys
Ġsolda ti
Ateli ers
8 9
F ide
N el
X II
i x
n it
p ina
v entis
w a
y ente
Ġ \
Ġs enso
Ġde bili
Ġde jes
Ġes can
Ġf echas
ri da
ĠD ra
ol lo
ĠP rado
si asi
Ġte me
Es peci
tam e
gi l
Ġnos ti
ĠL c
Ġser p
Qui zÃ¡
Ġam ores
Ġmo t
Ġcor rom
Ġap arte
Ġne g
pu b
Ġcar itate
Ġsim us
Ġven cer
Ġat tivitÃł
Ġvis u
Ġvis ible
ĠAr t
Ġperfec tionem
Ġservi zio
Ġro de
Ġiu venes
Ġdistin gui
Ġcru el
Ġpens amientos
Ġqual siasi
Ġopor te
Aqu el
ĠPr ome
Ġcusto dia
Ġhubi ese
Ġcla ras
Ġexpres a
ĠcuÃ¡n tos
Ġperten ecen
Ġtrova re
Ġridi cule
Ġcompe tir
Ġprofec ÃŃa
Simili ter
Ġabsolu tamente
Ġaesti ma
Ġrique zas
ĠbritÃ¡n ico
Ġaproxim adamente
A G
A cce
d encia
Ġ rup
in Ã³
Ġn Ã¨
is tado
Ġen tero
ri endo
Ġi dest
Ġre poso
ĠC ic
ĠS S
si vo
ac cia
tr Ã©
La uda
Ġle Ã³n
Ġto po
ora t
Ġinter val
Ġfor tes
eri to
gra dos
den cias
Ġlle vo
Ġmat hema
Di citur
Ġpres cri
Ġrespon dieron
Le ggi
20 18
Pro yec
Yo u
Ġcomm ento
Ġpromis sa
Ġrep ra
Ġpopul ar
Ġcontin Ãºa
Ġdistin ta
Ma Ã±ana
Ġaf fec
Ġeran o
Ġenvi di
Ġcap ere
Ġdem uestra
Ġminis tri
tiv us
Ġref le
Ġnego tia
Ġira tus
Ġquaes tiones
Ġagra deci
Ġaeter na
Ġvu elo
Ġcontradic ciÃ³n
Ġmens ura
Ġrecha zo
ĠMos en
Ġdivisi ones
ĠPers ona
Ġscan dalum
Hu bo
Fin almente
Ġdiventa to
Ġaplica ciÃ³n
Ġresta u
ĠcrÃ© dito
Ġsatisfec erat
ĠÃ¡ra be
ĠðŁ Ļ
Ġsecun dae
Ġinservi endo
? ...
C las
M E
P edro
S ui
V es
e as
p ice
u ere
Ġd Ã¨
ci entos
Ġes pan
us as
as h
Ġv edere
Ã³ digo
al d
al tro
da re
Ã¡ tico
le xit
Ġg atos
Ġper ÃŃodo
Ġlo que
Ġlo ok
Ġpro hÃŃ
Ġex e
Ġti tolo
gu el
ver um
ĠR oc
ris a
Ġcre emos
De ber
Ġali ae
Ġali qui
Ġcor ta
Ġob se
Cu piditate
Ġsal mos
eri tis
isi ones
Ġda te
Ġda da
Ġfaci te
Ġpres entes
asi vo
Ġinc lui
Ġvir gin
Ġdec la
Ġdec ÃŃs
ĠAr tic
Ġservi tu
pti ma
Ma y
Ġvolun taria
Ġgenera li
Ġviv am
zza zione
Ġcat tivi
vera i
Respon do
His toire
ĠseÃ± ala
Ġintellec tum
Ġsubstan cia
Ġsubstan tiae
Ġcorrup tionem
Ġpraece pta
ĠSoci ales
Ġescuch an
ĠAli anza
Uni vers
Ġconi un
Ġoccid ente
Ġido la
Ġbende cidos
Ġgravi da
Ġinici al
Ġpari entes
ĠSue cia
Ġalem Ã¡n
ĠMinis terio
ket ing
ĠCicer Ã³n
Ġrevel Ã³
Dim enti
Ġace ite
Ġcalum ni
Ġattra verso
ĠcÃŃr culo
7 4
B I
E logio
R em
R eli
T itre
e za
m ana
s ul
x e
Ġ Ã¡l
Ġ zon
Ġe ta
Ġa va
Ġa dic
Ġl lora
ta tiones
ti cia
ci amo
Ġet hic
it ores
Ġsu ae
ca ti
vi ta
Ġal tero
ĠE qui
ĠE ventos
Ġpro duci
ma y
No li
tis sime
Ġac tor
Ġver su
Ġser piente
tar Ã©
In gres
ad es
Ġesta bas
Ġdic ant
Ġdic embre
eri um
Ġis tum
Ġcontra to
Ġpra ed
Ġfuer zas
Ġanim ale
ĠAn n
Ġdom anda
Ġmuer ta
Ġescri ta
Ġverita ti
Ġreci ben
Ġrep rom
Ġpub lico
quÃ© l
Ġaf uera
Ġesc al
Ġinvi to
Ġlec tor
ĠMe dic
Quis quam
ĠAm erica
emi as
Ġreg las
Ġllama ba
Ġcl ari
Ġiusti tiam
Ġadministra dores
ĠSim iente
Ġros as
ĠMos es
Ġespos o
Ta cita
Bienveni do
Ġmila gros
Ġancil la
charis tia
Ġauda cia
ĠDecem bris
ĠdÃ¨ i
Dimenti cato
0 2
G au
J OS
P al
P RO
P linio
T ec
c la
c ÃŃa
e cit
i endo
p oco
r ente
Ġe get
Ġd ones
Ġs tre
Ġa im
qu anto
Ġl la
re te
Ġes tando
te ma
li i
Ġin quam
Ġen com
ÃŃ genes
ÃŃ simas
Ġdi as
Ġsu ger
Ġre un
Ġre zar
se aux
ĠI ma
ca das
ĠS tress
Ġsi enten
vi as
Ġb eso
Ġb rin
Ġal lo
ĠP etro
pi us
pi um
Ġmi gra
Ġhab entes
Ġver lo
ĠT al
Ġau ri
Ġcre dam
ĠG Ã©rer
der as
ud ere
cul is
Ġcor di
Ġinter p
Ġfor man
ĠO S
eb e
Ġpas siones
Quid em
ĠCon ferencia
Ġins cripciÃ³n
Ġri tro
Ġcan is
Ġcan tare
Ex cep
Pro grama
Ġcul o
Ġmej orar
Ġposs ent
Ġsci entiam
ĠAr tÃŃculos
Ġdecir te
Ġaudi erunt
Ġculpa ble
pres a
ĠCas as
Pue do
Ġcommun ic
Ġpoter is
ĠseÃ± ales
Ġsacram entis
Ġelem entum
erem ÃŃas
tÃ¡ culo
Ġposses sionem
Ġlingu am
Ġdesider io
Ġfis cal
Ġinoc encia
ĠEsa u
ĠmÃ³ vil
Ġenv ÃŃo
Ġinstruc ciones
Ġprospet tive
G I
c ens
c ru
c osa
h omines
l ores
t unt
t he
v emos
Ġs od
Ġs cegli
en dos
Ġa pe
Ġp et
Ġde tec
or den
âĢ ł
Ġo ficina
ca ta
ca pa
vi am
tra to
ĠP remio
Ġpor tu
mp ara
ues tas
Ġto us
tis simum
end unt
Ġac tione
Ġver b
du o
Ġcre ator
ĠV era
Ġmo tu
Ġco pa
des de
na to
Ġtan quam
fici al
Ġvo x
Ġgen us
Ġfaci l
Ġoc cas
for m
lic am
Ġpod rÃ¡s
Ġrespon deri
Ġpat rimonio
Â« Â¿
ĠDomin go
Ġmar ch
ĠUn categorized
gna ti
Ġaliqu os
Vi deo
Ġid one
Ġdo cet
Ġcambi os
Ġinvi tados
ĠK al
Ġbel li
ĠLib ros
Ġcin ema
ĠAp rilis
Ġdefini tionem
Ġint entar
Ġrepu gn
Ġsalv um
EL LA
Ġexper tos
Ġprud entes
togra ph
Ġnas citur
ĠSac erdo
Ġiniqui tatem
Ġsp am
Ġgius tifica
Ġmons truo
Ġeffici tur
ĠMer cu
Ej emplos
Vesti bulum
Ġdevol ver
F er
G od
f ar
i bilidad
l orum
p so
p por
u isse
Ġe re
Ġe volu
Ġa gis
Ġa postÃ³lica
Ġp Ã©r
Ġp sic
Ġf es
ec os
Ġdi gnos
Ġt rÃ¡
Ġo dium
ul l
Ġre gina
im an
ĠI uda
ca ciones
Ġme die
ĠE P
Ġtu vi
ĠM usa
tion ale
Ġpo etas
per venire
za je
Ġpri me
Ġcons ta
Ġam ones
Ġmo vi
Ġob jec
Ġcar rera
Ġbi o
tri ces
Ġcontra rium
Ġsa grado
ui cios
Ġqua tuor
ĠCon c
Ġsem i
Ġcan to
Ġpres entaciÃ³n
est ina
Ġhu yÃ³
xim os
Ġbene vol
Ġmenti roso
ph aris
Ġsuper sti
Ġpon go
iu to
Ġservi do
uel os
Ġlab oris
Rec or
Ġreligi onis
Ġtrans la
Ġmes e
Ġinvi ta
Sal vo
ĠSu pre
Ġscri vere
Tra du
Ġdescendi Ã³
iss ance
Ġreg al
Ġgo zo
Ġtras pas
Ġpotu erunt
Ġpriva do
Mo do
Ġbendi ciones
Ġocur rido
Ġbe atus
ĠMat er
fu gi
ĠPas tor
Ġhal lar
Ġinqui e
mat eri
neces ario
Ġboni tas
Ġtre inta
Ġevid encia
Ġquaer ere
Ġdivis io
Ġproteg er
ĠautÃ©n tico
Ġtribun al
ĠcatÃ³ lico
Ġrego ci
cedon ia
Ġpersonna ge
Ġpericol oso
. |
9 6
A uto
I usto
O raciÃ³n
V ul
i ti
l lam
n unc
Ġp sy
or di
is ce
re ad
Ġin quantum
Ġf ina
ri ma
ĠA ram
Ġo lim
ĠD an
Qu ibus
Ġg ens
Ġper turba
Ġsi ano
ĠP uerto
Ġtu ve
ĠM uni
et es
Ġcu pi
Ġ1 12
gu li
Ġlas cia
Ġto ujours
Qui ere
ĠT I
Ġcre encia
no do
cu pa
In stitu
ĠIn vi
ita tes
Ġman uales
gar Ã¡
ten nis
Ġgen naio
ĠRe gi
Ġmar is
Ġmar tes
jar se
Ġbon ita
Ġdef ine
su o
ĠCor neli
Ġini tium
Ġsor orem
Ġindi gn
Ġinfer no
Ġstu lti
Ġmili tes
Ġdivi de
Ġaiu tate
Ġmatu tina
Ġmedic am
cam bio
Ġencan tan
Ġexal tado
Ġcogi tare
mÃ³ vil
Ġcres cit
ĠGreg orius
Ġapo yo
Ġadolesc entes
Faci lis
Ġcha os
Ġcari tas
Ġlad rÃ³n
Nom en
Ġtriun fo
ĠOccid ente
Ġener gÃŃa
Ġdiscor dia
gÃ©n ito
Ġdefin ir
? :
D ar
E T
H omo
L og
O V
T antum
g atus
i des
Ġ ï»¿
os Ã³
Ġa tributos
tu am
Ġf rases
ri cos
Ġcon versiÃ³n
la das
ĠA ustra
ĠS AN
ĠM EN
ĠM AR
Ġcu ello
... "
ora tio
tam entos
Ġres pec
ĠT res
Ġpar es
ĠJ ord
fer entes
Ġpre ce
gar se
Ġhay as
Ġu ol
Ġlu di
Ġve a
Ġaut ores
Ġri us
Ġvir gen
zar o
ph one
Ġprof unda
lus iÃ³n
Ã³lo gos
Ġcel esti
Ġemp ez
tim am
Ġabi ertos
Ġsex ual
Ġsuscita t
Ġcru ce
Ġminis terium
pend isse
Sa piente
Ġocul is
Ġquanti tas
ĠOm nipot
Ġdiscipul is
Escri be
Ġhabe tis
Ġbra zo
bun al
Ġpose er
Ġlam enta
ĠMic hael
pue de
ĠForma vit
Ġjudi cio
Ġoccasi one
Ġgiovan i
Ġimmedia te
Ġitali ana
Ġnervi os
E ran
M ic
P Ã¡
e ga
l Ã³n
n isi
p oc
s ua
v ac
v ÃŃan
z obis
Ġd entes
en na
Ġp endi
Ġp echo
ra te
ti ti
do c
Ġen cu
Ġcon u
Ġdi rÃ¡n
ĠA C
Ġg am
ĠI c
ĠS tu
Ġcom pos
Ġpro tes
Ġex ce
Ġcu estion
tr ÃŃa
Ġto mo
Ġpo i
Ġpo trebbe
uer is
Ġca re
Ġnos tre
fi er
ed as
ed Ã¬
Ġver us
ĠT am
ĠF lor
Ġar mon
Ġco urs
Ġco dice
Ġimp uta
Ġpu re
na ti
Ġlu dos
Ġmal us
Ġverdad eras
ĠEl la
gni ficado
Ġsab or
Ġfal li
Ex er
Ġescri tos
ĠCom pr
Pos ted
Pos tea
ĠX XX
Ġ9 5
Ġsing ul
Ġreligi osas
Ġval ent
Ġdix isset
ĠFran co
Ġpad rÃ³n
Ãī sta
Pa ge
Ġspeci em
Ġvisi tas
Ġomni um
Ġedi ficio
Prim um
Ġconveni ente
ĠCi vil
Ġcomer cial
Ġnega tivo
Ãģ n
Ġjue ga
Ġconsul tar
Fu era
Ġhabe ant
ĠHo use
Ã¡g ono
Ġuer bum
Ġoblig atorios
Ġconstru ir
ĠAegy pto
Ġoscu ro
Ġagri cultura
Ġanci anos
ĠvehÃŃ culos
ĠAus tria
ĠObis pos
Esper amos
Ġalterna tiva
Ġquinquen nium
Ġenor me
Ġfara Ã³n
! âĢĻ
G ener
T ar
c endo
g atorio
j en
r one
Ġs un
Ġs ca
Ġs Ã¬
en ne
Ġa re
on g
ti pharis
Ġdi men
Ġdi pl
ĠI pse
ĠS et
ĠP an
Ġpro cu
ĠM it
Ġdes ola
Ġdes trucciÃ³n
tr en
tr in
ora miento
Ġnos tris
Ġso ciali
ris pon
ica do
ĠB ulgar
Ġdis sim
cit Ã©
hi bi
Ġsub s
Ġcam pes
Di e
Ġnum era
lem ent
ĠMar te
Ġag entes
ĠCa tegorÃŃa
ĠCa esare
Ġdomin o
Ġsenti mientos
To ute
Ġmer ecen
Ġtar je
Ġscri bo
ĠfÃ¡ ciles
Ġprae para
Ġcap aces
Ġpecca tis
Ġreg la
ĠPo tipharis
Ġcorpora les
ĠDec reto
Ġevi tare
Ġvec inos
Ġaus encia
cend encia
Ġprofes or
ĠPonti ficio
Ġthe olog
Ġejemp lar
TU LO
ĠJoseph o
Ġcari Ã±o
Ġconden ado
Ġanun cio
Ġavi Ã³n
Ġderi va
ĠvÃ¡li do
Ġclass ica
L ES
d entes
d ano
g ano
i pse
l uc
o dio
p sit
p oder
r ono
t Ã¹
ï ¬
Ġe g
Ġp end
qu ere
Ġc ras
Ġde vi
ti ce
un as
Ġv arius
li tas
ri g
Ġdi gas
Ġse tenta
ĠA cc
Ġre du
Ġcom es
Ġpro fecto
Ġex hib
Ġpos sim
Ã¡n ea
Ġcre ÃŃa
ĠH ic
Ġam antes
Ġam icum
Ġcor vo
Ġap ti
he im
Ġab omina
Ġcas e
Ġrec lam
ui da
Ġsim ula
Ġri mane
Ġ4 7
vis ti
Ġ5 5
Ġconsi go
Ġvide bo
Ġfal sas
Ġaliqu as
Ġamor em
Ġquin quaginta
âĢĶ .
peri enza
Ãª te
men os
Ġpad roni
Ġconver tens
Pre ghi
Ġvoca re
unda ciÃ³n
Ãī s
Ġtro ppo
Ġpecc ator
Ġcommun is
Ġinveni es
Ġsoli to
Ġfir m
Ġbar bari
pet ta
Ġfundam ento
ĠSanc tus
Ġofre ciÃ³
Ġqued aron
ĠPas cua
Ġpedi do
ĠrÃ¡pi da
Ġlitter a
visi ones
tÃ¡ culos
Ġfruc tu
ĠNatura les
Ġmun dos
Ã©ndo le
Temp ora
ĠcientÃŃ fica
ĠCristi anos
Ġsecre tos
Ġpuri fica
Ġprova to
Gu ÃŃa
ĠItali ae
Ġpecun iae
Ġrecomi endo
Ġtec nologÃŃa
consi dera
Ġschia vi
Oc caecati
Ġefica z
AÃ±a dir
Ġadec uada
Sco pri
ĠðŁĻ Ĥ
0 5
B e
F A
N utri
W eb
a ta
m ol
u per
y l
Ġa jus
ta ban
Ġde pos
Ġde pres
Ġes pÃŃ
Ġin vers
Ġen um
ri tus
Ġque de
Ġcon vers
Ġcon gre
Ġdi tono
Ġt rin
de la
de at
Ġo pone
Ġre voluciÃ³n
ĠI anuarii
ente is
lo cu
Ġpro ducir
ĠM Ã¡
mo to
Ġle va
Ġser Ã©is
Ġso bra
Ġso gni
ĠV inos
ĠJ os
fer ente
Ġcons ensu
Ġpu dieron
Se gui
ber g
duc tion
Ġven io
Com un
Ġanim um
ĠAn ton
Ġinc rÃ©
Ġcer can
Ġhabi endo
cil la
11 3
ĠQu a
Ġch oco
Ġinf rin
Ġcui dar
Ġconoci da
Ġactu a
Ġconsequ at
Gra tias
cir co
Ac tualmente
Ġmus icam
Ġvesti r
Ġsent entiae
ĠAp Ã³stol
Ġav ari
Ġrecon ocer
Ġnego tium
AD A
Ġlim pio
For tasse
Inter pre
ĠseÃ± ora
Ġmane jar
Ġgius ti
Ġfon tes
ĠFeli pe
Ġinoc ente
Ġdeman da
Ġferia e
ĠAng lica
Ġinca pa
Ġrique za
seris ci
Ġreprom is
Ġritro verai
. }
A prender
P an
c ran
d ra
i vo
m oni
s ae
t ento
v amos
x ar
Ġc uncta
ta lia
Ġm ores
Ġn ut
um bre
do m
Ġf este
Ġdi Ã¡logo
Ã¡ cil
it h
Ġno lite
ĠC li
ĠS cio
Ġme do
Ġal lora
ch ecer
gu raciÃ³n
tem us
tis simus
Ġma dres
ĠR ico
ĠF un
ĠB r
Ġali am
ĠH en
ĠH ace
Ġ" Â»
Ġpre ti
Ġpre via
Ġdic endo
eri es
Ġor ÃŃgenes
Ġdeci siones
Ġven cido
lar um
Ġfin almente
est Ã¡
Ġdef ra
Ġtuo i
Ġele f
Ġmer ci
Ġvolup tates
Ġcome Ã§o
men se
Ġinfi de
ĠVer bum
num era
Ġtempora les
Ġint entio
ĠCas ino
Ġign em
ced unt
ĠPr ensa
Ġtor no
Ġcompr ender
Ġlic eat
Ġperd ono
Ġtris tes
Ġaeter nam
tac co
Ġglori am
Ġga visus
Ġlleva do
tran do
Ġllega da
Ġ= )
Ġlevan tan
Ġintro du
Ġcorrec ta
vim ento
Ġenga Ã±
ĠaÃ±a diÃ³
Ġqueri dos
Ġsuffici ant
aut ore
Ġata que
Ġdign itate
Ġidenti dad
enaventura do
Ġreman sit
poca li
Ġinse para
Ġespe cia
ĠObis po
Ġcarcer em
ĠcomeÃ§o u
8 2
A peri
E qui
I TE
a to
c unque
i la
j ame
l ÃŃn
m ones
Ġa urum
on ado
Ġde ca
Ġde fectos
Ġin au
Ġla g
Ġen te
ri tas
Ġcon voca
Ġdi ebus
Ã© mica
ĠA th
Ġha cienda
Ġo ir
Ġvi vÃŃa
Ġad veni
bra r
Ġex ha
Ġ1 30
tan da
ĠDe ja
ran da
ib ale
El ec
Ġpos tu
ĠL ink
ĠT homas
Ġcre cimiento
ĠF esti
Ġar t
ĠIn dia
con i
Ġfu turos
Ġne gÃ³
Ġr ÃŃe
Ġpas an
ini tas
Se gundo
ven tur
Ġentre gado
fic an
Il s
uni i
pul us
Ġpres to
ĠEn ero
Ġdescend er
dis tin
ÃŃs tico
ĠDi ciembre
Ġperfec tione
Ġleg es
Ġora tionem
ĠCom mun
Ġsenti mos
Ġemp u
Ġinvi taciÃ³n
Ġabi erta
Ġmulti plicar
pres s
200 5
Ġvuel va
Ġmos trÃ³
ĠPar lamento
Ġexer cita
Ġdejar on
ĠAu re
Ġpeque Ã±as
bul ario
Ġalcan ce
Ġposside bunt
Ġinde pendencia
Ġhor ri
Cam bi
ĠRey es
Ġprofes sion
Ġnarra verunt
Ġmiem bro
anu ariis
Ġmutu o
ĠAra bia
Ġcompe tit
ĠmÃ³ viles
Ġgiovan e
ĠSta mpa
Ġrespons able
Ġadecu ado
Ub icaciÃ³n
muer zo
ĠCorin tios
TM L
ĠÃ¡l bum
) ?
A diÃ³s
A enean
E duca
H omines
I C
U ER
b Ã©
c eno
d f
d ine
g Ã¡is
r ra
s or
u pe
v vero
Ġe ligi
Ġp ensi
Ġp enas
ci dio
ar ch
li er
Ġin cipit
al li
ec ÃŃa
Ġcon tum
Ġi ter
Ġse us
ic es
de tur
at han
Qu elle
im ur
Ġper cep
mi l
za ciones
ĠL y
Ġver sus
Ġso ffer
ene z
ĠV ER
Ġpar tis
ĠN Âº
Ġar mis
Ġar reg
ces iÃ³n
tin ere
Ġcor rispon
Ġap ari
Ġimp era
Ġob jetos
ne o
gra das
Ġpas sio
man da
Ha cia
gui da
und em
ĠSe gunda
Ġcam p
Ġ5 6
ĠIsa ÃŃas
car lo
Ġhac ÃŃan
Ġparti e
ĠNa tale
Ġvia jes
Ġris a
Ġsom bras
Ġgrande za
trum enti
Ġfil Ã³sofo
Ġfeli citÃł
truc tura
Ġcristi ani
tati vas
Ġcin cuenta
Ġae tate
Ġmili tum
Ġdivi ditur
ĠrÃ© alis
ĠmÃ¡ gica
Ġhuman itatis
Ġhar Ã¡n
Ġpermi tido
Ġbe bida
inc endi
Ġconfes sione
Ġcustodi es
Ġextre ma
Ġscan dalo
Ġcen ar
ĠfÃŃs ica
Ġcontat to
Consequ untur
A dam
C L
H ombre
T im
V olo
v encia
Ġe va
Ġs eni
Ġp us
Ġc f
Ġl anza
ti go
or ge
di dad
Ġno vela
ĠA van
ĠA Ã±a
ĠA hora
Ġo yÃ³
ĠC H
ĠC uerpo
ĠS istema
Ġme zzo
Ġal tura
era i
dos o
Ãº car
Ġver as
De f
tar Ã¡s
ĠN ervi
ita ti
Ġta lem
Con vi
Cu rios
Ġter mino
Ġpas toral
Ġgra zia
sim is
Ġten ere
âĢĻ ,
Ġneces arias
Ġneces ariamente
Ġlu ch
ven turas
Ġmal dito
Ġmor tale
Ġfaci lidad
Ġat t
Ġcol lig
tÃŃ s
bu ena
ĠMa gno
Ġveni ent
cha in
Ġquin decim
Ġli ga
Ġmem in
ĠUni onis
Ġpot entiam
til ina
Ġceter is
Ġprincip ale
Res eÃ±a
Om nia
Ġtend rÃ¡s
Ġred dere
Ġtem pio
ciona da
Ġvan ta
Ġdio eces
Ġpriva da
Ġterr or
Ġsir vi
Ġexemp lar
Ġbe au
ĠpolÃŃ ticos
ĠEst Ã¡
Ġk m
Ġtrabaj an
Ġenfer mos
Ġgratu ito
Ġponer se
Ġquedar Ã¡
ĠFac tus
ĠAqu el
AT OS
Ġase gura
Volup tas
Ġstel la
xo do
Mus eo
Ġfirma vit
ĠAug usti
Ġgover no
Ġactri z
tulis ti
Ġcircunci siÃ³n
Ġcabal lo
apa tillas
Ġcub ic
Ciu dad
ventis tas
- )
? Â¿
? ]]
B ona
M eli
d ando
g enti
n ado
p ende
u ch
u tique
Â ¬
Ġ tas
Ġe Ã¢
es cri
Ġa ra
ci mo
is ola
Ġes pl
an tis
as ÃŃ
ar s
Ġv ento
Ġh ec
di miento
di anitas
âĢ Ģ
ent Ã¡gono
vi di
Ġb es
ma do
et en
Ġle j
Es cuela
ran no
Ġca ÃŃda
ĠN E
ĠN ext
In serisci
ad huc
ĠJ uegos
Ġpre ocu
Ġfor n
ĠO cta
Ġsal us
ino ta
Ġvol vieron
Ġsec onda
vis a
Ġ5 7
Ġpat rum
edi tar
Ġhabi tan
Ġpost s
ĠCar men
Ġdec lina
ĠU d
mon os
ĠCa esar
Ġmedi oc
ĠelectrÃ³nico Imprimir
To p
vol ta
Ġori gina
Ġentra do
Ġposi tio
Ġcivi um
teri ori
Ġdefini ciÃ³n
ĠLu z
Ġann is
Ġmaxim um
Ġhabla ba
ich Ã©
Cual quiera
ĠVen us
Ġmel hores
Lin gua
ĠEli as
Ġdescubri r
Fuer on
ĠlÃ³ gica
ĠprÃŃn cipe
âĸ º
E P
U C
f uit
h im
n Ã©
en us
on os
on ali
Ġc ette
Ġl isto
or ra
re la
Ġh in
tu o
Ġin nova
Ġf Ã©
ec ca
ec ed
Ġcon tri
Ġdi lexit
Ġi uc
Ġre gn
Ġg audi
ter ÃŃas
ca usa
ĠS om
Ġvi res
od es
tion al
Ġpara grafi
Ġpo quito
ver te
za ba
Ġser Ã©
Ġser eno
ĠT imo
jo ur
Ġdis cere
Ġdis minu
ĠG uar
Ġtra je
Ġpre mio
Ġsol as
Ġsec u
Ġfuer an
Ġanim e
pro p
Ex plica
Ġnum er
gan tur
Lo ca
ĠCar lo
Ġpe perit
uel ta
ĠCom ple
endit que
ĠJes um
Ġfamili am
Ã©r f
Na ve
Ġconta cta
Ġur bes
Ġpes te
vin cia
Ġcumpli Ã³
Ġbeb Ã©
Ġcier tas
Ġdubi um
Ġconveni re
Ġsalv Ã³
Ġencontra ba
Ġcla us
ĠPara ÃŃso
Ġmucha cho
Ġintro duc
ĠGal li
Ġcontac ter
ĠVal encia
ĠGre y
ĠprÃ¡c ticamente
Ġintelec tuales
ĠhÃ¡ bito
Ba jo
Fo to
gran tes
Ġfrequ enter
Ġvideri tis
ĠRab bi
Cel ebra
ĠPsal mo
Ġalo jamiento
ĠVie jo
Ġcr ud
Ġdesay uno
ĠSegu ridad
Ġadpro batus
Ġestruc tura
Ġcredet tero
Exer citationem
7 9
B A
I gual
T ype
b all
c olo
d ulos
n or
Ġde bate
am b
Ġin habi
Ġf ant
ro id
Ġdi min
Ġno ble
Ġo ui
ĠD r
Ġsu ele
Ġre alis
Ġre uo
Ġcom eter
Ġdes pa
pi edad
ba ti
Ġca ÃŃdo
gi e
Ġac com
Ġac titud
Ġhab ebant
âĢĿ ;
ĠT in
ĠB lan
Ġdis fra
ĠN uestros
Ġar quitecto
fer re
Ġcons on
Ġcons trui
tin os
con trar
Ġap pe
Ġinter est
Cu atro
Ġr Ã©s
Se p
Ġsa ca
Ġpi ena
ui do
Ġfaci tis
inci ae
gen o
ĠAn na
Ġsac ar
mis mo
Ġcer carlo
Ġelec tus
gan cia
Ġexp lora
Pro ba
Ġfra tri
Ġmuer en
ĠLe on
Ġag gi
Ġsuf rir
Ġlin do
ĠHi erusalem
Is ta
ĠPar ti
Ġsent entiam
rup ciÃ³n
Ġcont enti
pra e
Ġign omin
Ġserv um
Ġtend rÃŃa
Ap ud
Ġdispu tare
Ġsen os
Nun quid
Ġnega tiva
Ġpati tur
Ġfer am
Ab biamo
Ġdivers ae
ĠMat rimonio
ĠPres idente
ĠCol um
Pas a
Ġtum ba
Ġinsi eme
Ġjud ÃŃo
Ġdesarro llar
ĠFi glio
Ġpersecu ti
ĠAposto lus
Ġtele f
Ġsens um
Ġbreve dad
Ġimagina ciÃ³n
ĠAma zon
Ġmemori am
ĠMul ti
Ġfidel is
ĠraÃŃ z
Ġconturba ta
Ã©lÃ© char
ĠBenjam ÃŃn
Ġcomandam enti
A g
P ad
U se
b ulo
j i
r erit
u isset
v ando
Ġ 00
Ġa genda
ti res
Ġm ac
re tum
Ġin mo
Ġen dure
Ġet ernidad
Ġcon cede
Ġdi eta
la ti
Ġno via
ĠA bel
ul s
Ġre duci
Ġsi embra
Ġan i
Ġan zi
ma ta
Ġte orÃŃa
ĠM E
Ġdes em
ĠDe f
Ġres pici
Ġser ÃŃan
ĠR h
Ġpr is
Ġpr ensa
tar ci
tro l
Ġfa te
ĠH TML
ĠÃ© crire
Ġpre cep
Ġmo i
Ġob b
Ġsub si
Ġtam bien
Ġpi el
Ġcam pagna
Ġos sa
An n
tÃŃ fice
Ġdiv inum
Ca put
Ġcomm en
Ġfacere t
Ġvivi do
Ġli ti
Ġsapi entiam
Ġjusti ficado
Ac ta
bri r
leg Ã³
Ġfru i
Ġdefini tivo
Ġsalva re
Ġobra r
Ġlim ites
Mul tos
Ġhar Ã¡s
Ġlum ine
ĠAt ene
Ġenga Ã±ar
ĠSem ini
trem uit
Ġlabora torio
Feli z
Ġses sione
Ġcolum na
Ġnuo va
Ġmarca dos
Ġgiu gno
Ġreserva dos
Ġmessa ges
presentan ti
Ġhici mos
Ġrepe tir
Ġdimit ti
Ġsopor tar
Molesti ae
Ġversa tur
Ġsemp it
Ġpunc to
Ġsegre to
Ġcunc tis
Ġofr enda
Ġrecher che
Ġamministra tori
Rap presentanti
" :
A par
O O
P ur
g ulo
n ologia
v ari
| |
er entur
en tantes
in ga
Ġin tima
ÃŃ es
Ġcon tur
Ġcon tremuit
Ġre lo
Ġre pi
ĠC ora
ĠI uli
ĠM Ãºsica
Ġdes in
ora re
qui ere
gi ta
per unt
ĠR ena
ĠT rump
Ġau res
Ġna cional
Ġali cuius
Ġar gu
Ġman ere
Â» ?
Ġab e
Ġr ursus
Ġpra emis
ĠEl los
Di xerunt
Re pres
20 19
20 17
Des cripciÃ³n
din g
ĠLe gge
Ġcomm em
Ġid Ã©e
Ġpossi ede
Ġmod erno
Ġquin ce
Ġmil li
Ġfr Ã¨res
Ġum ano
tim ento
âĢĵ Â¿
Ġextra Ã±a
Ġfeli ce
Ġpol Ã©mica
ye ar
Ġespa cios
Ġsali do
Ġcristi anismo
Ser ÃŃa
Ġdefini tio
Ġent endido
Ġexi ge
Ġnego ti
Ġinterpre tatio
ĠCi elo
Ġius tum
Ġexist ente
Ġconci li
Archi vos
Ġregis tra
jerci cio
Ġolvi des
Ġcommo ta
fuer it
Ġinstrum entum
ĠWeb master
ĠPila ti
ĠSen hor
Ġmun ere
Ġexces o
Ġrepeti ciÃ³n
ĠcientÃŃ fico
bil onia
Ġestablec er
Ġrin gra
Ġface book
Ġtrabal har
Ġsanctifica vit
ĠversÃŃ culo
Ġadduc am
ĠWal ter
A cep
M ani
N A
R iman
f ri
i ent
u um
z heim
Ġd ÃŃ
on na
on alis
Ġp Ã¡r
ci pio
Ġn Ã©e
Ġv llo
di i
al og
ĠA gri
ĠA QUI
ĠA ristÃ³teles
Ġt ron
Qu eri
Ġper fil
ĠS r
ĠS ud
ue t
Ġal tos
tra que
Ġad hib
si bilis
Ġpos ibles
il er
Ġmis eri
Ġso cia
Ġcre ce
ĠN u
ĠJ er
ali tas
Ġman dado
Ġsal ue
gra zie
ir um
dit Ãł
Ġfi unt
Ġaut onom
fic inas
tic s
Ġvide licet
ha ce
Ġdif untos
Ġdec ora
Ġperson almente
ĠMar cus
Ad huc
Ca p
Ca pa
Ġag ro
Ġperfec tus
To tal
Ġdistin zione
via do
Ġ15 0
Mu cha
Ġestu vi
com p
Ġcur sos
Ġdor m
Dis fru
ys t
Ġbus can
Ġpens are
ĠQui enes
Ġdefini tione
ĠAc t
Ġpes so
ced ens
Par te
Ġdormi unt
Ġru inas
Ġpropri as
Ġdiffer unt
Ġpoli tico
Ġvari is
mu jer
ĠMil Ã¡n
Ġpeti ciÃ³n
ĠPonti fici
Ġmons tru
ĠEpisco porum
Ġabund ante
Ġsequ eris
Servi cio
Ġcoc ina
Ġaj eno
Ġnombra do
Ġpoten cial
Ġfos se
Enc ore
Ãĩ ÃĥO
Ġconstan temente
Ġteni endo
Ġances tros
Ġinfrin gitur
Ġreuo catur
Riman ere
7 6
C ab
C rÃ©
M inis
P OS
a Ã±o
b eni
d ant
Â §
er cio
Ġs Ã£o
ta lo
Ġqu orum
ci mientos
te gra
Ġf enes
Ġf ecer
Ġf ase
Ġel Ã©ctri
ĠA qui
de bant
Ġvi ernes
ĠP ris
Ġex ci
Ġcu bi
Ġti tulo
tes ti
Ġpo tere
tis ta
end re
Ġca ch
Ġca pti
ed es
Ã¡n ica
Ġas sis
Ġco gn
gra fo
Ġu p
Ġgra mma
Ġmal edu
Ġmuch ÃŃsimo
Ġor gan
Ġdeci de
Ġgen u
Ġaut re
Ġju ventud
ĠAn tio
Ġpla ce
Ġcer ve
Ġforma do
Pro blem
ĠQu are
Ġmen udo
Ġuni dos
Ġdon o
Ġ10 6
Ġnun tia
dum bre
Ġdoc uit
Ġval le
Po tes
peri encia
ĠCor reo
ĠAs c
Ġtal ento
cur os
Dis corso
Ġespeci almente
Ġbus cas
tua ciÃ³n
Ġon t
ĠAp oc
Ġnov am
fac ere
Ġdese e
Ġdiffici lis
Mul tae
Ġga ranti
Neces ito
Ġjuz gados
vem ente
ĠPra es
ĠSem in
ement s
Ġaband ona
ffer ta
Ġestable ciÃ³
Ġignoran tia
Ġcommuni one
ĠAposto lica
Bea tae
Ġemo ciones
Ġbende cir
Ġfum ant
ĠfÃŃs ico
Ġmessa ggio
ĠComun ica
Ġrecur sos
Ġano checer
Mujer es
ĠlÃ¡ mpara
D an
F ine
M c
T ES
T oma
b ancos
c amos
Ġs ero
Ġde je
ti Ã³n
ci an
us ted
un cio
ar si
Ġin o
Ġla bo
Ġla bios
Ã³ cesis
Ġcon cer
la t
ĠA gosto
Ġo t
Ġsu cce
Ġre medio
Qu alis
Ġg ro
Ġg esto
ter no
Ġsi go
ĠP ER
Ġan ali
co u
tor ÃŃa
Ġci erra
ĠH or
ali dades
Ġman ibus
Ġco in
sa pp
Ġfi at
ĠSe gundo
lar ios
Ġvis um
Re forma
Ġgran d
tÃŃ an
Ġpla cere
Le a
Ġhu Ã©rf
ÃŃs ica
dor o
Ġ6 8
Ġconf ÃŃo
Ġag ens
Vi vo
rem ent
Ġaudi encia
ĠCom mota
Rec usandae
Ġdo vere
Ġabs or
Ġrela cionados
gas te
Ã©r minos
Ġconc reto
Ġval ebis
EN TO
Ġtar da
Ġconoc es
bilidad es
Ġcap it
Pa pa
AR R
Ġhabere t
Ġmili tar
Ġrecon oce
Ġnego tio
ĠTra tados
Bu en
Inter ro
Ġlibera ciÃ³n
Ġrecom pens
Sus pendisse
Ġaeter n
QU Ãį
bam a
ĠPh ysic
Ġcreatura e
ĠAt lan
ĠenseÃ± Ã³
Rom anos
Ġexpe di
Ã³so fos
Ġinterna cionales
Escri to
Ġgius ta
Ġappella tur
ĠCons ul
Ġopti mista
Ġfri gi
Ġdesid ero
Ġcommenta ire
ĠautÃ©n tica
Ġapa recen
Ġric chezza
ĠMagis ter
hat sapp
Ġprivile gio
Ġheb doma
Ġoporte at
Ġgaudi is
E cc
I glesia
I ure
P ablo
T ene
b bero
e dit
i dades
i tamos
m Ã©
os amente
Ġa tar
on ibus
qu elle
ta tion
ti cis
Ġes pon
Ġv ado
Ġh Ã¦c
Ġse amos
bi ta
ĠC ara
ĠC ura
Ġper fici
Ġme tal
ĠP s
Ġpro gredi
et ta
Ġpo tete
Ġsin cero
Ġdis co
Ġman dÃ³
Ġfu imos
Ġdic amus
Ġop pidum
Ġpas ando
ir se
Ġvol e
fici encia
Ġfi et
Ġmal diciÃ³n
Ġpra esta
por ts
Ġpi edi
ĠAn t
OR CA
Ġcel eb
Ġtran se
Ġpon te
Ġch em
ĠAr ti
Vi vi
Ġcomm it
Ġexis tima
Ġro jo
ensi o
Su pon
ende t
Sal u
Sal mos
Ġsex u
Ġfil ter
Ac tuali
Ġvesti mentum
Ġtes oros
Ġsali eron
Ġspeci ale
Ġ0 1
Ġobli gado
Ġresurrec tio
Ġ199 5
ĠYo u
Ġreg em
ĠTra bancos
ĠLu oghi
volu ciones
Ġbendi ga
Ġsubstan ti
Ġcara jo
Ġquattuor decim
ĠBa bilonia
ĠVir gin
Ġgan ado
Ġdeclara do
DE DOR
cti mas
ĠES T
ĠAmeric ana
Ġinmedia ta
Ġorgul loso
Ġventa jas
Ġmonta Ã±a
Ġrichi este
ĠTro ya
Ġoi ga
Molesti as
Ġmone da
Pul ch
Ġsou ha
Ġiras ci
Ġvar ones
ĠPosi cionamiento
ĠIc od
Ġobb lig
. ;
B ra
E c
J A
M el
R AN
T h
i ro
m bol
r ores
r entes
u che
Ġd ab
Ġp esa
is mos
an imo
un cios
am or
Ġf rÃŃa
di lla
Ġsu gi
ol es
Ġre vi
Ġre dac
Ġper venire
Ġad des
tan di
Ãº de
ver sum
qui enes
Ġres uelto
ed r
va te
po tes
ĠH an
ĠJ udi
Ġas us
Ġmo tivos
ĠO pera
gra mma
ino a
Me a
Ġcomp l
Ġpres enti
vis sent
Ġvis a
Ġem pi
ĠSi gn
ĠMa xim
Ã£ s
ĠDi jo
Ġpon d
Ã¨ mes
Ġpub licidad
Ġgenera tionibus
tori e
Ġtenta ciones
Ġmulti pli
ole gio
Ġscri bam
Ni Ã±os
Ġvuel ven
Ġdesper tar
Ġvisi ones
ĠÃ¡ rea
ĠSo doma
Ġsepara ta
Nam que
Ġcl aridad
Ġdese as
Ġcontro vers
Ġbendi jo
ĠLat ino
Quin que
ĠespaÃ±ol es
Dec em
Ġsangu inis
Ġ$ $
Ġcorri endo
Mis ericordia
Ġtrova ta
Ġeli ge
Ġlit Ãºr
ĠCongrega zione
Ġrecorda re
Ġutrum que
Praes entium
Ġchristi ana
Ġaz ul
ĠInstitu to
Ġdiscu tir
Sequi tur
Ġprometi da
Ġsocie tate
Ami ci
Pregun ta
Guar da
Ġhues os
Arri va
Ġoppor tun
Ka ien
Ġconteni dos
inota uro
D ans
T em
V A
b li
g alem
k ing
m ico
n al
er t
Ġp el
Ġp eces
ci e
us iones
to lica
ul tate
Ġre gni
Ġqui e
Ġqui zÃ¡
Ġme ter
ue ga
ĠE lo
ĠM ente
ĠM ana
pa gina
Ġpo licÃŃa
qui lla
Ġca te
Ġver sos
ga to
il os
ĠâĢ ĭ
ĠG as
ili as
ud us
con stitu
Ġfu isset
ĠO l
ĠO JOS
Cu ra
ini zio
Ġcar b
Ġpl ani
Ġsa ec
Ġsa voir
gui eron
Ġhum or
Ġins tru
Ġpres entar
ĠNo vo
Ġrespon d
Ġconsi gue
Ġvir tÃ¹
ĠU cra
ser at
Ġch icas
ĠsÃŃ n
Ġdecir lo
Ġparti dos
Ġli vre
Ġconsider ar
sit Ãł
pr om
Ġlec he
Ġscrip serit
Ġviv et
Ġfeli ci
Ġqual cosa
Vo tre
Ġincre du
ĠPr ueba
Ġfem inae
Ġoper am
Ġigual dad
bor ra
Ġobje tivos
Ġsensi tivo
Ġdivers is
Ġtermin os
Ġdul ces
ĠSara i
Bus ca
Ġ197 1
neces s
ĠSam aria
Ġdev ono
Ġph ys
Ġsel on
ĠBene dicto
Ġcen turi
Ġmuni cip
Ġconten uto
Ġdemos trar
Ġdespi erta
ĠDem ocra
Ġofer ta
ĠÃª tre
Ġanal og
ĠcrÃŃ tica
Ġequivoca do
Ġreconcilia ciÃ³n
Ġcondem na
Ġpraedi ca
Im mo
Ġmatrimoni i
ĠEstu dios
ĠMira bilis
ĠLae temur
Ġcomprom iso
ĠInsta gram
Ġdurmi endo
Ġversic ulis
zobis po
beni gne
! ...
. âĢ¦
C rÃŃ
F ab
M ane
M enos
X I
b ÃŃa
e us
o pera
v elo
Ġp ud
or do
ci erto
Ġes cas
Ġf und
di zio
da ta
Ġdi mos
ic k
Ġre versus
ĠC entro
ĠI ran
ĠS ER
Ġcom pi
Ġal tre
Ġcu es
gn Ã³stico
Ġmi e
end ar
Ġres umen
Ġhab las
ina dos
ĠF lori
ad Ã¡
cul ares
Ġta ble
eli a
Ġab riÃ³
ĠIsra elita
oni to
Ġcar nis
Ġda ba
cion adas
Ġpi den
titu dinis
Ġentre gÃ³
Ġcam a
Ġrespon derunt
Ġpla c
ex ist
Des i
Ġim be
ĠCa pÃŃtulo
Ġro ca
Ġro ga
Ġreci Ã©n
Ġsenti t
Ġay uno
Pos tremo
Ġho jas
Ġgenera tio
Ġquer ÃŃan
Ġcome de
Ġdebe at
Ġhistoria e
Ġfil osÃ³
Ġsacerdo cio
Ġpraes ertim
AM AN
ĠCu rios
Ġvobis cum
Ġserv ice
Ġsoli tudine
AD ELLA
Ġpropri am
quo que
ĠBar ca
Ġsensi tiva
Ġunivers ali
Ġjo urs
lama ciÃ³n
Ġcri minis
ĠNi vel
Ġadvers ario
get to
Ġ197 9
ĠSac ri
rant ÃŃa
Ġmundi al
ĠHab ent
Ġeli mina
Ġoport unidades
Ġmys terio
Ġquedar se
vic es
jec t
Min us
Isra hel
ĠEvangeli i
ĠCI UT
Lab orum
Ġtol era
Ġlitur gia
ĠÃ¡ra bes
Ġspl endi
ĠCali for
ĠFebru arii
Ġprecis amente
VEN DEDOR
Cicer one
ĠSON HOS
Ġdispos itos
Ġobe undis
Ġtamb Ã©m
Assum enda
Ġrepra es
Ġzon as
Ġscegli ere
ĠMEN ORCA
ĠCIUT ADELLA
A mp
M AN
Z A
a ba
l era
s elo
t entes
er go
Ġd enique
Ġde um
ti me
re ci
Ġes enciales
an ca
an der
li ber
Ġla ter
Ġen tera
Ġen sal
di ces
Ġcon j
Ġo le
Ġsu pi
Ġper benigne
ce des
ĠI te
ĠS co
ĠS tar
ĠE mail
Ġad entro
Ġti enda
Ġmi el
mi ta
mi li
Ġca verÃł
Ġma ggio
âĢĿ [
ĠÂ £
De be
ĠB reta
In sta
cri t
Ġcons ula
Ġam es
Ġman Ã¡
Ġmo tiva
ori zon
Ġob ede
Con grega
Ġter cero
pu tate
Ġsub e
Ġlu jo
Ġlu char
ge o
Ġ19 50
Ġaut os
Ġhum ilia
Ġven erit
ni tas
Ġju dici
Ġrespon det
Ġconsi lia
ĠRe gno
pro ba
lan tur
Ġcer tus
Ġnum erum
ĠU m
Ġmar ti
tÃ³ rica
Ġaliqu od
Ġfam i
Ġcomm ent
Ġfr utto
Ġef fec
Ġesc ol
Ġescu elas
Ġabi ertas
ern as
Pr on
lex iones
Ġdiver so
Ġdilig endo
Ġmili tari
Ġdeber es
ĠCi vi
Ġrem unera
Ġsensi ble
cin di
ĠLat ÃŃn
Ġtranqui lidad
Ġdeclara vit
ĠSem ana
Ġentrar on
Ġnumeros os
ĠÂ§ .
Ġmisericordi as
Ġsomn ium
Ġlibenter que
aa aa
Ġsupre ma
Ġinj usticia
Ġalem anes
ĠJa vier
Ġscon to
Ġservid or
Ġrispon de
Ġdoctr in
ĠFra tres
Ġgeneros idad
Ġgeo graph
Ġsocie tatem
Ġholoca usto
App el
Ġponi tur
ĠUlti mo
Ġcalumni am
Ġsalue bis
9 2
: :
C ette
N I
N Ãºmero
O ui
P ap
S am
S ent
V uoi
a tions
b rÃ³
c lo
c tio
e ant
f ab
n ico
z go
Ġa gar
Ġp lora
Ġm entem
re ti
as se
Ġv inci
li tate
Ġin a
Ġque mad
al tado
Ġdi chos
Ġi glesias
ĠD in
Ġre ga
ĠC lo
ĠS h
que o
Ġcom bate
Ġsi gn
Ġvi ens
ĠP R
Ġcu rar
La bor
Ġca dit
Ġpos ta
za ret
ĠL orem
ĠT ele
Ġcre Ã©is
Ġj ornada
ĠG ol
Ġcons enso
Ġman gia
Ġfu Ã©
Ġcor te
Ġta cere
Ġpu el
emp tionis
fica tur
Ġpl ano
Ġmin uta
Ġat tacco
Ġ5 3
Ġju ri
Ġexp ia
ĠMa cedonia
Pro ductos
Ġhe breo
Rec te
Ġvia ggio
Ġaf firma
Ġris ulta
Ġcondi ta
Ġjusti tiam
Ġur na
Ġcapi llos
Ġequi ta
200 4
FacebookTwitter Correo
rie ur
th er
ĠlÃŃ cito
ĠAp ple
pan ia
Ġsui vre
Ġreg ular
Ġnego cios
Ġtem b
Ġproba blemente
Ġobs tina
Ġden aro
Jes ucristo
Ġspiritu alis
Ġparticul ares
Ãį A
neces si
Ġgeh ena
Ġthe ologia
Ġaum ento
Ġimm uta
Ġrece ta
Ġllen os
Ġguber na
Ġfla g
Lab ore
sab les
ĠCicer one
ĠLin gua
Descar gar
Ġrecti fier
ĠProyec tos
Obje ciones
ĠNostra damus
Ġfalse dad
Ã©cÃ© dent
B io
B una
C ris
C OM
G erman
G estion
H on
H ae
J O
L oc
M ario
N Âº
P D
P is
P ros
P ER
V ere
c tima
j ones
m ula
r eros
s up
x erit
Ġs am
en co
ti vit
Ġn er
ar ti
ar Ã¡s
tu um
Ġin no
la quelle
Ġre ducir
ĠC U
Ġcom posi
Ġal unt
Ġpro puesta
ac un
tan tum
uer tos
Ġma d
Ġma du
Ġres istencia
co vo
il is
ĠR is
Ġpr ose
ĠV ar
ĠV itae
tos ter
ĠIn tro
Ġquam vis
Ġcor pi
Ġco isa
ona to
sa dos
lam ente
den za
Ġcos to
Ġat Ã©
Ġcol le
Ġnatura liter
Ġrespon sio
ted Ã¬
Ġdiv ul
Ġexp an
Ġch ius
Ġ6 7
Ad Ã¡n
Ġperfec ti
Ġpare ciÃ³
ĠPa olo
Ġiu dicium
Ġlec ciÃ³n
Ġestu viera
Ġactu ales
Dic cionario
aris ae
Ġscri bit
Ġconstitu ye
ĠHis p
Ġdirec ta
Ġsacri ficios
Ġinveni et
Ġtor menta
Ġhumil des
Ġargum entos
Ġtota le
Ġsep tuaginta
Ġk e
Ġtrabaj amos
Ġcri min
Ġaposto lus
Ġinsi dias
ĠVatic ana
Ġsei psum
ĠÃ©s tas
ĠvÃŃ ctima
icer ca
Ġaver gon
Ġcircum stan
Ġartic les
Ġren uncia
Google Correo
Ġdiscipul os
Ġpeti te
Ġperf ume
Ġfur to
Ġtele visi
Ġmeri di
Ġdevo ciÃ³n
ĠTrin itatem
Ġconcupisc encia
Ġmascul ino
Ġabo gado
Ġcontactar nos
Ġpran dium
Ġnup tias
Artic le
Jam Ã¡s
DES A
Ġcomand ante
Offici is
ĠFesti val
Ġpraemis sa
Ġquemad modum
1 20
E jercicios
J ura
L et
M enti
P in
S ue
S anto
a di
c lÃ©
e pisco
e pit
f fi
g ari
h ombre
p ole
v ore
en cio
en tamos
Ġp ut
Ġp ele
Ġp hilosophi
Ġc entes
Ġm entes
re os
Ġv Ã©
Ġse guidores
el in
ĠA gua
Ġo ÃŃ
bi la
res tres
ĠC lar
Ġper verso
Ġlo ci
ĠP io
ĠP ÃŃo
ĠM I
ĠM eri
ĠM isiÃ³n
Ġex com
mi tas
Ġca zzo
Ġac cipit
Ġma ch
Ġhab lamos
ĠL itter
Ġver emos
ga ret
du la
Ġtra mite
ĠJ uicio
Ġlib rerÃŃa
Ġpre tio
ĠAl zheim
ĠO bras
Cu enta
Ġcar din
Ġra dic
Ġdici te
Ġos curos
gen er
Ġrespon des
Ġami gas
ĠMa i
Des a
Ġfra tre
ĠAr tÃŃculo
Ca usa
Ġcomm enda
Ġro i
Ġsenti s
ura ciÃ³n
Ġpub blico
Ġinvi erno
Ġlec to
Ġhere dero
ap p
Ġvin to
Pr om
Ġmateria li
Ġperman ecen
Ġobli gaciÃ³n
ez ca
Ġipsi us
Ġpros titu
Am erai
Ġdiri gi
Ġdubi o
Ġquaes tionem
Acc us
ĠDis eÃ±o
ĠPre mi
Ġdicta dura
ĠVa de
Ġaper ti
cre di
Ġvec chio
Ġpertin ent
Ġparticul ari
ĠHab esne
Ġepis tu
ĠBu eno
Ġgau dio
Ġpic tura
Ġrespi cit
faci le
teni dos
ĠVeni te
ĠEvangeli um
Ġarb ore
Ġsuperi ore
Ġinicia tiva
Ġacord Ã³
Ġpericulos um
Ġinvers am
yst Ã¨mes
+ +
A e
C OS
D ob
H inc
I mÃ¡genes
L an
T ema
a te
b rum
d ro
d ente
m era
p ore
Ġs enes
qu us
ra les
Ġde duc
ti lo
us es
um an
Ã³ ma
ri ght
Ġo bi
Ġre uniÃ³n
Ġre queri
at tuor
Ġper venit
ca ciÃ³n
Ġcom puesto
vi das
Ġb ran
Ġb ack
ĠM ons
Ġex posiciÃ³n
Ġ1 13
pi Ã³
Ġpo enit
Ġma gos
Ġpos to
Ġver bi
ĠT us
Ġso pra
cu Ã¡ndo
tro ppo
ĠB ap
ĠG ri
Ġar ts
pos sum
Ġas tu
Ġdic emus
ĠAl lius
des tina
Cu Ã©n
Ġus ers
Ġra to
den cial
Ġtemp eratura
âĢľ .
Ġpec ar
Ġfaci ant
Ġentre gas
ĠLa bora
vis to
para re
ĠAn im
Ġcer cano
Ġdol o
Ex pe
Ġhis p
dis ci
ser as
ĠMar ina
ĠMar zo
Ġaf lic
Ġdix isti
Ġtal entos
ĠFran ce
Ã¡ndo me
Ġmora le
Ġequi pos
Ġfide lidad
Ġqual che
Ġprincip alis
ĠChristi anis
Ġminis teri
ĠlÃŃ mite
Aqu ellos
Ġsepara da
Ġdeber Ã¡
Da ta
ps am
Ġdese an
Ġenti enda
Ġcomi eron
ĠMis ericor
ĠGra cias
Ġvend rÃ¡n
Ġdebi to
Ã©l gica
Ġaper uit
ĠDoc tor
Ġaccus e
Ġquanti tate
Ġignora r
Ġapare cer
Ġconsci ente
Ġdemas ia
ĠaÃ±a de
Ġprofes ores
Ġâ Ļ
Ġmanifesta ciÃ³n
Ġaequ ales
Ġopti me
ĠBene dictus
Ġtransgres sus
Ġcrim ina
Ġplen amente
ĠSÃŃ nodo
ĠCON DESA
Ġspe ciali
Ġacce der
Ġilum inaciÃ³n
Ġdific ultad
Ġdili gitur
Ġpoderos a
ĠMay or
orn adas
Quaes tio
Quaes tiones
Ġinfan til
Ġperspec tivas
ĠGeh ena
Ġreliqu erunt
Ġviver ra
Ġcelesti al
8 3
8 6
A do
C la
C ha
G Ã¡l
H E
U A
d ore
g ena
Ġe ven
Ġs s
on ces
Ġde pu
Ġde porte
ti var
us tum
Ġin tes
ÃŃ simos
Ġcon to
Ġdi rÃ©
Ġdi abo
Ġno vos
Ġg estiÃ³n
ca us
Ġal ba
Ġvi enes
ĠE pi
ĠP hil
Ġcu ras
tr on
ran tur
Ġto man
Ġto cÃ³
Ġpara ti
enta le
per as
Ġhab ens
ga ciones
Ġmis tero
Ġmis ion
Ġmu era
ĠÂ Ĺ
Ġpar tÃŃ
ĠN unc
Ġsus tenta
endi tur
Ġas pectu
Ġpre ces
Ġsol et
Ġta lia
ĠAl ma
Con tacta
gra s
Ġvol viendo
Ġcas ta
sim am
gui Ã³
Ġfaci les
Ġprim aria
Ġven turus
Ġsem el
Ġcomp imento
lic us
Ġexp rim
ĠLe w
Ġag am
Vi ve
Ġperfec tio
Ġej Ã©rcito
Ġdoc ere
dica ciÃ³n
Ġ7 5
Ġvia jar
Ġanti qui
Po de
Ġnes cit
Hab esne
Ġaf ric
Ġcondi tio
Ġmori untur
Ali as
Ġbus cado
Ġinfi ernos
Ġvuel tas
Post s
ĠHa cienda
Ġsalu tis
Ġdirec tor
Ġcompr ensiÃ³n
Ġdese ado
Ġbar ba
ĠÃģ l
Ġ198 8
Ġiusti tiae
Ġespera do
Ġrequi es
Ġlevan ta
Ġsuficiente mente
CA P
Ġtum ul
RI QUE
Ġabund an
Ġsomn ia
Ġmovim ientos
Ġconduc ta
Ġave va
Ġoblivi oni
Ġgrie gos
ĠpelÃŃ culas
ĠOn line
Ġinj usto
ĠDamas ceno
Sur ge
fon so
UB IA
tronom ÃŃa
ĠVILL AMAN
Ġabstra cto
Ġenve j
Ies us
Ġness uno
Ġimpara re
Ġdimen siones
Ġcorrispon de
Ġsouha ite
Ġobblig atori
ĠBreta Ã±a
ĠVILLAMAN RIQUE
? !
A f
A po
M erci
V S
a bi
e au
s Ã³lo
y r
Ġ zo
Ġe b
Ġe un
en is
Ġa deo
Ġa diÃ³s
Ġp iso
ta ris
Ġn it
is ir
Ġes perienza
Ġv ed
Ġv uoi
tu te
tu dines
Ġcon vic
Ġdi gnum
ĠA g
ĠA ir
Ġt in
ĠD ar
Ġsu orum
ol le
Ġre de
Ġre inado
Ġsi ga
ere o
Ġal qui
Ġvi cios
ĠP A
ch Ã¨
et um
ae qu
ae que
gn es
ora ble
ver tis
qui um
gi ano
ed era
Ġpos uisti
ĠT ib
tro p
Ġdis tan
Ġdis para
Ġson ido
ĠH ermanos
ces i
ces os
ĠÃ© galem
Ġfu ra
Cu ales
Ġsal mo
Ġsal ario
ĠEs piritu
Ġlu cem
Ġvo tos
Ġdeci dido
Ġaut enti
Ġins tin
Ġins Ã©rer
Ġconsi glio
Ġsac ro
Ar gum
Ġuni versa
gna to
Ġcrea da
Ġdon c
ula e
Ġess es
Ã§ os
Imp res
Ġvivi Ã³
Ġcontin uar
Ma teo
Ġele git
Ġul timum
Ġmes i
Compar til
int endo
Ġencuent ras
Ġfil Ã³sofos
Ġvoca ciÃ³n
ĠLib re
Ġcru cis
Ġcapi at
Ġequi li
Ġdal lo
ess or
Ġint ento
Ap oc
Ġsepara r
Ġclas i
Par ce
TI O
Ġ198 6
Ġcara c
Ġcorrup tos
Ġcred enti
ĠPra esta
Or den
Io annes
ĠNatura l
Ġextre mo
Ġapo y
Ġdiab olo
Nin guno
ĠEuropae ae
Ġdedica do
Ġsecre tum
Ġtriun f
Ġang usti
Ulti ma
Ġembara zo
Ġenfr enta
Encuent ra
Ġblasph em
Ġprofundi dad
ĠComp rar
Ġirreg ulari
ĠAlej andro
ĠON U
ĠArtic olo
ĠMercu rio
PÃ¡ ginas
poder oso
ĠÃ©galem ent
, ?
E va
L amenta
M ot
N as
P oco
T AS
a h
d ulo
m ala
m enes
n ing
Â Ĺ
Ä Ļ
Ġs at
Ġs pie
en ae
en zi
es per
es co
qu el
ta tus
Ġde o
Ġde tes
Ġde tener
is h
Ġf rum
di llas
ri mani
al te
Ġcon gres
Ġdi ac
ĠA pocali
Ġha ci
Ġha ud
Ġo yen
Ġsu pone
Ġre ge
bi durÃŃa
ĠC ri
ĠC rÃ©
Ġg rito
Ġper ecer
ĠI m
ĠI unio
ca o
ĠP P
lo ad
bra io
Ġ1 000
tan ia
tion a
Ġmi Ã©rcoles
El em
gi oni
Ġac udi
Ġres pectu
Ã¡n ico
Ġser vis
il ler
ĠT E
Ġau gu
De jar
ĠB it
Ġpar t
Ġpar ro
ĠG n
ĠG rie
ĠH il
ud ar
Ġaqu ae
Ġesta tu
Ġop posita
Ġvol ando
Ġve inte
Ġcam paÃ±a
Ġcomp asiÃ³n
Ġpres u
lic ante
pro f
cita ciÃ³n
lan tes
lec er
ĠSi guiente
tado ra
Ġhabi tant
ÃŃs ticos
Ġch acun
Ġcrea dos
tico li
ĠX V
ĠSan tiago
Ġsing ulis
To us
Ġli bras
Ma ior
Ġsuf re
Ġfr onte
Dic h
Ã¡ndo te
Ġcredi mus
Ġorden ador
ĠAm bi
Ġce ci
Ġce cidit
Ġ199 6
Ġrefer tur
Ġsalva do
ĠSo li
Ġpros per
Ġnomin ando
Tam poco
Ġconvi ene
Ġ198 7
Ġmagni tudine
Ġinde pend
Ġbre ves
Ġton tos
ĠLat ine
Ġocul ta
Ġtim ere
ĠJo an
Ġexcel encia
Ġcerte za
Ġpia cere
Ġgratu it
Ġprepara do
ĠvÃŃ ctimas
Ġapar tado
Ġrecha za
olÃ³ gicas
Mor tuus
Ġpreci oso
Ġrepeti tio
Ġmara villa
Ġsis temas
ĠcientÃŃ ficos
Ġmonta Ã±as
Ġdivor tium
Ġsosp ech
Ġoi go
errami enta
Ġservid ores
Ġsujet os
Ġcompet encia
Ġexpec tativas
ĠRuss ia
Ġcontex to
wn load
Ġcab all
Ġinteri tu
Ġsuici dio
Ceter um
vra i
ĠVILL ARR
Ġmusic al
Ġinvis ible
Caus am
Ġcontras se
Ġnorm alis
ĠAndre a
Ġsun tem
Ġcerve za
ĠVILLARR UBIA
A cu
A ux
E odem
M ari
O fer
O ptio
R esta
T esti
a v
f ue
m s
Ġ ÃŃ
Ġ xit
Ġs fu
os es
os taria
Ġa ventura
on y
Ġp ones
an ze
un tas
tu li
Ġin ver
ec ce
Ġcon tamos
Ġt Ã©
Ġre ad
Ġre gna
Ġqui ppe
Qu ed
ĠC he
Ġg all
ue bles
Ġb ara
Ġb eat
Ġvi tulum
Ġvi cioso
ĠP L
ĠP uer
Ġpro pa
Ġ1 20
tr ut
Ġpara do
Ġca po
gi as
Ġac cet
Ġma gnum
ĠL an
Ġj et
ĠB l
ĠB or
ĠB an
Ġali quet
ĠN uestra
ve dades
der Ã³n
Ġas om
Ġam bo
Ġcor dis
omn ia
ĠO raciÃ³n
vit er
Ġr ÃŃos
Se Ã±
isi on
Ġra gione
Ġve an
Ġfe o
for tuna
Ġverdad es
Ġcan es
Ġconsi gli
Ġhomin ibus
Ġpla to
Ġof recemos
Ġhabi tare
Ġterra rum
Ġva yas
Ġ6 9
Ġconf it
Ġescri biendo
bar os
Vi da
ĠCa val
Cor Ã¡n
Ġexis tit
Ã¨ te
Ġ8 2
Ġemp leo
Ġprima e
Ġscrip si
cipi te
Ġscri vo
ĠAm mon
Ġcivi lis
Ġtes tamentum
Ġtab la
ĠCu Ã¡ndo
Ġtradi cional
Ġsaluta ri
Ġhumil lado
Ġinterroga tiones
Ġcompr end
Inter roga
Ġmanif este
Ġcorpora li
Ġden uncia
Ġbe ve
Ġfiloso fi
ĠScrip turas
ĠRes puestas
ĠBa al
Ġvari e
Ġcorrec ciÃ³n
Ġmuta tiones
Ġimagin ar
Ġalta ria
Ġdiez mo
Au g
Ġcreat orem
Ġdep Ã³sito
Ġiudi cio
Ġimpres iÃ³n
Ġdecem bris
Ġmonas terio
unta miento
197 9
Ġgobern ador
UR L
Ġdro its
Ġfotogra fÃŃa
ĠdÃ©faut s
Ġmenda cium
Ġconsenti miento
Ġinvol uc
Ġprometi Ã³
Ġinjus tos
Ġpenit encia
Ġdesci ende
Ġincol arum
Ġpractic ar
Ġamena za
lioth eca
Ġresol ver
Ġconex iÃ³n
Ġseg uros
Ġnegas tis
ĠArmen ia
Ġoccas io
ï¬ ģ
Pur troppo
B en
F em
M ensa
O fferta
P elÃŃ
S enti
T us
a teur
d ini
j Ã³n
j uegos
r ina
s ar
Ġ !!!
Ġd ad
Ġs ina
es tu
Ġc Ã¡mara
ta tione
ci ca
ci era
Ġn Âº
is sa
re forma
do min
Ġf an
ri cas
Ġdi vid
Ġdi menti
Ã¡ bado
Ġest r
Ġno tae
ĠA ri
ĠD ES
ĠI unii
ĠS enza
ĠS pam
Ġcom pito
vi os
Ġb Ã¡r
Ġvi demus
ĠP ec
ĠP ho
ut in
Ġtu viera
Ġex cu
uer at
ver int
Ġca d
Ġac tivo
ga das
Ġmis sam
ĠR P
Ġmu ore
ĠV ocÃª
Ġdis pens
pon it
Ġfa cio
Ġtra tado
ĠH ac
ĠH oy
ĠJ unio
Ġinter ac
Ġimp rim
Ġfac cio
Ġpu de
sa ta
gra ciÃ³n
Ġu gu
ir Ã©e
Ġvol ut
Ġcas tell
Ġcar mina
man tur
Ġtemp lum
Ġpra eces
ui dad
Ġqua esi
Ġor dre
ĠCon tacto
ĠSe gura
Ġnoc tem
lar is
Di vertir
tel lo
ja te
Ġvide am
est Ã£o
Ġelec ta
Ġcul tu
Ġmar tedÃ¬
ĠPro pter
Ġbon s
Ġhan no
ĠNa zar
Ġvul putate
Ti empo
Ġ9 9
Ġcal lar
ĠSa Ãºl
Ġtrans for
Ġmer cen
Ġuti tur
Ġimpor te
Ġur bs
Ġconver ti
Ġsacerdo tum
Pues to
Ġmus icae
AR I
ĠPor tu
Ġloqu eretur
ĠHis tÃ³
Ġpan em
Ġperse gui
Ġsubi Ã³
Ġtem pi
Ġcl Ã¡sico
Ġamp lia
Ġcompr ende
Ġann ua
Ġterr oris
Ġconsec utus
Ġcara cter
Ġordin aria
Ġlum in
Ġhaeredi tate
Ġintra vit
ĠGener ales
Ġconsci entiae
Ġhal lado
Ġasi ento
Ġperdi dit
Ġinstrum entos
Ġparticip es
Ġbib lioteca
Ã©ndo lo
Ġjur ÃŃ
Sem alt
Ġlav ori
Ġnivel es
Ġperdon ar
Ġsubli me
Fra tres
Ġrecibi eron
Ġpersu ad
Person ne
Ġnove dades
Ġactri x
Ġpoderos os
Ġeduc ant
Ġnews letter
ĠversÃŃ culos
Ġglorifica vit
Ġacostumbra dos
Ġfrances a
uvel le
Ġadelan tado
ĠprohÃŃ be
Ġcontrovers ia
A A
E d
I psa
O di
S tu
Y O
b ando
m isiÃ³n
x isti
Ġs enato
es p
Ġde jas
Ġm aria
Ġin numera
ec ciÃ³n
Ġcon duce
Ġdi mi
Ġest Ã©s
it tÃł
el tÃł
ĠI ord
ĠS ar
Ġal muerzo
Ġlo bo
Ġlo gica
ĠP are
Ġpro des
pi ens
enti is
Es pa
mi da
gi i
Ġma dianitas
fi lia
Ġver te
Ġver Ã¡n
ga dor
Ġj ar
pe li
Ġson ora
po ur
Ġar co
ĠIn formaciÃ³n
Ġman um
Ġquam quam
Ġfu ero
ĠAl pes
Ġfor is
gra fia
Ġcar d
Ġbi rra
Ġra za
Ġfi glia
Ġmal decir
Ġor bem
Ġdeci diÃ³
Ġven ena
Ġven isti
Ġri guarda
Ġem ere
Ġdol orum
Ex per
gin es
Ġuni versidad
diam o
sion ibus
Ġsan tuario
Ġdecir le
ula re
ĠPa y
rit Ãł
ĠCom mis
Ġcui que
ĠSa turno
Po li
Ġreali zado
Ġmer ita
Pre fi
Ġcivi les
Ġdilig entia
onis io
Ġsepara ciÃ³n
CuÃ¡n ta
Ġtradi distis
ĠmÃ© ri
Ea que
Ġga to
Ġimper fecto
Ġmatutin um
Ġjuz gado
ĠNi hil
Ġaposto lica
ĠProp rio
Ġinim icus
mat eria
ĠMus ica
Luc as
Ġpremi os
Ġbib lio
ĠDia blo
Â¡Â¡ Â¡
cendi o
Ġbende cido
Ġmuni cipi
Ġperegr ina
Ġinoc entes
Ġorgani zaciÃ³n
TR OS
graph ia
Ġmultiplic amini
ĠUS A
Ġreb eli
Ġinvol un
Ġconflic to
ĠLen gua
Ġhistori am
Ġcong ru
ĠComment s
Mam ma
Ġsug ges
Ġcontem n
ĠPau li
ĠfranÃ§a is
Ġidio ta
Ġignomin ia
! '
C ito
C entro
E dad
F ir
G loria
H L
J ob
L lam
P oc
S ulla
U tinam
f s
g ant
s ement
Ġ <
Ġ ....
Ġd entium
Ġs ystÃ¨mes
en sionem
on dam
qu emos
ti ta
ti che
ci u
re bbe
Ġes tim
un dos
am es
tu din
Ġf lora
Ġno vas
ĠA ve
Ġre be
im por
Ġper tur
se gÃºn
ĠI S
Ġsi x
Ġpro fectus
Ġan ne
Ġex ilio
era do
Ġle a
Ã¡s ticos
Ġto me
tam ur
Ġser i
Ġser ia
ĠR od
ĠT esti
Ġsin tiÃ³
Ġso f
Ġcre as
Ġj efe
ĠV ita
Ġali um
Ġar ena
der ent
ĠÃ §
Ġfu iste
Ġinter rum
Ġdu pliciter
Ġdic endi
Ġr uso
Ġsec tor
par mia
Ġven tana
Di ri
vid ent
cita do
Ġpla cent
Ġfal tan
Ġdiv inam
Ġcer tam
Ġposs ono
Ġcel este
Ġinf antes
Ġconf unde
ĠCa te
ĠCa tilina
Ġaudi te
ĠPa ÃŃs
ing er
ĠX IV
Ġcontin git
Ġerr ore
cuent ro
ag ri
Ġescu che
Ġplan es
Ġsanc tum
ĠdÃ© c
Ġarti fici
Pa ulus
Ġvisi bile
inter l
ll ante
Ġhumil la
Ġcl eric
Sic que
Ġquaes tione
Ġapr ende
Ġpriva ta
Ġclar os
Ġregis trar
Ġdispon e
Ġinstitu ciones
Ġconsidera do
Ġconsidera ciÃ³n
Ġcultura le
Ġexperi encias
Mul tum
ĠÃ³ pera
ĠcuÃ¡n tas
ĠenseÃ± ar
ĠSoci edad
Ġtranqui la
ĠVal le
Ġsangu is
Ay uda
Ġsecund ario
Ġsecund aria
Ġ190 4
Ġepisco pus
ĠEu charistia
Intro ducciÃ³n
Ġincor rupti
Ġpou voir
ĠÃģn gel
ĠAut or
ĠRob erto
Iu lia
Ġty ran
Ġdiscri mina
Ġvulnera ti
cuÃ¡n to
Ġmezc la
Ġmanduca re
Ġfemen ino
Ġinvisi bilis
Ġtransfi xerunt
ecc lesia
Pet rus
Ġhomosex uales
Ġpoe tae
ĠCaesare m
Ġpesso as
Ġvolut pat
Divertir si
A si
C ru
D ime
J uegos
R eb
T ace
T emas
a ir
i lo
s peci
u ille
u istis
v ini
x iÃ³n
Ġs ene
es ia
Ġa rata
Ġde cet
ti z
Ġqu alem
Ġqu inoa
te os
tu c
Ġin da
Ġin ef
di ri
Ġcon mem
Ġse ver
Ġse pare
ĠA QUÃį
Ġun ico
Ġre voca
Ġqui ta
Qu erÃŃa
Ġper de
Ġnon a
ĠS ino
Ġme tro
Ġvi tia
Ġvi distis
ĠE z
ĠP ac
Ġpro lon
Ġte mo
ĠM ex
Ġex ag
Ġdes pla
Es pera
gu Ã©s
Ġca val
ĠL Ã¡
ina re
Ġver se
va da
ĠT ime
Ġsin u
vo la
Ġcre atum
Ġdis par
Ġfa cias
Ġcons ol
Si endo
ĠÃ ¦
tin e
Ġfu isti
Ġap preh
Ġinter no
Ġdu re
emp la
Ġmisericor diosos
Ġins ul
Ġins tant
Ġante ces
Ġcam is
Ġmin oris
Ġsab ÃŃan
lic Ã³
ĠRe gina
Ġcomenta ris
Ġinv ia
Ġem bria
Ġhabi do
As ia
Ġdif esa
Ġinf ancia
Ġreli quit
Rec uerdo
Ġdoc entes
Ġsta bili
Ġconsider an
Ġder ri
Ġgener oso
Ġconta to
Dis ci
Ġscri bis
ĠFa bio
Ġacer cÃ³
Ġsent Ã³
Ġpropi eta
ess ores
Ġapp ell
del es
Ġopor tuit
Om ne
Ġillum in
Ġcommun s
Ġcier tos
AL ES
Ġproposi tiones
Ġru ina
Ġterr eno
40 4
Ġlegi tima
Ġaper ire
Ġfacilis is
Ġdia gnos
Ġaus tra
Pla ceat
Fu ente
Ġexpe diciÃ³n
mÃ¡ tico
Ġarbit rio
Ġvid ent
Ġsuce dido
Ġdev ora
Ġom it
Ġescla vo
ĠBu enos
Ġsencil la
ĠEuropae a
Ġanci ano
Ġpoten cias
Ġcompon entes
Ġanun ciÃ³
Ġmaravil las
Ġterre moto
Ġextran jero
Ġattin et
Francis co
Ġcomba tir
ĠcÃ³n yu
Ġagrico lae
py right
Ġraccon to
Ġaim ent
Ġempez Ã³
Ġarmon ÃŃa
ĠespÃŃ ritus
Ġintima vit
Ġcontrasse gnati
Ġsfu ggire
. ?
D or
L en
M Ãºsica
O cta
P AR
P ellentesque
Z apatillas
h it
o h
t enti
Ġe van
Ġd abit
Ġa ch
Ġa fecta
on iae
Ġp echos
Ġde udas
Ġm und
Ġm Ã£
Ġv ano
tu oso
om inaciÃ³n
Ġla vissent
Ġen laces
Ã³ ticos
ec k
Ġcon tr
ic ana
ic orum
Ġo posiciÃ³n
Ġre torno
Qu anti
Qu anta
ĠE c
ĠP sic
ĠP DF
ĠM inotauro
Ġex or
Ġ1 19
ĠL ux
Ġver sion
ĠR em
ĠT el
ĠT ran
ab at
ĠB Ãºsqueda
ĠN ab
ĠG ro
ĠH am
Si amo
ces sa
Ġas oci
ita rio
ĠÃ Ĩ
ĠÃ© tica
Ġmo to
Ġta ce
Ġquid quam
Ġfor me
Ġfor mos
ĠO ro
Ġvol uerit
Ġcar itatem
Ġgra ta
man uel
Ġsa ppi
Ġmul titudo
par se
inci dunt
Com i
Com entario
Ġcomp lec
lar Ã³
vis te
usti tia
Ġhu ye
Ġsum o
tal gia
Ġhabi tar
Ġbene ficium
Ġexp elli
Ġprof e
Ġpon ti
cios os
Ġro ck
ĠCom isiÃ³n
Ġdo veri
Ġintel lex
gue z
Ġanti gÃ¼edad
Ġele vado
Ġaf fer
Ġestar ÃŃa
Ġris posto
ĠAs es
olog ica
Sal ut
ĠUni dad
Ġactu almente
Dic ho
git to
Ġur ban
pare ce
Ġcivi lizaciÃ³n
tÃ© rix
Ġexc lus
Ġprophe tam
Ġexer cere
Ġclas se
Sa tanÃ¡s
Ġbea ti
He u
ĠDes arrollo
Ġexist ÃŃa
Ġaca bado
Ġlegi oni
ĠMat th
Ġadministra ciÃ³n
Ġtrabaj adores
Ġarchi vo
Ġdescu bierto
ï¿½ .
Ġproce der
ĠSem alt
Ġcirc olo
pic ere
Ġsalud an
cen us
Ġvali ente
Jo hn
ĠPila tus
Ġspec tat
ĠBu en
Consi dera
Hu ius
Ġinici ar
Ġintellig it
Ġobiec tum
ĠGali lea
bur go
Ġpobre za
Ġacus ado
ĠDirec ciÃ³n
ĠPue blo
ĠAngel us
ĠAnd roid
Desc enditque
Conc lus
ĠNovi embre
intel lec
ĠCrea ciÃ³n
Ġsaluda ble
Ġrev elar
Ġdial ec
Ġdesideri um
ĠOrdin aria
Ġmodifica te
ĠmatemÃ¡ ticas
Pala bras
ĠDesi gn
Ġdilu vio
Lauda to
Ġdipl oma
ĠNervi i
ĠÃ§ a
Ġsappi amo
. âĢľ
H al
I mo
L S
M ara
N ic
R ab
d entia
f les
f Ã©r
g ul
l s
m ant
p uerto
t ho
v entus
Ġ ones
Ġe undem
er re
Ġd Ãº
Ġa Ã©
on ar
Ġc ero
ta ci
ti bi
Ġm ini
Ġn uda
li p
Ġin do
Ġin gi
Ġdi lex
Ã¡ rios
ĠA la
de zco
Ġsu ficientes
ol encia
Ġper ven
Ġper veni
ĠI G
ĠS uc
Ġb ÃŃ
Ġvi zioso
ĠP is
ĠP od
Ġpro greso
Ġpor te
Ġtu lit
Ġto p
Ãº an
Ġpo ca
qui as
Ġil ÃŃ
ab el
Un idad
ĠF uer
ĠF inali
Ġci garet
ius e
Ġtra to
Ġtra do
ĠIn dustri
Ġas al
Ġaqu as
Ġpre tium
ĠO ce
Ġab uelo
na ciÃ³n
pu gn
sim ae
Ġfi jo
Ġlu do
Ġve la
Ġentre gar
Ġcol ui
Ġbu ono
Ġmat ris
ĠAn ima
ĠRe gis
vid encia
ĠCh ina
OR ES
Ġveni at
Ġfra gi
Ġperson alidad
ok s
ĠMar tÃŃn
Ġba ptis
ĠNa tiones
bit os
Ġmil lia
Ġtrans it
Ġado ran
At tamen
Ġmer ce
Ġris ol
Ġilla e
Ġlin k
Dic ta
Ġgener ar
Ġsanc torum
Ġesper amos
bri um
Ġcat tivo
Ġmili ones
Ġhon ores
Ġinveni tur
Ġtor na
Ġexs pecto
Ġenti enden
Ġapr endido
Ġregis trado
Ġsubstan tiam
Ġorigin ales
Ġcorrup to
Ġinten si
Ġmuli eres
Ġigno rante
Ġcontac taremos
Ġrepro ducciÃ³n
Ġadvers arios
Ġases inato
ĠIu lio
Ġartic olo
Ġescla va
Ġnie gan
Ġgobern aban
Ġintelle go
cribir te
Ġservire bbe
Ġdeman de
ĠRab ba
Ġfalsi tas
ĠHon oris
Ġcoo per
Ġembara zada
prend re
nun quam
Ġtrabal ho
Ġimperi um
Ġcomporta miento
ĠPAR DOS
Artic olo
Ġasum ir
Ġestra tegia
Ġinspi raciÃ³n
Ġtabern ac
Ġingen io
Ġcentra l
Ġfres co
ĠContac t
ĠAmbros io
ĠMag dal
Ġfle tus
ĠparÃ¡ bola
âľ Ķ
Ġposter idad
Ġchoco late
ĠFlori da
Ġirregulari dades
B y
M adre
T unc
a ereo
b ae
c enta
f ras
p ico
r ero
w ard
} }
Ġ `
er vo
en um
en nes
qu entes
Ġde tra
Ġde fec
Ġm ensu
ci bus
is ons
Ġh all
Ġh erramientas
Ġin vit
Ġf us
Ġf ed
Ġen cer
ec unque
Ġcon ju
Ġdi fici
em en
Ã© u
ĠA ni
Ġt incidunt
Ġha remos
Ġre te
Ġqui tar
Qu el
ca zione
ĠS ÃĥO
ĠS pagna
ĠE jercicios
ĠP S
go ga
Ġpro ta
Ġex teriores
Ã± ez
cia dos
mi entras
Ġca elos
Ġma ta
ĠL ui
Ġau la
Ġcre atore
ĠÂ ©
ĠB au
ĠV ul
ĠV osotros
pon er
Ġpar v
Ġci tas
ĠG ua
ĠG ATOS
omin antur
ad min
Ġfa ut
ĠH y
ĠJ ose
Ġam ante
Ġpre t
Ġmo is
Ġap uesta
Ġinter ce
ĠO bama
ĠEs tre
fica re
Ġra tionalis
cion Ã³
Al lora
lis mo
por tes
Ġquo tidi
und amente
Ġante cess
Ġven is
Ġmin u
Ġat tend
Ġcol la
rim onium
Ġ5 9
ĠNo v
Ġdos is
Ġof fert
Â« Â¡
11 1
Pro phe
Ġfra tris
Ġsci ebat
Ġag endum
rar Ã¡n
Cor re
Ġba jado
ĠNa zaret
ing ton
ĠDa y
Ġerr Ã³n
Ġsta tus
via e
Ġfavor ita
Hab et
Mu riÃ³
Ġsom ente
Ġestu vieron
tori ales
ĠAd ventistas
Ġentra n
Ġpropi amente
Ġdilig encia
Ġref lexiÃ³n
Ġchi ama
blica to
ĠÃ¡ reas
Ġsepara do
Ġru ta
pri ma
Ġtota lidad
Ġ198 9
Ġhuman um
ĠMu y
Ġconclus io
Dio cesi
ĠFide i
Ġsigui Ã³
Ġsangu inem
Ġpie zas
Ġqueri da
vre z
ĠOm nia
ceper unt
Ġrecor rido
ĠCal derÃ³n
Ġdescri be
ĠPol ÃŃ
leo pat
NO ITE
ĠTri bunal
Ġstel le
quisi ciÃ³n
ĠVide bunt
ĠQuin to
ĠRed es
Ġdivor cio
ĠOccid ental
ordina ire
ĠLiber tad
ĠDO DOS
ĠReb ecca
Ġafir mar
ĠPompe yo
Ġoblivis ci
extra ordinaire
Impor tanza
Fam ilia
qual cuno
ĠSupre mo
cran ia
Ã©lÃ©char ger
iuse ppe
, [
, âĢ¦
? -
E A
V ari
a zione
c tum
m ales
o u
v enti
y amos
es tra
qu ens
ra re
in si
un te
Ġh erramienta
om bia
Ġin ac
ec as
Ġdi pend
Ġi a
it ra
Ġno bili
Ã³n icos
Ġre pos
ĠC R
ĠI D
ĠS un
ĠP RI
lo que
Ġpro bas
Ġpro dotti
ut rum
Ġte cho
et re
et ÃŃn
Ġex sis
pi am
Es tima
No tas
... ?
Ġac tÃº
enta ria
fi anza
ĠR oy
ĠR ich
ĠT an
Ġso bres
Ġcre encias
ĠF I
ĠB ara
ĠN uo
Ġtra va
ĠJ uda
cer em
des cendi
Ġop pres
Con ci
ir os
pu it
Ġsub di
Ġcas tra
Ġ3 00
Ġmal edi
Ġve Ã¡is
Ha bi
titu des
Ġaut ore
Ġri ce
ros os
uni one
Ġos cura
Re iciendis
Ġfal tas
ĠMa yo
Ġperson am
ĠLe vÃŃ
jar o
ĠPro duc
cip ue
Ġbon itate
Ġmedi as
Ġid circo
Ġiu venis
Imp ro
log gio
ĠX VIII
Ġmod elos
Ãª tres
Ġama bas
Ali quis
Ġbel eza
Ġposi tiva
Ġcap tura
ĠsÃ© cur
Ġsaber lo
Ġdilig unt
Ġhon orem
sal u
all er
Ġcompara r
olu ciones
Ġsir viÃ³
Ġllegar Ã¡
Ġsacram enti
Ġinstitu ciÃ³n
Ġth read
ĠCre do
Ġga y
Ġquali ter
Ġhor ror
Ġcogno vi
Ġterri bilis
Ġquanti tatis
ĠaÃ±a dir
Ã® m
Ġpal ma
Ġinqui eta
Ġprovid encia
Ġconfirma do
Ġdisposi tivos
ĠprÃ¡c ticas
Ġtribu laciÃ³n
ĠPonti ficia
ĠTur ismo
Ġcommuni onem
Ġescla vi
Ġaum entar
his toria
ĠSep tentri
Ġcandida tos
Ġsuel en
Ġrecomi enda
Ġcens ura
Adi pisci
ĠVis uales
Ġconsili i
Ġfen Ãªtres
ĠBur go
Ġdesci enden
Ġjudica bunt
Ġdig estiÃ³n
Ġsolid aridad
ĠConstan tino
ĠCore a
Ġdereli qu
ĠpÃ©r dida
ĠMit ty
Ġtarje ta
considera tio
ĠAÃ±a dido
Ġmad ru
: "
B ro
B et
C ae
F E
L im
R ac
R icerca
c rÃŃ
d di
h omin
m ura
n atus
p ÃŃa
t Ã¡n
t Ã©n
v ice
Ġs cias
Ġp elli
qu inas
Ġde ficit
ci ma
ci dades
te or
Ġv imos
tu ar
Ġin va
Ġin tÃ©
Ġf lum
Ġen tus
di entes
Ġre ch
ĠS up
Ġcom me
ĠP en
ĠP in
ĠP asiÃ³n
ch us
Ġtu yos
Ġdes titu
Ġcu ch
No va
tis tas
fi lo
ga te
Ġsin cera
Ġj acta
cu ola
ve is
In forma
ĠÃ ļ
Ġpre tende
Ġter ris
Ġter tiam
ob res
ob ern
lam iento
Ġfi ja
Ġvel is
Ġvel les
Ġcos tos
ĠCon diciones
Ġgen uf
Ġri conos
Ġcan Ã³nico
Ġpres entan
Ġvis io
lec e
Ex s
ĠMa j
Ar ma
Ġconf ÃŃa
Ġhe u
Ġbon itatis
Ġexis ta
log ia
Ġpopul ares
Ġconc ord
Ġcuer vos
Ġir se
Ġsur re
AN A
Hab rÃ¡
Ġsor pr
Ġsapi ens
Ġestu p
Ġcur su
EN CIA
Ġencuent re
Ġtar di
Ġviv ens
Ġequi dem
terio ra
Ġinfer ius
fo lio
Ġpraes entia
Ġvic e
Ġint ente
Ġref lexi
Ġvisi one
Tag s
Ġdej amos
Ġmanda vit
Ġdeber ÃŃas
ĠDes tino
Ġius sit
Ġobs cura
volu tion
Ġexper tus
Ġunivers ale
Ġaeter no
Ġhuman am
Ġhor to
Ġhor no
Ġexcel l
Ġcorrec tamente
hab ÃŃa
Ġnecesita ba
Ġcompar te
Ġnas ci
Ġasi gna
Ġsitua ciones
Ġdescri zione
Ġdesarro lla
Ġefec tivo
Ġmun us
Ġgenti l
Of ficia
uv res
Ġgobern ar
Ġsome tido
Ġsil entium
ĠDer echos
Ġcommenta ri
Ġabsolu te
Ġimperat or
Ġgover n
Escu cha
Ġulti mus
ĠcatÃ³ licos
ĠGala ad
Ġfidel es
Ġanuncia do
Ġrispet to
Ġcolabora ciÃ³n
Ġcoloc ar
Ġlog rÃ³
Ġstri dor
Prov inciae
ĠestÃº pido
Ġsuperflu o
ĠBla ck
Ġappropin qu
Ġaiutate mi
Ġabe jas
cou vrez
ĠÃĨ gy
5 00
A sim
A lex
D et
M ore
R os
S cis
T est
V t
V ea
g le
g entia
g gia
i vos
n ali
v olo
w ork
Ã Ĥ
er im
es ter
qu omodo
Ġc ant
Ġc ibus
Ġde cessit
ti empo
am bi
Ġh ero
Ġh inc
Ġin versiÃ³n
Ã³ gica
Ġcon versus
Ġdi ap
la di
Ġse di
ic s
ĠA ud
ĠA ires
Ġsu cc
Ġre tin
ĠC im
im parare
Ġg ar
se gu
ĠI psum
ĠP ot
ĠM ale
Ġex ca
Ġex tulisti
Ġcu rioso
Ġ1 15
enti or
Ã¡s icas
ur re
gu is
Ġto ti
Ġres ca
Ġpos ita
ĠL im
Ġmis a
va is
Ġj uicios
ĠF is
De bitis
Ġna to
Ġpar um
ĠIs las
Ġsus tento
ĠÃ© se
Ġfor titudo
Ġfac tores
Ġfac turus
gar es
ob er
Ġis lam
Ġu eni
ĠEs ther
Ġcontra sti
Ġpl uit
cion ista
Ġlu ces
Ġmal is
be di
Ġsem eti
Ġmin uti
Ġcol orat
Le e
Le g
Ex tra
Ġof recÃŃa
Ġdom en
Ġnum eris
Ġnum Ã©ro
As unto
ĠCar te
Des crip
Ġpe up
ĠLe yendo
Ġcel os
ĠDi es
ĠAr quitectura
Ġcomm erci
Ġabs tin
Ġdoc tora
Ġ9 6
Ġvivi ente
Ã©r date
Ġuti les
Ġum ana
mit er
Ġcondi cion
Ġindi visi
Ġdifer enci
Ġplan etas
Ġvoca bulario
Ġcomple jo
So gni
Ġsacerdo ti
Ġsanc tae
Ġcivi tatem
ĠQui ero
Ġstu dium
rimon ios
Ġsoli tario
AD OS
Ġcli quez
ĠPer pe
Ġbar cos
Ġcomer cio
ĠDis ciplina
Ġayuda do
Ġsacram entos
Ġ198 1
Ġdeli tos
Ġquali tas
Neces itas
ee ee
ĠPon tÃŃfice
Ġgan ancia
Ġvec tes
Us que
hab et
Ġintra t
Ġ197 0
ĠBo li
Ġperpetu um
Ġmisericordi oso
Ġcateg orÃŃas
ĠAqu ino
Min ima
Ġdud ar
Ġdiffic ultates
ĠDic cionario
Ġsatisfac ciÃ³n
Mus ica
Audi te
ĠDamas cenus
Ġreligios i
Ġdesta can
Ġcrede bant
resurrec tionem
Ġsujet s
Ġcatho lica
Direc ciÃ³n
Ġejer cer
Ġfuncion arios
Ġdog ma
Ġappel lantur
Ġansi edad
Ġspiri tum
ĠBab yl
americana ta
Ġada p
red emptionis
Ġsubs cribirse
Ġanzi ani
ĠMeri di
ĠCaval coli
leopat ra
! ]
A gra
C erra
G B
H O
H echos
I ÃĵN
L am
L ae
M S
N uestras
V ino
d enses
e amente
f titi
m elo
p atos
Ġe ucar
er pina
Ġd oni
Ġa ba
Ġa fer
Ġp il
Ġc ustos
ta ro
ta des
Ġm era
Ġm unda
Ġes que
Ġes par
Ġes uri
an chi
as per
Ġv entre
Ġla te
Ġcon mo
Ġcon tando
Ġdi Ã¡
Ġse que
Ġno tum
de us
Ġre ca
Ġre dem
ĠC O
ĠC OR
ter rÃ¡n
ĠI si
ĠP eri
Ġad esse
et s
Ġcu bre
tan tem
tas ti
ib lemente
Ġpara bol
ver ti
Ġca ÃŃdos
ens os
Ã¡n tica
ĠR u
ĠR am
ve te
ĠG enes
ad ro
Ġar quitectura
Ġtra duce
Ġtra dar
ĠH as
Ġsus ci
ĠIn tel
Ġsol ent
ĠAl um
ĠO cto
Ġab biamo
Ġter mine
ĠEs peci
Se gunda
tri ca
Quid am
lis es
Ġesto u
ĠSe Ã±
Ġven ÃŃa
Ġcomp licado
Ġcan ti
Re qui
Ġvir go
10 4
Ġcer titudine
ĠSi tio
Ġdom Ã©s
ĠW indows
Ġuni tas
Ġcel er
ĠDi eu
Ġora tore
Ġro ba
Ġcir cui
ĠCom paÃ±
ĠCom menta
Rec on
vel lo
Ġliber ar
Ġcal ce
Ma gni
Ġtrans fer
Po ftiti
Mu ch
Ġasc endere
Sal mo
Responder unt
Ġlin ks
Ġtur pis
Ġauxili ares
ple to
Ġscri ber
Ġvin cit
Ġform al
Ġdiver tente
Ġdefini tiones
Ġint endit
Ġchi esa
Ġ199 3
Ġrecon cili
Ġdeber ÃŃan
Ġtradi derunt
Inter net
Ġdivi di
anti dad
Ġutili tas
Ġutili zzare
Ġann uncia
AL I
ist entes
Ġencontra da
Ġsensi bus
Ġinstitu to
Neces ita
Ġescuch Ã³
Or dinem
Ġpromo ciÃ³n
ĠFrancis cus
Ġinstrum enta
trem um
Ġmons tra
Ġaequ um
ĠPub licado
Ġmutu am
Ġconcur so
ðŁ ĺ
Ġdiffic ultas
Ġilum ina
Ġinteg rum
Ġinsula e
ĠReli giÃ³n
Ġulti mi
Ġnove dad
Desc ende
Ġtrium ph
Ġabscon di
RÃ© seaux
Ġvehic ula
Ġensa yo
Ġtute la
ĠmÃ¡r tires
Esco ge
ĠAustra lia
Ġfirm amento
ĠIuli i
ĠPraes ent
Ġcastell ano
ĠFinali zar
- ,
C ita
F rases
H eb
M ER
N ome
P onte
S om
T Ãį
e la
h unt
n ar
p um
r ome
t one
z emos
Â ĵ
Ġa h
on io
in qui
ci i
ci mos
un ico
Ġv etus
Ġv orre
li tatis
om i
di oma
ec ta
Ġun itate
ĠD S
Ã³n imos
Ġsu pli
Ġre cipere
Qu ale
Ġg estion
ĠS ent
ĠS par
ue bas
tra ba
ĠP OR
lo ck
Ġan unci
Ġex tiende
enti arum
No t
bre os
Ġma jor
ĠL ac
ga li
du ro
Ġcre ÃŃ
ĠÂ ĵ
Ġar ru
ud ent
Ġpre di
Ġpre pa
Ġap Ã³stol
ĠEs co
Se uls
Ġgra dum
Ġgra vem
cion almente
Ġ3 60
Ġmal vados
ten go
Al c
Ġprop h
Ġven isset
Ġbu ona
gni dad
Ġos serva
Ġ5 2
An d
Ġju rat
ĠNo e
Ġnatura lem
Ġsac Ã³
Ġpat rio
alis ez
xim as
ĠEn er
ĠMa teo
Ġllam amos
gin ae
Ġaliqu anto
Ġaudi entes
Ġrep ent
Ġ7 8
Ġli gne
Ġesc en
Ġsor presa
Ġcondi cione
Ġtal enta
25 0
Ġvin ce
num quam
Ġpol lu
200 1
bri l
bol us
Red de
Ġexc lui
ĠCas tro
Ġtend encias
Quando que
eran cia
Ġdej ando
ll Ã³
Ġcl ub
Ġexcep ciones
Ġpasa ba
Ġexist entia
Ġcusto diam
Ġencontrar on
ĠPara dis
Ġexpres ar
Ġaccid ental
Ġmucha cha
Ġcri terios
Ãģ N
Ġdocum ent
Ġ197 3
Veni te
Ġphilosoph iae
Ġdetermina da
Ġvid endum
Ġloc ales
Ġestudi ante
Ġposses sio
ĠConse jos
cons ue
Ġrestitu i
Ġprogres ivamente
Ġprodu jo
Ġcruci ficado
Ġdetal le
Ġnave gar
Ori gen
Ora ciones
Ġresur rexit
zc amos
Ġgui da
Ġfini to
mul ti
ĠAca dem
Ġserm one
Ġpiens as
Consequ enter
Ġesco ger
ĠprÃŃn cipes
Ġinco epit
Ġza patos
Ġasegu ro
Ġdigi tal
ĠSocra tes
Ġ^ ^
Ġiniu riam
ĠpÃºblic os
imper atore
Tris te
Ġvisu alisez
Ġrius cite
ĠFranco gal
Ġfami glia
Appel ez
Ġugu ale
A bra
A lessandro
F un
G estiÃ³n
H es
L ire
P eric
P edi
P rÃ¡c
U D
a is
e da
m ette
v ul
Ġe ges
Ġs pre
Ġp eter
Ġde fer
re ligi
ar dus
Ġh orizon
do ras
ri qu
ri an
ec us
Ġcon jun
Ġse det
ul ce
bi mos
ter unt
ĠS A
Ġme tas
Ġvi Ã±a
tra bajo
ĠP eter
Ġad j
Ġpro cul
ut ros
dad as
ĠM eli
ĠM ys
ĠM auri
Ġdes am
tan i
Ġres pira
Ġver is
Ġver am
Ġver Ã¡s
Ġmis sion
ĠR esta
ĠR ub
tor nos
ĠF E
En contra
Ġpar dos
In tra
ĠÃ ĵ
Ġman siones
Ġfu turas
so y
Ġpers ua
ori es
Con diciones
Ġab uela
ne te
emp le
den ominantur
Ġtemp era
Ġmal di
ten da
Ġvo tum
je to
fic um
ĠSe i
Ġhacer te
Ġsem illas
Ġvis ual
vid ere
ĠÂ» ,
ex iste
lu ye
posi tionis
Ġva yan
Ġperfec te
Ġcomm uta
Ġtri ginta
Ġlab orem
Rec ord
Ġsenti rse
Ġvirtu tum
bat um
Ti tulo
Ġ7 7
Ġcal ore
Ġreligi onem
Ġsoci etatis
Ġpregun taron
Ġmer it
Ġencon tro
aris sima
Ġfil m
zza to
ĠIta que
Ġposi ciones
Ġform ando
Ġtes tis
Ġ0 3
menta ciÃ³n
Ġinforma zione
Ġcomun e
Ġaca dÃ©
Archi tecto
Ġlar gos
Ġdispon i
Ġencontra rÃ¡
Ġvend re
Ġmagni tud
Ã³m eno
Ġpermi tiÃ³
Ġbe bidas
Vis uali
icum que
ĠNi Ã±o
ĠPri va
Ġiniqui tas
Ġtr Ã¨s
ĠvÃŃ deos
Ġespec ula
Ġespec tÃ¡culo
Ġinven erunt
Ġspec tant
Ġambi ente
ĠEpisco pal
Ve amos
blic as
Ġtele visiÃ³n
Ġpereg rin
Ġpis cina
ĠIoan nem
ĠEsto y
Eli minar
Ġevangeli za
Ġexter na
Ġhumili tate
Ġdud um
Ġconfir mar
Ġguber nare
ĠFeli z
Ġbur la
Ġconcupisc entia
Ġrispon der
Ġcontat tarci
Ġcodi fica
Ã©ro es
Sex to
Ġerra re
Ġconfia rei
ĠDol ores
ĠAdministra ciÃ³n
Ġstipendi o
Ġagrico la
Ġresid encia
Ġcoment Ã¡rio
ĠClau dio
Ġvasta verunt
Aperi am
Ġequita tu
Ġdimenti care
Ġeducant que
Ġvenena tis
Asim ismo
B ol
C ine
D entro
M ente
c ciÃ³n
m ando
n in
s ere
v osotros
z y
Ġe min
Ġs torico
es os
Ġc ueva
Ġl lan
in gi
ti e
ti er
li mi
Ġla eta
Ġque lle
ÃŃ mica
ro que
Ġcon na
Ã¡ mica
la tae
ul li
Ġper dida
ĠI bi
ĠI ob
Ġvi vas
Ġpro chain
Ġex pro
Ġcu bri
pa da
tem Ã¡tica
ĠL O
ios am
Ġson risa
ĠJ eremÃŃas
Si tio
Ġlib eros
Ġap pare
Ġfac tura
Ġsal vas
ne a
sa tis
Ġmisericor dem
lis sima
Ġcos t
Ġvos tra
dic as
Ġins tancia
Ġven go
Ġip sis
Ġip sos
Ġpres entÃ³
ĠLa b
cis ti
Ġ5 1
gen tur
Ġvis ten
ĠRe ve
pro duc
Ġhabi li
Ġperson arum
Ar gent
ĠU so
ĠW ork
Ad ministra
Vi vir
Ġexis tim
Ġpare jas
Ġay un
Imp edit
Ġrela tione
Ġpossi det
cas a
var o
Ġho dierna
sit os
Ġdar te
Ġmem or
Ġw hatsapp
ĠâĢĶ Â¿
Cur sos
Ġsex us
Dis tribu
Ġcora ggio
Ġdebe tur
Pub blicato
Mar ca
Ġhaber ent
Post quam
ĠAc tuali
Ġmira das
Ġreg im
inter roga
Ġcompr ome
Ġdivi tias
col tura
quo i
Ġunivers alis
ĠGra cia
Ġleer lo
Car los
ĠChi le
ĠSim e
ĠSim Ã³n
Ġprogra mas
vim iento
Ġcred endum
mu chas
ĠNum ero
Fu ga
Pu tas
lexi one
roso ft
Ġimi tar
Ġinmor talidad
Ġscel eris
Ġadolesc ente
Ã©ra le
Ġheri dos
Ġpuni ri
Ġgrave dad
Ġcael is
DÃ© couvrez
isten za
Ġsigna tae
ĠhistÃ³ rico
Ġaedifica ta
Isa ÃŃas
Ġalimenta ciÃ³n
Ġartis tas
Ġincer ta
Ġprocura tor
oooooooo oooooooo
Ġarg ento
ĠBea ti
Ġarrepenti miento
Ġperspec tiva
Ġsorprender Ã©is
Quer emos
glis h
Ġconfusi one
Ġfeb braio
ĠAmi gos
ĠPros erpina
Ġobse derunt
Ġservitu tem
Excep turi
Convi Ã©r
Ġaccom mo
ĠhuÃ©rf anos
Ġatar decer
ĠÃģl bum
Ġaccet tare
Odi amos
agri coltura
H ec
I ON
O pti
V as
X IV
e vi
f um
g imen
m ÃŃ
n osotros
t ones
v viso
w o
Ġ Å
Ġs tor
Ġs ese
Ġc lo
Ġl is
re y
Ġin so
Ġen fa
ri fica
Ġque dam
Ġi t
Ġno lu
ĠA mar
Ġo derunt
Ġre tÃ³rica
Ġper dedor
Ġvi cio
ĠE ius
ĠE terno
Ġad uer
lo y
Ġpro d
Ġpro fer
Ġan illo
et ros
cia te
Ġmi rum
ba ta
mi us
El las
Ġres istere
Ġser lo
ĠR m
Ġna ture
ĠB Ã©lgica
ĠV eritas
ĠG RA
In vesti
los os
der at
der ant
Ġas untos
Ġsol dado
con oci
Ġfu rioso
gun os
ĠO h
ne i
Ġpu tatis
Ġpas aron
Ġpas sionem
oni i
zi ale
Ġsub je
Se xta
Ġus ado
ten os
uc os
rec ensere
Ġrespon di
Ġem borra
Ġdiv inos
ex istere
Ġveni da
eta tibus
Ġcel ular
Ġdeb ba
veni do
Ġescri ba
ĠCa ff
Ġtri to
Ġtri go
Ġro bar
rum an
Ġay ude
Ġcognos ci
Ti erra
cel ebra
Ġcontin ue
erat or
Ġfun dador
Ġpregun tan
Ġcambi ado
Ãª me
Ġconoci Ã³
Ġquer Ã©is
Ġprae ci
Ġlon gum
Ġcivi tas
Ġpens ado
Ġspeci alis
Ġamici zia
ĠNe go
Bu ena
For tuna
Ġcono zca
ggi ore
Ġcompr endi
His torias
Ġbar co
Ġaca bÃ³
Ġru ido
Ġconce da
Ġ198 5
Ġomnipot ente
Ġlum inos
Ġfundam entum
Ġadministra teurs
Quin ta
Ġprud ente
Ġadul ti
Ġvolver Ã¡
Ġvolver Ã¡n
Ġev entus
ĠNi lo
Ġdeclara ciÃ³n
Ġnas cuntur
Ġsigui endo
Ġmai ore
Ġcorri ente
Ġcorri gere
Ġproxim i
Ġoccid ental
ĠGreg ori
Ġindividu o
Li vre
Fo tos
Ġpuni re
Ġproteg ant
Ġcuad ro
Ġafirma ciÃ³n
ĠEsta tal
Cara cterÃŃsticas
Ġretribu ciÃ³n
Ġferi as
Ġpubblica to
Ġalco ol
Ġexam en
Ġsatisfec ho
Ġtraduc tion
Ima gen
Tes eo
Ġapelli dos
Ġreb elar
princi pio
Ġcompro bar
ĠHu go
Ġsobr ino
Ġparlam enti
glis e
ĠEcclesi am
Ġdescans ar
ĠPO UR
ĠAS HL
Ġleal tad
Ġgobi erna
ĠMedic ina
ĠSet tembre
edr ÃŃo
Ġimbe cil
vertis sement
ĠASHL ING
A bo
F e
G uerra
H or
J anuariis
M uerte
O bras
c ari
d ala
i go
l ere
n n
p ino
u os
v ri
v ame
z amientos
Ġs cam
ti za
ti tia
Ġm usa
Ġes erci
an cias
an ni
Ġv ara
tu lus
Ġin ce
Ġin hum
Ġf Ã³r
al go
ĠA si
Ġo dor
se a
ent or
vi vencia
Ġvi atoris
ĠP om
Ġpro u
Ġdes as
Ġcu ore
ur sos
gu ae
No bis
Ġpo ema
Ġpo eti
Ġca eles
gi at
Ġver sioni
ĠT re
ab s
ĠF ebrero
En lace
De bes
ĠB ona
Ġdis tribui
ad ra
Ġar s
Ġtra ÃŃdo
Ġcons oli
tin as
Ġpre ghi
Ġap licar
ru gua
Ġter tium
Por tada
Ġis tuc
fica dos
fica ciones
Ġpl ene
Ġfi duci
Ġvo la
Ġpi u
Ġfaci emus
fic es
Ġins tanti
Il lud
Com para
Ġmin ha
Ġcan tus
Ġpres i
An Ã¡lisis
gen io
Ġfin it
Ġinv entado
Ġfal la
Ġsum mo
gan os
Ġperson nes
ĠDi gi
ĠPro fes
Ġsci at
Ġves ter
Ġess endi
ĠX IX
Ġconfi do
quier en
Ġfun cionario
Ġnes cis
nes s
Ġmer ces
sit es
Ġgenera tiones
Ãª t
fa cit
lin ks
Ġscrip sisti
Dic es
Ver siÃ³n
ĠMe jores
Ġbas es
Ġpraes id
Pa ul
Ġtab las
Ġspeci ei
Ġgi ra
Ġexc lam
ĠlÃŃ qui
char isti
Ġguar dia
Ġtor n
Ġtradi dit
Bu enos
col as
ĠDis curso
Ġencontrar Ã¡s
Ġconce dido
Ġauto mÃ³vil
Ġ198 4
Ġmagni fic
ĠFili um
Ġsep tentri
Ġton ta
Ġinten ciones
Ġconos co
ĠOri ental
Ġrepro bi
ĠVal ent
Ġquanti tatem
Ġignora re
Ġ196 3
Ġimagin es
Ġconfes sus
Ġala bar
ĠIu lia
Ġprovid entia
Ġvidi mus
Ġdescri bir
Ġespec ÃŃ
elu ya
mal ink
Ġlun ae
Ġdesider ia
Ġgau dium
Ġcerra r
Ġcerra das
Ġcandida to
Ġcumple aÃ±os
Ġsuces iÃ³n
Uti li
Ġcook ie
Ġocto bre
Ġdex timos
Ġacusa ciones
CION ES
Ġefica cia
Pers ona
Ġbapti za
Ġextendi Ã³
ĠPentecos tÃ©s
Ġebri i
ĠFern ando
Supon go
uille z
Ġgenuf lexione
! ).
B is
C T
G lossa
I L
L istado
O rar
S os
U l
X III
b Ã³n
b lan
d aron
m Ã³n
p lu
s ero
s ico
u co
Ġd Ã¨s
Ġs po
os to
Ġa os
Ġa ten
Ġa zar
Ġa pete
Ġp utes
Ġc esar
Ġc Ã¡li
Ġl ici
Ġde vas
Ġde disti
as t
ar tic
am ing
Ġf ores
Ġla eti
Ġen de
ÃŃ bal
al ec
Ġdi les
Ġdi alogo
Ġse zione
ĠA licante
Ġun itatem
Ġsu cio
ol tÃł
bi lium
ĠC res
ĠC ed
ĠC ine
ĠC Ã³digo
Ġme zzi
Ġcom positum
vi erte
Ġlo bos
Ġad dere
ut Ã©
ĠM ed
Ġdes mi
Ġti ende
mi dad
Ġto ll
ver n
ver no
Ġma iora
Ġres eÃ±a
ens ura
Ġpos uerunt
co vi
Ã¡n donos
ĠR ÃŃo
ĠR ap
Ġau fert
ĠF eria
pe z
ĠB et
Ġpar la
ĠG ir
Ġcons tantes
Ġlib ris
Ġfu issent
Ġcor rum
Ġap Ã³stoles
Ġco gna
Ġne cio
ĠAl ba
Ġfor za
Ġfor nica
Ġimp lic
Ġimp uestos
Ġob tuvo
Ġop positum
Con tro
Ġab ur
eri i
eb unt
Ġu traque
Ġpl erumque
Ġsa bido
Ġten et
Ġra di
Ġra ga
lis ta
Ġgen io
Ġins pec
Ġcomp asivo
vis tas
Ġpod rÃŃas
ĠRe forma
Ġ/ /
Ġmenti enteis
gnos ce
Pro ducciÃ³n
hora buena
Ġfra ude
Ġsuper ant
Ġuni versum
ĠDi onisio
Ġcomm er
Ġmedi das
Ġcui dados
Ġcognos cunt
Ti pos
Ġpuer to
Ġ7 2
Ġcal am
Ġado rado
AN O
ĠPat res
Ġencon trÃ©
Ġori ental
terior mente
Ġvolun tarios
Ġef ficit
Ġ' '
Sal va
Ġcorp ori
Ġmori etur
ern um
ple x
Ġbel lica
Ãºm eros
Ġcredi tis
Ġinterro gas
Ġgi gantes
Ġdefini tivamente
Ġref rig
IN E
ĠSo vie
Ġproba re
Ġtor rentes
Ġdubi to
ĠCi encia
Ġaiu terÃł
Ġconsum ma
elli do
ĠTes tamentum
Ġ198 0
Ġordin ario
Ġconos ce
Lu k
Ġcontemp or
ĠPra eterea
Ġgal lo
Fi des
Ġconcu b
Ġperdi endo
Ġsp em
Ġintelec to
ĠCul to
Ġemo ciÃ³n
Lle va
Ġabandon ado
Ġhones to
Ġspe dizione
pol is
Ġanimali bus
ĠEsa Ãº
ĠMem bri
Ġfotogra fÃŃas
Ġpauper es
Ġnem ico
Ġartis ta
Ġintelligi bile
Ġdespe jado
Ġconclusi one
Encuent ro
Ġgla di
Ġlacri mis
ĠReb eca
Ġingra to
Ġderro ta
ĠInfer no
ĠYah vÃ©
pudi andae
ĠProyec to
ĠOf fice
ĠEnc yc
ĠprÃ© fÃ©r
Ġdissol utum
Ġrecuper ar
ĠDoctora do
Ġcittad ino
Ġconcor dia
Ġalb edrÃŃo
Ġluc rum
Ġeta pa
Ġtraspas aron
Ãīs tos
ĠincrÃ© dulos
ĠLink s
Ġrelo j
ĠCalifor nia
Ġdiabo li
Ġprodes se
Ġmerce dem
A che
B er
B asta
E am
G R
H ermanos
J unto
R en
S y
S pes
T r
V enta
V enit
a ti
c ant
d ÃŃas
h al
k in
p em
p ala
p ing
p lemente
s enti
s olo
u Ã©
u Ã±a
w i
Ġ ).
Ġa postÃ³
qu ÃŃas
Ġm s
Ġqu ing
Ġes itate
us ter
Ġv Ãª
tu vieron
Ġf lexi
Ġla dos
Ġen vol
di oso
ri orum
Ġet h
Ġdi la
Ġi ti
Ġi rÃ¡
Ġse gue
ĠA cu
Ġun en
Ġre za
Qu and
ĠC usto
ĠC entra
im ientos
se u
Ġnon nul
ter que
ĠS U
vi ano
Ġal tas
Ġad onde
si l
Ġpor terÃł
od us
oc ca
gu era
Ãº blico
Ġca za
Ġma g
Ġhab itÃ³
ĠL ea
ĠL ex
Ġver Ã¡
Ġser vit
Ġsin gula
Ġau distis
Ġna vem
Ġfa isons
ĠJ unior
cul pa
con di
Ġfu turi
so ciaciÃ³n
Ġimp re
Ġop pro
Con tenido
fec ti
Ġpu tant
gra phi
Ġpas arÃ¡
ĠEs ter
Ġfi eret
Ġlu pi
ten za
ber t
ĠIsrael em
dic ciÃ³n
Ġins u
Ġven ia
Ġcan tan
Ġcan tat
ni de
ĠY as
Ġpres a
Ġpres um
Ġju in
asi ones
Ġnatura s
ha bili
Ġcer tamen
Ġhabi tuales
Ġconse gu
Pro vident
Ġveni te
Ġpon dus
Ġisra elÃŃ
Ġbon is
Ġleg ales
Ġves tem
Ġba Ã±an
Ġess entiae
Ġ8 4
ensi va
Ġvivi endas
Ġcontin et
ĠSa ba
Ġtrans porte
Ġreali ter
âĢĶ Â¡
Ġcambi emos
Ġgenera to
Ġasc endi
Ġw orld
Ġdies tra
lin es
aris eos
Ġviv at
ĠNon ne
Ver ba
Ã¡ndo los
ĠdÃ© ficit
Ġconstitu unt
Ġpraes crip
ĠJu lia
Ġadi mp
Ġdiver se
Ġigu almente
ez an
Ġcont entus
Ġvic ini
Ġperse guir
ie cit
Pri mi
Ġ199 1
Ġ199 4
Ġexplica ciones
Ġsalu ti
Ġhon ora
Ġreg alo
Ġguar dan
Ġdiri giÃ³
Ġobedi entia
Ġconsecu ti
Ġcasti gar
ĠCo ok
Ġexist entes
Ġalcan zÃ³
ĠCan adÃ¡
Chi ede
Ġserva re
ĠEst ne
Mat eri
ĠLat in
Quin di
Ġmuli erem
fu era
Ġnul lus
Ġcogi tavit
Ġrequi ritur
Pod rÃŃas
Ġenga Ã±a
Ġcred ant
Ġconven cer
Sab emos
Ġenc antÃ³
ĠSy ria
Sol uta
Ġconi ec
Ġpeligros a
Ġstes sa
Ġecclesia e
Ġacom paÃ±a
Sem per
Ġsy na
Ġmutu amente
Ġabandon ar
Tex tos
Ġinsta laciones
ĠhistÃ³ rica
Ġexerci tus
ĠForma ciÃ³n
zion ali
Ġmascul ina
LinkedIn Correo
Ġrapi damente
Ulti mo
Ġnovis simo
Ġcodi ficaciÃ³n
ĠðŁ ĺ
Ġsuscipi endum
Ġapri re
Ġdiscul pas
Ġblo que
Ġpho tograph
Ġpropos uit
illi am
Ġdomici lio
Ġeconom ÃŃa
Ġincrem entum
Ġcognovis tis
bl r
Ġdesob edi
Amar Ã¡s
Ġegip cios
onta de
Opini Ã³n
gnam enti
locu tio
Ġeligi Ã³
Ġchius i
Mot s
Impro vviso
ĠCarte ia
Ġcircui tu
Ġeges tas
Chiede te
A tra
D ÃŃ
D atos
E O
F Ã¡cil
M ille
O cc
R P
V C
V ÃŃ
c las
c endit
d le
d ono
h ui
m ari
p pus
r Ã²
s Ã©
v s
Â ¨
ï ĥ
os us
Ġde dos
Ġde ud
Ġm m
Ġm onito
re direc
Ġes pi
te ga
om ba
Ġen vÃŃ
ri ce
Ġdi fi
Ã¡ vez
Ġest ri
Ġre mit
Ġre vista
res se
Ġper ju
se gnamenti
ĠS oc
Ġpa is
Ġcom unidades
vi ente
Ġb Ã¡sico
ĠE cc
Ġad venit
ut on
Ġtu tum
Ġex pi
Ġdes van
Ġcu entos
era to
La udes
ora l
Ġca en
ĠL IB
Ã¡n tico
il Ãł
ĠT em
ĠT odas
Ġmu o
Ġcre adores
ene vo
pe la
ĠV all
Ġdis pensa
Ġdis cessit
Ġali ento
Ġpar to
Ġsus pic
Ġam icae
Ġsol is
Ġsol ar
con se
Ġcor so
Ġquid quid
Ġdu i
Ġne gat
Ġpers ec
Ġdic ent
ĠAl do
ĠâĢľ .
Ġpu ente
âĢĿ. [
Ġis tud
Ġgra titud
âĢ¦ ?
Ġpra tica
Ġvo lare
Ġoc cidit
min us
Ġer Ã³ticos
Ġcam mino
Ġlle vas
Re ver
Re pudiandae
Ġinv enti
Ġinv ento
10 6
As petta
Ġexp lÃŃ
OR A
Ġmar itum
ho la
Ġim bra
Ġ6 1
Ġag res
Vi v
Ġro bus
eat ro
Ġvul tus
Ġ7 4
Ġvivi entes
Ġaf ligi
Ġori gine
Ġescu cho
Ġcur rÃŃ
tim amente
Ġsex uales
Ġsuscita uerunt
stan t
Ġsimili a
Ġce do
Ãī xodo
Ġciudad ano
Ġayud an
tec ciÃ³n
tec ture
Ġdesper di
ced entes
Ġrecon o
Ġpros sima
cula e
ĠmÃ© dica
ĠmÃ© rito
ĠmÃ© todos
Ġproces os
Ġsalv us
Ġrecom end
Ġdiffer entiae
Ġalcan zado
Ġden unci
Ġale a
Ã©l ulas
Ġpoli ticae
Ġev enti
Ġcabe zas
Ġproce den
ĠSac ramento
Ġases ino
Ġrecor rer
Ġadora mos
Ġsp Ã©
Ġponer le
Ġintelig entes
Ġdiversi tas
ĠPla y
Ġmane jo
Ġcolum nas
ĠMer cedes
ĠBi anchi
Faci le
Ġregres ar
Ġprome dio
Ori gin
ĠVide os
Ġlad ro
Ġsome tidos
Ġobed ece
ĠDamas co
Ġcurios idad
ĠServi cio
Ġmanifes tum
Ġlega tur
Ġrispon dano
Lat ino
Visita dlo
Ġviola ciÃ³n
Mem oria
Ġtiran ÃŃa
Ġautori dades
ĠTodo poderoso
Ġguardar Ã¡s
ĠAbra mo
Ġepisto la
Ġarb ores
Ġemple ados
Mant en
ĠCana da
Ġmobili tÃ©
Ġnac en
ĠEconom ÃŃa
Ġfoed eris
Ġschol am
ĠVec chio
Univers itÃ©
Ġinterp ellat
ĠrÃ©alis ations
Ġtas a
Explica bo
Labor iosam
itra tto
ĠsÃ©cur isÃ©s
consue tudine
Hes ÃŃodo
Ġcodifica zione
Ġpreghi era
ĠYas enevo
C aso
C lique
E rant
G er
G io
I gn
N uo
T emos
U ma
V an
V Ã©ase
[ âĢ¦]
c ante
c ole
d ella
f un
g erunt
g iae
h ones
i f
l eres
p pa
r eras
Â ħ
Ġe cc
Ġa fecto
on ÃŃa
on ysi
qu asi
ra e
in to
in da
ti ques
Ġqu um
te ar
Ã³ la
ec am
em ini
Ã© ano
Ġse Ã¡is
Ġo ce
Ġsu lle
Ġre gu
Ġqui tado
ĠC V
ĠC fr
Ġg entium
Ġper tina
Ġper malink
ĠS Ã³lo
ue Ã±o
Ġb isogna
Ġal li
Ġvi entre
Ġpro vi
Ġpro tecto
ac em
Ġte mos
Ġdes menti
Ġcu antas
cia re
mi d
Ġto utes
Ġpara vi
Ġca du
Ġres tat
co in
ĠT est
ĠT ruman
ris as
ab ant
Ġna u
ĠB Ã¡sico
ĠV id
ĠN A
Ġci bi
po te
Ġar cu
Ġfa una
Ġtra jo
ĠH ob
ĠJ an
Ġpri oridad
Ġas im
Ġas pet
Ġman giano
Ġpre val
Ġpre mia
Ġcor ro
Ġcor tes
Ġesta d
Ġimp ar
Ġimp ÃŃo
Ġop uestos
Con tacto
Ġsal to
Ġsal ga
Ġab ismo
Ġcar pe
Ġcar men
fica da
Ġgus tos
den uo
Ġtemp or
Ġlu cra
Ġlu ctus
ven ue
âĢ¦ âĢ¦
cum pli
por to
ge la
Ġpi diendo
Ġbien venida
dic ta
Ġat ender
Ġlle gando
Di ana
Ġju rar
Ġju gando
ĠNo ta
Ġcer em
Ġcul pae
mon io
ĠLe g
jar on
Ġch oses
ĠPro grama
Ġconf us
Ġba jÃ³
Ã¨ tes
Ġcui da
ensi ble
Ġdoc ens
Ġmod er
Ã©r citos
Ġerr orem
Ġtrans cur
Hab Ã©is
ĠPat rimonio
Ġris or
Ġef fectu
Ġesc or
Ġconoci mientos
Ġur nas
Ġpad rone
Ġcredi tur
Ġextra ter
ares ma
Ġceter os
Ġtes tamenti
Ġae gro
pere t
val uaciÃ³n
ĠZ el
emi um
Ġnov us
ced ente
Ġcommun ity
Ġdiri gir
Ġdiri gido
Ġanterior mente
Ġhumil laciÃ³n
Ġdij iste
ĠCi ertamente
ĠDes de
Ġhubi eran
Sunt ne
EL I
ĠDis ney
Ġmagn ÃŃfica
cam bi
Ġhos tes
Ġale ja
Ġlegi on
Ġvac anze
Ġfiloso fo
Ġlleva ba
cre do
Ġaccus atus
Ġdescu ento
Ġrepro bos
ĠMon tes
Ġvigi lia
Ġperi Ã³
Ġtoma te
Ġputa in
ty le
ĠPla tÃ³n
Ġfrater na
Ġcoe ur
ĠConci lium
Ġgau deo
Ġlogra do
Ġdecep ciÃ³n
Ġconiu gio
ĠGali lae
Ġsatisfac er
Ġindustri al
Ġsegui da
Sta i
Ġdescrip tio
ĠVo z
TwitterFacebook Correo
Ġscho lae
Ġllu vias
ĠSant ÃŃsimo
Ġlaud antium
Ġdesidera re
ĠPhara o
Ġhomici dio
Ġrecomenda ble
Ġreperi bile
Ġconclusi onem
Ġacceper unt
Ġexalta bitur
ĠGala tas
Ġapri le
Ġmur mura
ÂĶ .
Ġretor ica
Ġdise Ã±
ĠAngli ae
Ġarm ario
ĠSina ÃŃ
ĠCateg oria
Resulta dos
Ġbeso in
Quibus dam
ĠOmnipot ente
Cambi ar
Ġcontum eli
ĠAvan zada
Ġaggi or
Ġrepraes enta
Ġequili brio
ĠLÃ¡ zaro
redirec cionado
- Â¡
C res
C ali
C ola
C ER
C fr
E volu
F re
G iu
H Ã¡
I us
I psi
L ista
M uni
S ala
V edi
e am
f ÃŃ
g lo
m eras
t endo
v ed
v ÃŃo
x um
Ġe man
Ġs enta
en ar
en hum
en nium
es paÃ±ol
Ġa Ã±
Ġc ra
Ġc Ã©
Ġc ale
Ġde ba
Ġn uit
re al
te le
Ġh em
li am
Ġf rÃ¡
Ġen uncia
Ġdi aria
Ġest ric
ĠA bo
ĠA men
Ġt rec
de termina
Ġo ficinas
Ġsu us
Qu este
ĠS au
Ġcom am
Ġsi quidem
Ġal ar
ĠP erman
ch en
Ġpro i
Ġpro pone
ĠM A
ĠM ala
ĠM essa
ĠDe inde
Ġmi res
ba da
pa ti
No tre
per ent
per tura
Ġhab rÃŃan
Ġil s
Ġser van
ĠT ob
Ġmu ri
En seÃ±
tar la
ĠV eter
Ġdis ces
Ġut roque
ĠG entes
Ġsus pici
Ġ" ,
Ġquam diu
Ġpre ma
Ġpre zzo
Ġpre destina
con f
con sis
Ġco el
Ġta c
Ġinter dite
Ġinter venciÃ³n
hi lo
eli o
ĠAl cal
Ġfor tis
Ġfor ja
Ġvol um
ena je
Ġsub ordina
Ġsed ere
Ġus ur
Ġpl as
man era
Ġra tÃ³n
Ġda ca
Ġlu oghi
Ġmul titudine
Ġvel ho
Ġrec ensere
Ġfuer ant
ĠCon fes
Ġbien nio
dic ens
uc ÃŃa
Com enta
Ġcomp ul
Ġcomp lica
Ġ? ??
Ġsit us
Di ferencia
Ġpres ta
van ta
ĠAn terior
cita tis
Ġof recen
Pro va
Des arrollo
Ġmen ciona
Ar te
Ġnoso tras
Ġpon ga
Ġconf ÃŃan
Ġag unt
Ġleg atus
Ġparti elle
Ġdo p
ĠNa da
Ġrep r
Ġ7 1
To tum
Ġdistin cta
ya ge
su ffici
Ġval ere
Ġreali zÃ³
ag es
Hab es
Ġsingular es
ĠSal am
Ġesc olar
entis simo
Ġlin das
Dic endum
Ġgener almente
Ġgener Ã²
So ppor
ye z
Mar co
teri i
Ġtro pas
ĠAp ollo
Ġpecc atorum
Ġpan talla
Ġedi ciones
Ġnomin is
Ġdij era
Ġamp lio
Ġdormi do
TI ON
dici tur
Ġsalv ator
ĠrÃ© gimen
Ġtrata ba
Ġperic olo
Ġsup positum
Ġsos tiene
Mat eria
Ġevi dencias
cipa ciÃ³n
Ġlevan tado
ĠenseÃ± ado
Ġev ac
Ġrepro duction
Ġpulch ritu
Ġpulch rum
ĠTer ri
Ġdob biamo
ĠAli cia
Ġ196 8
Verum tamen
Ġmaes tra
Ġiudi ces
ĠAmeric ae
Ġignoran tes
Ġmanifesta do
ĠPers on
Ġpreci sa
Ġheri das
Ġpose en
ĠMor te
Ġ190 1
Ġcostum bres
ĠEmp erador
Ġventa ja
ĠsÃ¡ bados
Ġagu an
ĠcrÃŃ menes
Ġscon fit
erar quÃŃa
Ġintegra l
ĠTar de
ĠReli gi
ĠMora l
Ġcogita tiones
__ __
aqu ÃŃ
Ġrobo t
Ġeno jo
ĠRuss iae
xx xx
Ã¡ma ras
Ġestadouni denses
Ġtag ged
Nul lam
Pers piciatis
Ġcic lo
ĠVisi tas
fortun adamente
ĠProme teo
Ġidola trÃŃa
ĠCompr ensiÃ³n
Ġvole va
ĠGrie go
Ġgall ina
ĠbÃ¡r baros
ĠdÃ©c embre
Ġentus ias
Ġesque Ã§a
Soppor tiamo
A ri
B eber
C ES
E D
J us
L legÃ³
N er
T it
T ea
i tu
s ui
Ã ¶
Ġe co
Ġe cces
es tate
Ġa venturas
Ġc enten
ra tus
ra fo
in vi
Ġm ona
or g
Ġes car
Ġes tancia
an dre
Ġv ales
Ġv anidad
om la
om io
Ġel et
Ã© fono
ĠA Ãĳ
ĠC A
ĠC ena
Ġg reg
Ġper fi
Ġper ni
ĠI CI
ia te
ĠS ui
ent onces
Ġvi l
ĠP untos
si le
si gnifica
Ġan ch
ĠM enti
od ÃŃa
Ġti tre
Ġti mido
Es empi
Ġmi x
Ġto ur
Ġto ute
Ãº ne
Ġac tores
Ġres oluciÃ³n
ĠT Ã©cn
Ġj uris
ĠF idel
En sa
ĠB re
Ġut inam
Ġut rius
Ġali bi
Ġci ru
Ġar r
der em
Ġcons olar
con cep
Ġfu rie
Ġco ac
Ġop resiÃ³n
Ġsal ari
Ġsal sa
Ġter mini
Ġhi lo
bo x
Ġpotes tates
Ġsa cado
Ġra mas
den as
ven ciones
âĢ¦ )
lis ation
Ġquem dam
Ġaut Ã³n
Ġprim as
Ġcam ina
Ġcomp elli
eros que
Ġvis tas
pec tus
pro co
Ġem it
Ġvir us
Ġcer tificado
Ġmenti tus
ĠEn glish
Ġveni ens
Ġfra g
Ġsuper bia
Ġperson is
Ar ti
ĠU rugua
Ġva tic
Ġdeb ÃŃan
Ġdon ec
Ġmol te
Ġid Ã³la
Ġmod is
Ġvivi rÃ¡
ÃŃn ica
Ġho ja
ĠVi vo
Ġmes so
ĠAs unto
ĠAs tronom
Ġdar les
Ġsapi entiae
ot h
Ġpot ente
Ġpot entes
Ġviv endo
Ġconver so
Ver re
Ġinfi eles
Ã¡ndo la
ĠMo ab
Ġconoc ÃŃ
Ġcomple tas
Ġsanc tissimo
Ġtes toster
ĠChristi anos
Ten er
Ġvisi tante
ĠNe p
Ġnomin i
Ġdeber ent
Bu enas
Ġveli tis
ĠSer vices
Ġius ta
Ġutili tatem
Ã¢ n
Ġacep taciÃ³n
Ġdiffici li
Ġcultura les
Ġide ale
Ġvac ÃŃa
Ġaper tura
Ġton terÃŃas
Ġinvesti gar
Ġdul cis
Ġcreatura m
Ġintro ducir
Fac ta
Ġproce dere
Ġpedi mos
Du as
fe cit
Ġnumeros as
hom me
ĠNor ton
Ġnub lado
sub stan
Ġrepres entaciÃ³n
Ġexperim enta
Ġllo rando
Ġarre pi
ĠFin landia
Ġscan dali
Ġprov echo
Ġdecep tus
Ġspa tio
Ġflu vius
Ġcollo quio
Ġsome ti
Ġsil entio
Ġsolici tar
Inf alli
Ġalaban zas
Ġcib um
Ġespe jo
Ġasocia dos
Ġsober bia
Ġliter almente
itor no
Ġdistribu ciÃ³n
Ġstul tus
Cat Ã©gorie
Ġcomb ina
Ġindependi ente
Ġinconveni ens
ĠPAR A
Ġextraordin aria
Ġeff etti
Ġincep it
Ġquar tum
Ġdibu jo
ĠFÃ© lix
publica e
Ġdisciplin ae
ĠRÃ© volution
Ġpreced ente
Distin ctio
Ġsuccess ore
Ġcircu ito
ĠAristo teles
Ġpertene cientes
ĠhipÃ³ cri
ĠRic ardo
Proyec to
ĠEP UB
Ġpendi ente
Ġfecer im
ĠVirgin ia
Ġsugi ere
Desi deri
ĠCurios itÃł
Ġentregas teis
ĠSei gneur
Infalli ble
A ta
A bi
C ras
D ir
E ventos
F inis
G es
G RE
J er
M es
N uevas
O ye
O nde
P ic
X IX
b los
c ome
d ina
f esta
f ex
g ulos
j ala
p ris
r orum
v ens
Ġs poso
es pero
qu um
Ġde fectus
ci fer
ci uto
un gere
li os
to mas
to ck
Ġin timi
Ġf ia
al bero
Ġcon fici
Ġdi ret
Ã¡ ticas
Ġi ri
Ã© lix
Ġno le
ĠA quÃ©l
Ġt os
âĢ İ
de tto
Ġre empla
res tre
Qu ali
ĠI tem
ĠI rÃ¡n
Ġpa ene
Ġsi entas
Ġvi entos
ĠP ales
go ra
lo gos
ac ar
Ġan non
ma ior
ĠM am
Ġti mor
dos a
Ġto tus
qui ta
Ġnos se
Ġnos trorum
ĠR en
va ciÃ³n
ab untur
Ġmu ra
Ġmu ero
Ġcre atus
ĠF on
ĠF eder
tum que
tar te
Ġut untur
ve h
ĠG ior
Ġtra tando
ili um
ĠH it
der s
Ġcons or
Si gnificado
Ġmo verse
Ġsol tanto
con te
con veni
Ġap la
Ġinter dum
Ġdu x
ari z
Ġfor ti
Ġimp ot
Ġfac ultad
Ġob tiene
Ġop pon
Ġop prim
gar ia
Ġter n
Ġis tam
ena tura
Ġdesc enso
Ġpl erosque
Ġfi ume
ten ga
ge tur
Ġpi an
Ġ19 17
Ġdice t
Ġri des
Ġsem estre
Ġquis quis
Ġat tes
ros co
Ġcan tante
Ġpres se
Ġpres tado
Ġhora rio
Ġju bi
jer ÃŃa
Ġpla za
Ġpla ya
10 1
Ġfal lo
Le o
Le vÃ¡ntate
Ġcer tifica
Ġfili is
ĠMa io
Ġcul turas
Ġdec larÃ³
Ġsuper bi
mon ia
Ġdeb itum
ĠDi ana
ĠDi ego
tiva dos
Ġsci mus
Ġsci ences
Ġfam ille
Ġpare d
Ġdo wnload
Ġrela tionem
Ġpossi bilis
Ġ9 8
cid unt
Ma is
Ġerr ori
Ġir Ã©
Ġmer cados
ord s
Ġsom mes
ĠcÃ³mo da
Ġlin guas
Ġtur no
ĠK a
Ġhere dita
Ġindi ferente
So lici
Ġpecca re
Ġcelebra ciones
ĠAp olo
IN O
vin ar
Ġserv ono
Ġhabita ciones
Ġclas sis
inter no
Ġlim it
TI S
Ġprincipi bus
entan as
Ġpublica e
Ġviol entiam
Ġsensi bili
Ġfer me
Ġocur rir
ĠSanc to
Neces itamos
Ġfl ore
ĠVir go
Ġrever encia
Ġ197 4
han nes
Ġ196 1
Ġperi erunt
Va de
Ġarbit rium
Ġinvoc an
Au gus
Ġsuffici unt
Ġexperim ento
San ta
Ph ili
Ġgob erna
Ġoccid entales
Ġclam or
Ġappella re
Ġimpres ion
Edi tar
Ġdesea ba
Ġtre pida
ĠMin utos
Ġexclu ye
Ġaequ alis
Ġrefu gi
ĠOc tubre
Ġbri llante
Cer ca
Ġplura l
Ġeri tis
ĠÃŃn dice
Ġple be
mem ente
ĠTag s
Ġhomici da
Ġfron teras
Ġconfundi do
ĠCel ebra
Ġpagan os
cÃ¡n geles
Ġste tit
sac erdo
Ġcittad ini
Ġbos que
ĠNer one
Ġenvo ie
Ala bado
Ġsant Ã©
ĠAcc ueil
Ġgiusti zia
Ġvanta ggio
ĠTimo teo
Ġtelef one
Ġprecep tos
Ġmonstru os
POS I
Ecc li
Ġexpia ciÃ³n
1 19
C l
D ad
F esti
H AM
P aria
P OR
P eti
T Ã©rminos
V in
V eri
c tor
c risti
c lÃ©s
g ement
h Ã¡
i vi
j adas
l usa
p ente
s ensi
u qu
u cura
Ġ QU
Ġe cho
Ġe voluciÃ³n
Ġe vangel
er ÃŃas
Ġc eni
Ġc Ã©lulas
Ġl orem
ra im
Ġde pon
Ġde pendencia
Ġqu ÃŃm
ci ano
is os
Ġes pecta
un tad
Ġin d
Ġf ala
Ġen gan
Ã¡ ver
la del
Ã© tera
Ġest ren
ĠA bu
ĠA migo
ul entus
Ġre a
Ġre don
bi as
ĠS uite
Ġcom posiciÃ³n
vi Ã©tica
tra te
ĠE dit
ĠE bro
Ġte j
Ġte u
Ġdes ech
era li
tas te
Es as
Es tar
ran za
mi dos
Ġpo uvez
Ġca dere
gi que
Ġac lara
Ġres tos
Ġhab ÃŃamos
Ġmis si
ĠT ut
vo li
no vi
cu ales
ĠB ello
Ġdis pera
Ã©n dum
der es
Ġman tienen
Ġdu plo
Ġop pida
Cu antos
eri tur
eb o
Ġr h
Ġr ÃŃ
Ġu ffici
Ġvol on
pu gna
Ġra tionibus
Ġve as
Ġsec undi
ui to
Ġquo tiens
fic amente
Ġhacer le
Ġcomp as
Ġcan ales
Ġpres iÃ³n
vis ible
Ġpod amos
Ġgran o
Ġvide bunt
Ġpat ron
Le y
ĠEn tra
11 5
ĠMa ii
Ġprof undamente
are mos
ĠW il
ĠPro to
ĠsÃŃ mbolo
Ġaudi vimus
Ġdef end
uel ven
rit Ã©
Ġiu be
Pos si
Ġvivi da
ĠSan gre
To ta
Po poli
Po ichÃ©
Ġmem ora
Ġmem ento
Ġsor tem
Ġama ble
Ġopera tiones
Ġsignifica dos
Ġprae cidi
Ġentra m
Ġnesci ebam
ĠHi gh
Ġtro u
Ġdem um
ĠMi la
ĠPar lam
quis itos
Ġimpos si
Ġpan tal
rÃŃ cola
ĠNe que
Am ore
ĠtÃŃ mido
Ġpron ti
Ġlim pi
ĠOr gani
Ġdivi den
Ġmensa jero
Ġhos ting
Ġquali tate
Chi unque
Ġconfor ta
ĠRes erva
tran si
ĠCam bios
Ġk il
Ġspiritu ale
Ġexal tavit
Ġtranqui llo
Ġrever ti
Ġredi re
Ġ196 0
Ġ196 4
ĠpÃ¡ jaro
Ġgratu i
Ġasi gn
Ġvid entes
Uni versi
Ġlabora l
Ġmons trare
Ġprohib et
Ġdisfru ta
fin es
ĠHum anos
Ġindividu al
Ġbra zos
Ġencar gamos
Ġbib endum
Ġrefu gia
Ġcha que
Ġrebel des
Ġsubiec ti
Ġdud es
Ġadmin is
Ġfum o
Ġquisi eron
ĠincreÃŃ bles
Ġadver tencia
ĠCapi tulo
Ġech ado
Ġhici era
Ġdoctr inam
Ġinflu encia
Ġaug mentum
Ġpersu as
ĠinÃº tiles
Ami gos
Ġline as
ĠEspa Ã±ola
uter s
ĠlegÃŃ tima
Ġrum ores
Ġacqui es
Ġbl anc
Ġaufer at
ÃŃne as
Cono zca
Ġenvo yer
ĠIsraeli tae
Salvo u
Preghi amo
Ġincapa z
Ġback links
ĠBap tis
Much ÃŃsimas
onysi us
" ...
. (
A us
C li
G re
I D
I M
L una
T re
T ente
U tique
U ES
V eter
c lam
m ona
r enes
s at
s ia
Ġe ficiencia
Ġa jo
Ġp ale
Ġc ore
Ġc ron
Ġc edere
Ġl ingÃ¼
in ti
Ġde ux
Ġde pendi
or Ã³
ci ende
ci dade
is sima
an Ã§a
Ġin vo
Ġen re
ri or
ri dos
ÃŃ mos
ro ll
ec enas
Ġcon cipi
Ġse peli
Ġno ceat
ic al
Ġsu po
Ġre volu
bi eron
Ġg ostaria
Ġper j
ĠS tato
Ġpa ura
Ġal tare
Ġal teri
tra e
ĠE p
ĠE so
si ete
ĠM U
Ġex posi
Ġcu pit
Ġcu bierto
tes e
ues tre
ba j
pa dre
Ġpo ver
uer int
Ġca iga
Ġres isti
Ġres ist
Ġil us
ĠT ul
Ġsin guli
En viar
ĠB ÃŃ
ĠB ritÃ¡n
ĠB eth
Ġdis puestos
Ġut ente
Ġci tado
In ici
ad ministra
Ã©n Ã©
Ġar dua
ĠH eb
ĠIn c
Ġman dar
Ġpre ca
Ġcor o
Ġco jones
Ġfac eres
des puÃ©s
Ġop uesto
Ġsal vi
Ġhi elo
ob s
Ġpas sim
ir ra
Ġsub jec
Me dia
Ġbi enaventurado
Ġten siÃ³n
Ġtemp orum
Ġvo ilÃł
Ġcos tas
Ġmor to
Ġgen uit
Ġfaci enda
fic her
und aria
tic ar
Ġat ten
og rÃ¡fica
ĠY H
au de
Que da
Ġvis te
ĠRe uters
lan des
est Ã¡n
ha cia
Ġcer dos
ĠSi ra
Ġsum er
19 66
As per
Ġforma tion
car ne
ĠU E
ĠRom anum
ĠPro blem
Ġaliqu ae
Cor in
Cor rupti
Ġdomin um
Ġservi zi
Ġparti um
Ġcir co
Ġdoc tos
Ti ens
qua es
Ġestaba is
ĠSa p
bili tas
Ġsegu imos
Ġris parmia
pr ene
Ġgu ia
Ġdolor ibus
Ġestu ve
Ġconoci dos
Ġvolup tatibus
Ġcome dia
Ġalia dos
Ac tividades
Ġsanc tos
ĠHi erro
Ġposi zione
Ġcivi tates
Ġadi uv
Ġtro uver
Ġloqu endi
Ġetc Ã©tera
Ġdilig entissime
Ġdesper tÃ©
Ġpes sima
iss em
Ġign is
Ġrefer Ã©ndum
ĠÃ¡ gua
Ġguar dado
pl ÃŃ
Ġsepara ri
Ġsepara tus
Ġproba tionem
ĠPr in
Ġlim ite
ĠOr dinis
Ġcl Ã©ri
Ġcasti ga
Lib ero
Ġoper ari
EL A
Ġperd onados
Ġmagn us
Ġconvi er
ĠGra e
ĠMaria e
Id enti
Veni d
Ġsepul c
Ġpertin ere
Ġvid endi
Ġlud is
ĠSam ari
dal ucÃŃa
Ġdiversi Ã³n
Ġparticip amos
Ġfon dos
Ġvaria ble
ĠPol onia
ĠEpisco pi
Ġnutri at
sem blea
inea ta
Ġpleni tudine
Ġplen us
Ġplen um
Ġsy ste
Ġhumili tas
ĠPal ma
Ġepisco pi
Ġrespi rar
Dem as
Ġsegui do
Doc um
Ġub ica
Ġub icaciÃ³n
Ġobtin uit
Ġsosp echa
Ġdim ensiÃ³n
Ġdim ineata
LinkedIn Google
Ġmanifi esto
Ġpreocupa ciÃ³n
Bib lia
Ġdiscri men
Ġentren amiento
Ġesco gÃŃ
Ġmic ro
GÃ©n esis
Ġucci de
Ġglorios a
Ġjuga dores
Ġsolid ari
Ġborra cho
Ġaprendi zaje
ĠPublica ciones
Ġconfund ar
Ġexsul tat
Ġpraecipi entem
Ġapropia do
Ġmanduc at
Ġads pirare
Ġprogram me
Recom enda
ĠhipÃ³ tesis
Ġpraed estina
vac y
Ġincredu lidad
ĠvÃ© hic
ĠLew y
ĠPortu gal
ciu dad
Ġrebe lado
cessa ire
Ġutrius que
A lea
B or
C P
G E
U m
c entes
f ÃŃn
h ara
i ficaciÃ³n
m g
p ros
r ud
s ing
v ente
v et
w ay
x u
y th
Ġ ue
Ġa hi
Ġa testi
Ġp entÃ¡gono
Ġl ire
ta tiva
Ġde do
Ġde bu
Ġde voluciones
ti em
ci la
ci edad
Ġes qui
te batur
an til
ar los
tu ale
Ġen tal
di f
Ġdi zer
Ġdi dicit
la tas
Ġest Ã³ma
Ġno lo
ĠA ba
Ġre mon
ĠC esar
ter it
ĠS entido
Ġpa zi
Ġcom enza
Ġdel an
vi dio
Ġvi deris
Ġlo de
ĠE X
ĠE tique
ĠP RE
Ġpro jets
Ġan a
ĠM oro
Ġti endas
Ġle zioni
Ã¡s tima
Es tad
ba ciÃ³n
... !
... âĢĿ
Ġmis sa
ab as
Ġau disti
Ġcre das
ene zza
Ġdis trac
pon o
Ġpar ce
Ġpar lamento
ĠN in
ĠG ia
ĠG rupo
Ġsus pendi
tin um
Ġpre cepto
Ġpre decir
cer tas
esti ma
ari cio
Ġfac ultatem
Ġfac ciamo
Con ocer
Cu ad
Ġsal uto
Ġpas sus
Me diante
Ġpotes tati
Ġcontra rios
den ter
den ciÃ³n
Ġda ti
lis que
Ġve x
ella e
Ġmuch ed
Ġrec tor
Ġsec a
Ġsec um
par Ã³
Ġpi enezza
Ġqua est
dic en
rec ÃŃan
Ġgen itori
Ġaut res
Ġins ani
pul ar
Ġcan cer
Ġanim as
Ġanim ad
Ġju re
Ġfin ibus
esta ble
Ġvide tis
ĠmÃŃ s
ĠIsa ias
ĠCh Ã¡vez
10 2
Ġprinci pe
est Ã³
Ġhu yeron
Ġelec tri
Ġof endido
nam ento
11 6
ĠQu arto
Ġfra is
Ġfra ud
Ġpe ut
Ġmar es
Ġmar gen
Ġva is
Ġva de
Ġconf ron
Ġconf iado
Ġaliqu ot
Ġsci tis
Ġfam oso
ĠPa ce
Ġ8 8
Ġpuer is
Ġliber tas
Ġsoci etÃł
Ġerr oris
Ġsta ff
bili tÃł
Ġaf fectus
Ġaf rican
Ġgenera tionis
Ġsor prend
com par
âĢĵ ]]
Ġabi tanti
Ġcaus e
Ġtenta tionem
Ġauxili a
ĠTi ene
ges imo
Ġvoca bitur
Ġcru cem
Ac tio
Ġcapi tis
200 3
CI OS
Ġconstitu yÃ³
Ġsent ÃŃ
ĠAp p
Ġweb sites
Ap lica
Ġguar di
Ġsacri ficia
Ġsaluta tionem
Ġlim pia
Ġjus te
Ġaca bo
Ġpropri etates
Ġqueda ba
Ġpati ence
Ch ar
Ġga rantÃŃa
Ġaccid enti
Ġale gre
Ġimper fecta
RA HAM
Ġocul tar
Ġtrabaj ado
Ġaedi bus
Ġqued amos
Ġtranqui lli
Ġmeli orem
Ġconven cido
Ġcontradic ciones
Ġprepara ciÃ³n
Ġinterna tionalis
Ġgio ia
vir tu
Ġnu per
Ġposses siones
ĠBel Ã©n
Ġconi uncta
ĠTur quÃŃa
Ġeffici ens
Ġperf uman
tend rÃ¡
Ġfur tum
Ġx D
trui re
ĠThe olog
Ġpis ces
Ġdign us
ĠBus h
Ġsecund us
Ġnavi ga
Ġexces os
Ġimpedi r
Ġmisera tione
Ġinfor me
Ġpier den
ĠGali cia
Ġintelle xit
Ġanimali um
ĠIng eni
Ġfas cin
Isa ac
sci licet
Ġordina ta
Ġech Ã³
Ġener gia
Cel ui
Ġdra ma
edu cazione
Ġmantener se
Ġotor ga
Ġdesn udo
Ġaero por
Ġreba Ã±os
Ġrecti ficar
ĠraÃŃ ces
Pau la
Intel lig
Ġexisti mas
ĠEmpres as
ĠGar cÃŃa
Clic ca
Ġhier ba
Ġsingul aria
ĠBulgar ica
ĠâĢĭ âĢĭ
Ġmunicip al
arisae i
Compartil har
Ġcad Ã¡ver
ĠPropter ea
Ġdomen ica
Ġpover tÃł
Ġental can
- ]
1 14
A iuto
B anda
G rupo
I ra
J hn
N et
R itratto
a in
b ren
b inte
d ario
f ran
p Ã³n
s int
v res
Ã ¯
Ġ risto
Ġe gredi
Ġs cor
qu ÃŃ
qu ot
Ġc risto
Ġl Ãł
ta mo
ta il
Ġde tuvo
ti mas
ti enes
Ġn il
an dos
us quam
un os
un tamenti
Ġh ol
tu e
to logÃŃa
Ġin tri
Ġf ro
Ġla var
Ġcon vin
Ġcon pleto
Ġdi ximus
Ġt Ã³
ĠD A
Ġsu ite
at tendite
im um
ĠI M
ĠS olo
Ġpa isa
Ġb ue
Ġlo cis
ĠP it
ch ae
si tan
lo c
ac qua
Ġpor tes
od um
Ġ1 31
pi raciÃ³n
Ġle emos
oc en
ur ÃŃ
Ġto ler
Ġca ta
gi us
Ġac la
enta lem
ĠF la
Ġpar ta
omin e
Ġar ra
Ġar que
Ġar quitec
cri zione
cri tto
Ġcons ur
ces a
Ġas tro
Ġas pira
Ġman na
hi r
Ġimp ed
Ġsal d
Ġsal ta
Ġsal Ã³n
Por quÃ©
Ġcas us
Ġsa grados
Ġten ha
Ġten ÃŃamos
Ġda vvero
Ġrec lu
Ġrec ensione
Ġcos ta
Ġfuer im
Ġquo ties
Ġri vela
Ġmin ore
Ġquis e
Ġsit um
vis io
Ġhora rios
Re laciones
ĠRe x
ĠRe ver
pro pri
lan da
Des arro
Ġdec oraciÃ³n
Ġsuper ar
ĠU R
Ġllam e
ho p
Ġposs em
Ġuni do
ser Ã¡
Ġsan tifica
Ġreli cum
Ġdecir se
ĠCa tal
12 2
Ġ8 3
ĠNa as
Ġliber ales
pÃŃ tulos
Ġsoci etas
ĠCor int
Ġho di
Ġ18 0
mar um
Ġnulla tenus
Ġima genes
Ġcondi tiones
Ġcorp s
Ġcome te
Ġviv entes
Ġviv ÃŃan
Ġenvi arÃ¡
Ġbel las
ap ones
Ã¡ndo les
Ġesper as
len nio
Cui dado
ĠsÃ© ptimo
Ġvuel an
Res umen
Ġ0 8
vin ulentus
Ġdirec te
ĠLu tero
Ġpoter unt
Ġdubi tatio
ĠTu lio
Ġoper is
Ġdese ar
Ġayudar te
Ġobs cu
Ġmaxim i
Ġapr end
Ġpublica ciones
IS T
Ġmemoria e
Ġconsec ra
Ġiusti fica
Ġglori fic
Ġencan tado
Ġdelecta tio
Ġlet tere
Ġpraece dit
Ġpropor tione
inc Ã³n
Ġarri vano
Fi esta
ĠPri mo
Ġconfes sio
quod que
Ġsuffici entiae
Escri bir
ĠAmeric anus
Ġhabe am
ĠArchi vos
ĠDiv isiÃ³n
ĠEpisco pus
Mor te
Ġstes se
Ġprodu its
ĠDia bolus
ĠHer odes
Ġevangeli zaciÃ³n
Ġnie ve
Ġincor pora
ĠQuin ta
Ġdam na
Ġatribu to
Lin do
Ġanal y
Ġdesapare cido
Traba jamos
Ġmere cido
Ġmaravil loso
Bib lioteca
Ġsusp ensiÃ³n
Ġretra tos
Ġsustin ere
Ġambula re
Ġfen Ã³meno
Ġaprovech ar
Ġsustan cias
Ġfier binte
Ġsegura mente
Ġsincer idad
Ġeurope o
Hom bres
Ġstipendi a
Ġprincipa li
Magis ter
Ġsae pius
Ġcess at
ĠSocra te
ĠBritanni arum
ĠAlber t
Ġeru di
Ġdefi ende
Ġprin ceps
Ġconcupisci ble
Ġtransmi tir
Ġperfe ita
Ġtun icam
ĠConfer entia
Ġverb orum
Ġdefra uda
Ġexha usted
Ġchem ica
Dich osos
Ġcigaret te
ĠMagdal ena
Prophe ta
Lae tetur
! âĢĿ,
' ?
A ra
A ves
B RE
B reve
C osas
E X
E vi
F ino
J usto
N uevos
V ae
f ul
f at
g ona
g rÃ¡fica
i ano
p tione
p lora
x es
x ia
{ {
Ġ ulla
er ere
er ing
Ġs entar
os i
es tes
on d
Ġc lem
in ario
in forma
in quit
Ġde licado
ti arum
is mi
Ġes for
Ġes pere
un ciÃ³
um i
am ar
am pi
Ġin vid
Ġf ariseos
di antes
al le
da liza
ec ÃŃan
Ġdi era
ĠA bril
Ġre ale
ĠC uer
ĠC AR
ĠS Ã£o
vi i
Ġb anda
Ġb amb
Ġlo w
ĠE U
Ġpro digo
ac aso
ĠM ili
Ġ1 10
Ġac orda
Et enim
Ġma pa
Ġma ius
Ġnos talgia
Ġhab le
ĠL le
du os
du is
Ġau diam
Ġcre amos
Ġcre ciendo
Ġna cidos
Ġdis fr
cri be
pos tea
Ġpri v
Ġcons istere
Ġam ant
Ġmo ver
Ġfu ite
Ġdu elo
Ġdu cere
ĠO ficina
Ġfac ultas
Ġsal drÃ¡
me jor
Ã©s imo
Ġsub stitu
Se villa
Ġcar re
lis se
Ġ19 58
Ġdice tur
und arum
Ġprom ul
Ġcam inar
Ġven ÃŃan
unc ti
Ġri gor
Ġcol orem
ĠLa den
ĠAn aly
Re yes
Re visa
Ġinc Ã³mo
As sim
ĠU crania
Ġllam aron
lus coni
ĠW at
Ġcel ebre
ĠPro piedad
Ġsci endum
Ġpare des
Ġora tione
uel va
Ġro dea
Ġcir cular
Ġsenti unt
13 3
Pos i
ĠX VII
Ġemp loy
ĠSa gradas
id encia
Ġanti qua
Ġreali zan
Ġsur gi
Ġaccep ta
Ġfr eno
Ġasc enso
Ġlec tum
Ġopera tione
Dis e
Dis pon
ĠEx tra
Ġprae cipue
Ac t
Ġcapi ta
Ġequi vo
Ġsanc tis
AS A
Is titu
ĠChristi anus
Res pe
Ġproduc en
Ġpecca verunt
Ġresurrec tione
Ġangel os
Ġmira bilia
Ġinforma zioni
onis tas
Ġhon ori
ĠPr om
quer ÃŃa
lit Ã©s
Ġtor mento
Ġcl Ã¡sica
Ġdij ere
Ġsolu Ã§Ã£o
Ġoper ar
Ġprincipi is
Ġcusto des
Ġnega ciÃ³n
Ġnega vit
Ġintellec tuales
Ci erto
Ġsensi bilis
ĠTes tamenti
Ġconsidera re
Ġth rono
Ġperic ulum
Ġocur ra
ĠPos ts
Ġpoli tici
lle va
Ġdul ci
Cam pe
Ġintra re
Ġcontemp laciÃ³n
Ġ197 5
ĠBo oks
Ġsepul tado
Ven ga
Ġcontradic entem
ĠMil an
Ri entro
Ġdisputa tur
Ġenc anto
Dol ore
br Ã¢h
Do ve
Ġpassa ggio
ĠPonti ficium
Ġoccid entali
Ġprohib ere
Ġinclu yen
Ġrespe ta
ĠFin al
ĠPers onas
ĠYa vÃ©
Ġizquier do
Contac te
Ġatra ves
Ġstel lae
Ġconten tione
Ġingres si
Ġfic ciÃ³n
dec lara
Ġfunda ciÃ³n
Ġben chÃ©
Ġreconoci do
Ġtrai ciÃ³n
Ġsc ru
Ġreti ra
Ġdiventa re
Ġferi e
Princi pium
Ġsuel do
Ġexspec tat
ĠHom bres
ĠIudae is
Ãļ nete
Ġblo c
Ġrispet tare
ĠtÃ©cn ica
Ġenferme dades
Ġlocu ti
Ġabri go
Ġresuci tar
Ġsobr enatura
Ġagre gÃ³
Ġpeda zos
ĠUs ted
Ġdesconoci do
Ġsuger encias
Ġmedie val
Ġrebeli Ã³n
Ġsepare tur
Ġcamis eta
ĠReve laciÃ³n
ConviÃ©r tete
ĠDigi tal
C ri
C ues
I brahim
J ua
M ir
M ala
M AR
M essa
a hora
b n
d Ã¡c
l ana
l lus
s el
t t
u u
u ras
v oco
z ze
Ġd adas
Ġs car
es so
Ġp esti
Ġp unta
Ġc accia
ti lin
Ġm ene
ci ves
Ġes iste
Ġh oris
li is
to ur
om bres
Ġin unda
Ġin quisi
Ġin espera
Ġin quina
Ġla tr
Ġla ude
Ã³ sitos
ri is
al lo
ĠA Ã±os
de bat
Ġo Ã¹
Qu Ã¦
ĠC olegio
ĠC leopatra
im enti
Ġpa y
vi deo
ĠP Ã¡
Ġad versidad
lo qu
ĠM ens
Ġdes orden
cia litÃ©s
Ġmi re
Ġpo int
Ġac quis
Ġhab ui
il as
il lum
Ġmis sione
ĠT R
Ġsin Ã³nimo
Ġso p
De um
tar nos
ĠB eat
ĠN ulla
ĠN OS
Ġci fra
In teg
In voca
Ġcomo didad
cri to
ĠH ello
Ġsus cribirte
pos a
ĠDios es
Ġpre vio
Ġpre tend
Ġsol es
Ġne gado
ĠO me
Ġab unda
Ġab ren
eri as
Ġis tius
ech er
Ġtemp los
Ġtemp esta
Ġvo cis
ber s
Ġmul tam
titu de
Ġmor t
Ġdeci se
Ġ19 25
Ġ19 46
Ġer os
Ġven tura
Ġri mar
Ġsem ina
Com ien
Di vi
Di ffer
Ġ4 00
Ġhora m
An da
ĠNo li
Ġpod rÃŃamos
Re gres
Ġhu yendo
Ġcer cana
As tÃ©rix
Pro te
Per man
Per ferendis
Ġdec reta
Ġllam ando
mon s
ĠDi xerunt
veni at
Ġreli quae
Ġfav ori
Ġmedi ci
Ġconfi gura
Ġ9 4
Ġcal les
Ġli g
Ter tia
ulta bo
Ġconc lud
Ġval ora
Ġ18 00
Ġaf li
Ġmes mo
ES CO
Na ta
Ġesc ena
tori tas
Ġcur riculum
Ġauxili ar
erit er
Ne go
Ġindi rec
ĠMe die
Ġcredi di
Ġcapi tula
Cre yÃ³
Ġsacerdo tal
Ġarti culos
Pa z
Ġadi cional
Ġdilec tus
Ġfru ta
ĠAp Ã³stoles
Ġcont enta
Ġopor tun
IN I
Ġ13 5
Ġdispu tando
Ġpron unci
Ġsaluta re
Ġcasti gat
cor do
Ġ25 0
Ġfir mes
Ġcomer ciales
Ã¢ te
olu tamente
Ġcura re
Ġexper to
Ġcultura e
Ġfrecu ente
ĠDec retum
rus elas
ĠDoc um
Sim plemente
Ob serva
Ġlet tres
Ġqued ando
Ġje jeje
Ġvec chi
Ġhaeredi tas
Bene dictus
ĠMon t
gunt Ã³
Col ecciÃ³n
Ġâ Ī
neces se
fes ios
Ġvisita tore
Dol orem
Do po
Ġtribu to
Ġinven ciÃ³n
Ġpersecu tionem
ĠHum anidad
Ġindividu os
ĠLon dini
Ġadolesc ens
Ġgehen na
CE A
Ġheri do
Ġsole il
ĠBlog ger
Ġcontinu amente
pp ing
Ori gine
Ġingres sus
ĠVide bo
Ġiudic em
Ġdemos traciÃ³n
Ġave te
Ġquisi eran
Ġagri cul
Ġreconoci miento
ĠBon us
Cul tura
Ġmeta f
Reci be
ĠMinis tro
Ġtraduc ciones
Ġcasu alidad
Ġirra cionales
Ġincer ti
Ġexpecta tiones
Ġspon sa
Ġmic rosco
Ġextran jeros
ENT ES
Ġdiss enti
Ġcontex te
Descar ga
Ġade pto
ĠLec tio
Ġprovinci ae
ĠInfer i
Sei gneur
Ġtimi di
Lic et
Ġinscrip tio
Anim ales
Tweet Correo
Ġcoloni as
Ġloque batur
Ġmedicam entos
Ġinau gura
incendi o
nÃ© cessaire
ĠTin y
Ann ibale
Ġcardin ales
iller mo
Ġanne aux
Ġevan gÃ©
Ġgovern atore
ĠspÃ© cialitÃ©s
ĠestÃ³ma go
Ġmuched umbre
, âĢĿ
A le
A migo
C ic
E pisco
I sola
I psam
L ÃŃ
T ria
T AR
V uelve
[ -]
c cio
i gitur
l ante
p ueri
Ġ Î
Ġs tim
Ġs hor
os idad
Ġp elas
Ġl ento
Ġde partamento
ti li
ti to
ti po
Ġqu este
te cas
an che
an zi
us se
Ġv aron
li tur
to da
Ġla icos
di is
di tion
ri z
al guien
Ġcon cita
Ġdi dici
Ġdi oces
Ġi leg
Ġno tte
Ġo dore
ĠD im
ĠD atos
Ġre gnat
bi dos
ĠC D
ĠC RE
Ġg ene
Ġnon nulla
ĠI brÃ¢h
que te
vi ento
tra ta
ac or
Ġca ver
gi on
Ġac el
Ġres ide
per at
Ã¡n imo
Ġser ies
du rante
Un um
Ġj ac
no che
cu ritÃ©
En vÃŃ
Ġna tivi
tar me
ĠB at
ĠB eli
ĠV it
Ġdis si
Ġpar ente
ĠN as
ĠG ru
In troduce
In vent
Ġtra tan
ili ae
one ta
Ġmo tores
Ġcor dero
Ġdu do
ru zione
Ġdic endus
ĠAl tissimi
ĠAl tissimo
ĠO tros
ĠO ffici
ĠO ly
ĠO ficial
Ġni do
Ġpu tat
gra tias
pu tatio
Se pul
Ġten gamos
den da
Ġda em
Ġda dos
ven o
Al gÃºn
Ġrec tum
Ġrec titud
Ġcos truzione
Ġentre vista
Ġsem an
Com mun
Ġsab ores
Ġlle gamos
ĠRe ad
Ġpat rÃ³n
Ġem is
Ġhu yen
Ġelec tio
nam ora
ph o
Pro hi
ÃŃs ta
Ġfra cas
ĠLe gis
Ġuni one
Ġ6 3
ĠCa es
Ġbon itatem
Ġej Ã©rcitos
Ġleg ibus
Ġdef unti
ĠestÃ¡n dar
Quam quam
Ġves pera
ĠNa ve
Ġrela tiva
Ġcontin entes
Ġfamili aris
ĠSa tana
ĠSa bidurÃŃa
Ġfavor itos
Ġmer eces
Ġori entales
Ġdar me
Sal ud
Ġcondi cionem
Ġcur rere
Ġama da
Ġmori rÃ¡
ĠEx altado
ĠVer re
ux i
Ġrom per
Ġlon go
CI O
Pr Ã©cÃ©dent
Ġcuius que
Ġtes ter
Ġobli gados
Ġmira cula
Ġrepu b
Ġchi aro
Ġinforma do
Ġhon ore
Ġpros peri
Ġtem eritas
Ġproba bilidad
Am eric
Ġexcep cional
Ġconveni ens
Ġconveni entia
Ġsolu tio
all y
Vide te
Ġlar gas
Ġblan ca
Ġinstitu it
Ab sur
ille ur
Ã³m etros
Ġmari ti
Mat th
Quo tidie
Ġintro duci
Ġexcel lent
Ġadmi tir
ligi bile
Ġsepul tura
Ġunir se
Ġ196 6
Fi gura
ĠNor man
Ġconcep it
Ġinim icis
olÃ³ gicos
Do ce
biec tum
Ġoccid entem
Ġmisericordi ter
ĠArchi vo
ĠSen eca
ĠMin erva
ĠIoan ni
Ġprodu cido
Ġtransgres sionem
199 0
Ġinfini tas
Ġpatri ar
Ġrece tas
Ġham br
Ġdevo tos
Ġacce dere
Ġperegr inos
Ġpropon it
Ġconser var
Tom Ã¡s
Ġcoc inar
ĠCristi ano
ĠCl ub
Ġmessa ge
Ġdesta ca
Ġimperat ore
Ġadop ciÃ³n
Dal la
Ġpag ano
Ġext endit
Ġasocia ciÃ³n
Ġcotidi ano
Segu imos
Ġsosp ese
Ġinnoc entes
ĠGi ant
Ġric orda
Ġapre cia
Ġfede li
ĠVene cia
ĠbritÃ¡n icos
Ġdistingu untur
Ġfantas mas
Tum blr
ĠMujer es
Ġrepet undarum
Ġfuncion an
Ġcolo ca
Ġcolec ciÃ³n
Mos Ã¨
Ġvisuali zzare
Ġcanoni za
Ġenam orado
ĠPompe o
Ave te
ĠlegÃŃ timo
ĠInvesti gaciÃ³n
Ġcontam inaciÃ³n
Ġfemen ina
Ġpuo i
ĠCro a
Ġprofici s
ĠAmbros ius
Ġcomita tu
Åį n
Ġexten siÃ³n
Tran qui
Ġapos tas
ĠBru x
Ġpsy ch
Mic hael
Ġdepos it
Ġespl endor
ĠBlan co
Ġlabo rant
Ġmie dos
Ġplora re
ĠAlzheim er
Dob biamo
Expe dita
ĠSino do
Ġdifici l
Ġentram bi
prene urs
. Â¿
C Ã©sar
F ru
F idel
G Ã¡
G EL
H ebr
L l
N E
P ide
R etro
T enta
U so
U su
V bi
V end
a iuto
a vais
b ona
b rica
c Ã³n
c encia
e jo
e ges
h y
h le
h edra
p alis
p atus
p elli
s App
u tra
ï ģ
Ġ @
Ġs iste
Ġs trumenti
en siones
es peci
Ġc is
Ġc ac
Ġc io
Ġc enta
in se
Ġde pre
Ġde cern
ti bles
ci is
ci mento
is temas
Ġes empi
te lig
an em
Ġv ana
Ġf onte
di vi
di mos
di cional
al loggio
da tis
Ġdi ur
Ġdi gamos
Ã¡ mos
Ġse dit
Ġse tte
ic ano
ĠA mis
ĠA ula
âĢ º
Ġun ctus
Ġre denciÃ³n
Qu ales
im ini
Ġg entibus
Ġper trac
se udo
ter am
ter ran
ia o
ĠS unt
ĠS ha
Ġcom edi
Ġb Ã¡sicos
Ġvi uda
tra dos
ch el
si as
Ġpro ban
Ġpro bÃ³
Ġan unciar
Ġex ec
Ġex it
Ġdes ca
Ġdes pera
od is
Ġcu yos
Es ne
ran a
No che
No ticia
Ġpo esia
Ġac tivos
co gnos
Ġmis sus
ĠT era
Un as
ĠF lores
no w
En vie
ĠB eni
Ġdis ser
Ġpar ent
Ġpar que
ĠN eder
ĠN Ãºmero
ĠG on
ĠG estiÃ³n
ĠG erusalem
Ġfa ti
ĠJ orge
pos uisset
Si r
Si te
Si Ã©n
Ġam os
ĠÃ© ta
Ġlib ere
hi jo
ĠAl fonso
des cendencia
Ġob la
Ġop ina
Ġhi erar
eb ri
ena ventu
Ġtan gere
emp lare
Ġdesc ende
âĢĻ ?
âĢ¦ ..
ten emos
Ġrec tos
Ġrec lama
Ġcos titu
Ġ19 14
Ġins tan
Ġgusta ba
Ġcan tores
Ġpres erva
An ima
ĠNo vedades
Ġfal tar
oy a
Ġcer do
14 8
Ġsum psit
Ġconse guido
Ġmenti rosos
Ġdif fi
ex emplo
Ġforma liter
Ã£ tum
ĠU ma
Ġpe ores
Ġuni dades
Ġparte cipi
ĠRom anae
ĠMar c
ĠMar cos
Ġconf esiones
Ġtesti fic
15 0
Ġhom em
Ġreci ente
Ġreci entes
ĠNa pole
Imp os
Ġpossi bilia
Ġcal la
dar se
Ġdistin guen
Ġli gnum
Er rores
ÃŃn imo
Ġdie tas
Ġsta tua
Ġsur rexit
Ġmer ecemos
Ġaccep isti
Ġima ges
Ġlec turas
22 8
Ali i
Ġtur pi
Ġcaus ar
Dis co
Ġol har
Ġconoc Ã©is
Ġfeli x
pres iÃ³n
ator ce
Ġinterro gat
ĠsÃ© curitÃ©
ĠJu dea
ĠChristi ana
Ġproduc tum
Ġstu dios
Ġpropi tius
Ġvic ino
Aqu ello
IN T
Ġmolesti e
ĠSo cio
Ġsepara das
Ġnor me
Ġtras la
Ġbea ta
Ġconci lia
Ġacep tan
Ġconsum a
Ġconsum ir
Ġmagni fica
Ġtermin us
Ġsup lem
Ġimper di
Ġfundam entales
Sim Ã³n
Ġcontes tar
ĠRa dio
Ġnul lum
ĠcuÃ¡n ta
ĠCol ombia
Ġjuz ga
Ġdia gnÃ³stico
ĠTer cera
Ġcred entem
Ġinteres es
ĠVol ume
Ġcorrespon diente
Ġocu par
Ġdisputa tioni
Ġgio co
Ġrecha zar
Ġrecha zado
Ġattribu it
Ġespec ÃŃfico
ĠAnti gua
Ġfon tem
Ġmys teria
ĠCur so
ĠEste ban
Ġemo cion
Ġextre mis
Ġsecund arios
Ġrecorda bor
tuali tÃł
Ġec li
pisc ing
Faci lius
Ġvendi dit
Ġspa tiis
ocupa ciÃ³n
Ġtom aron
Ġpermis it
Ġoblig atoria
ĠAfrica e
bur n
ĠMic rosoft
Ġsubli mius
ĠPrinci pio
Ġlettera tura
Emp res
Ġresta ura
Ġmeta phys
Ġspera re
Ġoccasi ones
ĠCI C
Ġanun cios
hat sApp
Ġappeti tum
Ġobliga ciones
Ġsollici tudine
ĠPhara onis
Ġoffer te
Ġlatin os
ĠProphe ta
ĠCha in
Ġextraordin ario
ĠIapon iae
Ġplo rat
ĠSÃ© timo
ĠOp ini
ĠEnc ÃŃclica
Ġtera pia
Ġmue bles
ĠAlber to
Ġfamos os
Rep ellat
Ġcircumci sionem
ĠEmpres a
Ġpreparar nos
Ġpensa ba
ĠTraba jos
ĠTen go
Ġcho isir
ĠCic ero
Ġreun ir
Ġamones taciÃ³n
ĠJord Ã¡n
Ġcercan os
ĠCora zÃ³n
ĠUcra ina
Ġmarti rio
cindi ble
Ġsam ari
Ġaflic ciÃ³n
Ġsene x
Ġdilex isti
ĠEner gÃŃa
andre mo
ĠGerusalem me
Ġpartecipi amo
) )
C olo
H ar
M iles
N atus
O jo
P uto
P ueri
R V
S OS
S how
V D
V ER
b ular
f ing
h ta
i z
i dem
k ar
l ero
m orum
n y
p te
t oni
Ġs entarse
en cuent
Ġa ci
Ġa ri
Ġp om
Ġp it
Ġc elo
Ġl he
ti tit
re ali
re bbero
Ġh embra
li bera
Ġin iusti
Ġf esto
Ġla e
Ġen cam
di osa
ÃŃ lia
al s
al os
Ġdi pu
Ġi OS
Ã© tÃ©
Ġno vel
ĠA ver
Ġt Ãºn
Ġt rÃ¡fico
Ġha es
ĠD OS
ol ina
ĠC ad
Ġper duc
ĠI vÃ¡n
ca tio
ent ros
Ġb ut
Ġvi tu
ĠE a
ĠE f
ĠE vangel
ĠP ic
ĠP ia
lo w
ma da
Ġte cto
ĠM y
et nam
od or
tan us
Ã¡s ticas
gn itatis
No vo
ver bios
gi am
per fec
Ġhab eri
ĠL er
Ġver la
il ÃŃa
Ġmis sionem
ĠT ai
vo yez
Ġau tora
ĠB in
Ġdis pli
Ġpar is
Ġci entos
ĠIs abel
In cidunt
Ġar der
Si gnifica
ĠIn segnamenti
Ġco ger
so ur
hi jos
Ġesta ciÃ³n
Ġdic tador
quam ur
ĠO ficio
Ġpu ellas
eb asti
Ġr usos
ena ient
zi ona
Me glio
fici i
Ġcar ni
ĠestÃ¡ bamos
Ġve te
ĠCon trol
Ġfaci ens
Ġins ec
for mes
Ġlle go
Di gnissimos
Ġpres er
Ġpres entado
tel li
gen as
ĠAn al
Ġinc lusi
Ġpat erna
tir pe
lan os
Ex ultabo
Ġmenti s
Ġdif etti
dis pu
Ġfra caso
car on
Ġpe pi
ĠMar tin
Ġcrea tividad
Ġconf usa
Mi guel
ĠAr ca
Ġag entis
Ġescri tores
cios as
Ġmedi ano
Ġdef endi
Ġora tiones
Ġ8 9
dica do
Tu vo
Ġconfi dere
Ġfamili ari
Ġsoci i
Ġmil les
ĠSa Ãºde
id era
Ġado pta
ĠCor te
Ġ15 7
and rÃŃa
Ġaf fici
Ġaf fir
Ġcambi Ã³
ĠSal mo
Sal Ã³n
com un
Ġcondi cio
Ġcondi mentum
Facebook Correo
Ġescu chas
ĠAd huc
Ġgener alis
Ġmagis terio
ĠK i
Ġhistoria dor
Ac ciÃ³n
ĠAm ore
ĠAm alec
Ġcomple t
tru ir
Tra bal
Ġtab ulas
Ġobli tus
temp ore
Ġll ueve
Par s
ĠLu cio
Ġlim iti
Ġdormi entes
Co uche
Co pyright
ĠDes car
Respon de
Ġann unti
Ġsensi bilidad
Mul to
Ġquali bet
ĠGal los
Ġignora t
Ġadvers arius
Hi zo
Ġ197 2
Bene dicto
her lock
ĠNum a
Ġinsi ra
entre preneurs
Ãį TULO
ĠDÃŃa z
Ġprohi bida
Ġrepres en
Do v
ĠFo to
Ġdev enaient
enci almente
Ġobserva tiones
Ġfon dam
Ġbesti ae
Ġappella vit
ĠMÃ© dico
Ġperf etti
Ġinclu ir
ĠGo han
Ġdesider at
Ġlan zar
Ġgri tos
Ġopti mi
Ġstan dum
Ġcen am
blec er
Ġexter nas
tex to
ĠHo tel
Ġsy n
Ġhumili at
ĠseÃ±al ado
Ġenter ado
Ġstel las
Ġcompe tere
Ġelig ere
Ġllev amos
Ġexerci tum
Consul tez
Ġreco ger
Ġnombra r
ĠXX I
Mira d
Ġexplic an
Ġopin an
Gal erÃŃa
Ġoi gan
Ġcogni tionem
ĠSant Ã©
ĠRespon dit
Ġquic quid
Ġengend rado
Ġnegli gencia
Ġaddi dit
Ġacercar on
Ġacercar se
Ġepisto lam
Ġcomb inaciÃ³n
Ġindependi entes
ĠVes covi
Ġresplan deci
Ġinuti li
ĠSacram entos
ĠEj emplo
Ġcro ce
ĠAz Ãºcar
Ġstri c
Ġgua pa
Ġdesespera ciÃ³n
Ġvigilan cia
Ġgr ues
ĠDeclara tio
Ġenve je
Ġdespo jÃ³
Ġsolem ne
Ġiub et
ĠFortuna ta
Declara ciÃ³n
Ġtrat tare
Ġdiff usus
Ġincredi bile
Ġtristi tia
Ġinterval lisque
ash ington
Ġlascia to
Ġhorri ble
Ġorigina li
Ġjudici i
Ġgeograph ico
tivit Ã©
Ġhisp anos
Comi enza
Ġhall Ã³
Ġdiap ente
Ġparabol am
Ġemploy Ã©s
Ġshor ts
Ġhambr una
% )
B Ãºsqueda
C risti
C osa
D ele
F OR
F eria
G reg
H ch
H erramientas
L ac
L orem
M ac
P eri
S ch
T AM
T his
V ÃŃa
c ÃŃpul
h en
h us
i bi
l len
m eli
n an
p el
t uno
z oso
Ġe je
Ġs cal
Ġa zo
Ġp ani
Ġp han
Ġp uncta
qu ondam
Ġc enso
Ġl ana
ta la
Ġde posita
Ġm ent
ci almente
Ġes emplare
un ia
am en
tu arios
li Ã©
Ġf atti
Ġen quanto
ec erunt
Ġcon dan
Ġdi me
Ġdi ariamente
Ġdi pende
Ġi v
Ġi oc
Ġno ci
Ġt Ã£o
Ġun gens
ol os
Ġre cessit
ĠS era
Ġpa i
Ġpa pi
que Ã±o
Ġlo ucura
ĠP lus
ĠP interest
ch ill
Ġpro puestas
Ġan ual
ĠM ore
Ġex tr
Ġex porta
Ġdes pues
Ġdes pici
od y
Ġle gado
Es iste
oc ar
No i
No vum
Ġto cado
Ġpo enam
end s
Ġca denas
Ġhab rÃ¡n
Ã¡n dez
Ġver Ã©is
du cit
ĠT v
Ġsin is
ĠF oro
pe di
En vi
De j
De cir
ĠV ÃŃ
ĠV ino
Ġpar ri
Ġci as
ĠH erman
ĠJ ack
pos e
Ġcons ensus
ali tatem
ces orios
Ġas sim
Ġam en
tre ma
Ġap un
Ġap asi
Ġta ri
Ġne quit
ĠO R
he Ã§a
Â» )
oso tras
Ġni ente
eb la
Ġr endre
Ġvol uerunt
Ġvol umus
Ġus os
tri cies
Ġneces sitÃł
cion alismo
Ġfi xar
Ġlu to
Ġlu dit
Al tera
Ġvel ut
par encia
Ġmon umento
dic unt
Ġ19 31
Ġ19 44
Ġcam pe
Il lum
Com paÃ±
Ġmin ori
Ġcomp res
Ġlle ve
cis amente
die u
ĠNo ite
gen eraciÃ³n
Ġrespon deo
Ġrespon dent
dre mos
ton ia
Ġinv aria
Ġpat r
Ġfal lar
Ġsum ptus
Ġelec tione
Ġelec tiones
Ex i
cil los
rÃ¡ tico
ph ia
ĠQu ot
Des erunt
Ġmuer tes
ĠU trum
Ġpe de
ĠW est
Ġdei dad
Ġescri turas
bar es
12 5
Ġmol esto
Ġservi unt
Ġves tros
Ġid que
Ġba gno
Ġba ilar
uel e
Ã¨ g
Ġcir cula
Ġiu dici
Ġliber tÃ©
Ġsuf riÃ³
Ġsuf ficere
Ġele gis
Ġfun cionamiento
Cum pli
Ġaf fi
Ġaccep imus
Ġdar ÃŃa
Ġgu ys
Ġdix erat
Ġdolor oso
Ġnostra m
Ġmori ar
Nos tra
ple ta
Ġbus que
Ġvoca vi
ĠLib ri
Ġvin cula
ĠdÃ© bil
Ġinterro gantes
teri oridad
Num erus
Ġvuel vo
Ġproduc tio
Ġdisc ut
ĠMi guel
Ġ0 2
Ġcelebra re
ĠAp aricio
Ġangel is
Ġpes e
Ġpes os
iss es
Ġvisi te
Ġign oro
Ġserv ÃŃan
Ġregi onem
Ġhabita vit
Ġsacri ficar
Ġdivi dido
Ġcompara tio
Ġproces so
ff re
Ġacep tado
ure ux
Ġconsum e
Ġdesa f
Ġfer re
pendi o
Ġdebi ta
Ġaccid entales
Ġale jado
Ġux ore
ĠCam ino
Ġexal tat
ĠPres s
Ġpropor tion
Ġproce dimiento
ĠTer tio
Ġsignific ant
ĠPra e
Ġsepul tus
Ġdob lar
Ġdele ita
Ġsucces sit
Ġconcep tus
Ġlud um
Ġdisputa tionem
Ġdiscip linas
Ġarro gancia
Ġsuffici ens
enci ana
ĠMensa jero
Ġproxim e
Ġrap ina
Ġinclu dit
ĠProf etas
Ġinm enso
Ġlun ga
ĠFam ilias
his torico
ĠFu entes
Ġemo cional
ĠLon don
Ġtransgres sos
guar do
Ġnuo vi
Ġexter no
Ġquaer endam
Ġsubiec to
ĠVerdad ero
Ġabandon Ã³
Ġconcur su
ĠAra b
Ġpudi eran
Ġrecep it
Ġprograma ciÃ³n
ĠAudi te
Ġconduc tor
Fal le
Ġinj uri
Fra ter
Ġatribu ye
ĠRob o
Ġmanifes tar
Ġnar ras
Ġsober anos
Traba jar
Ġocci dere
Lec tura
Ġadqui rir
Ġspes so
Ġrecomenda ciÃ³n
Ġdespre cia
Ġdeser tum
Ġrepet endus
Ġexpul sado
Ġsuscipi amus
ĠDol or
Ġja jaja
Ġdesn uda
Ġinfeli ces
Ġacor do
Ġimmo la
Ġestra tÃ©
Ġdomesti ca
Ceter a
Ġblasf emia
Ġfrustra tionem
Ġmove tur
ĠInvesti re
ĠEj Ã©rcito
Ġrelin quam
etor ica
Regis tra
ĠEpis tula
Ġout ros
Ġsoc or
Ġflam ma
Ġreddi derit
ĠAbi m
Den z
Ġvine am
Ġintr ins
Ġstud enti
person as
Ġlapi dem
Ġvidis sem
Ġpercus sit
ĠClau dia
ĠTec nologÃŃa
Ġdecla rar
may or
Ġcare ce
ĠFlor encia
Ġactua ciÃ³n
jour d
Ġcues tiones
Ġenvej ece
trut tura
ĠmÃ©ri tos
Ġvorre bbe
Ġescen ario
Ġrebelar on
ĠVall enato
ĠIbrÃ¢h Ã®m
eges tate
A van
A prende
B O
B os
D ER
E ff
G an
G EN
G iuseppe
I psum
T ib
W i
a ines
b eli
d ones
d eces
d anos
g los
i gan
r r
u g
v ec
Ġe dades
Ġs ales
Ġc Ã¡
ti tas
or icum
an gu
an ello
un s
ar os
ar gum
to li
om bi
Ġin tre
di m
di cis
di ciendo
Ã³ licos
Ã³ pez
da da
Ġdi minu
em in
el ina
Ġno verunt
ic ales
ic ha
ĠA U
ĠA mp
ĠA lessandro
de ciÃ³
Ġo culo
ĠD or
ul tima
Ġre tir
Ġre minis
Ġqui eto
ĠC erte
Ġg emi
Ġper u
ce bat
ter s
ĠS ali
Ġme x
ue ble
Â¿ Â¿
Ġpa enit
Ġsi gan
ĠE mi
ĠP utin
Ġad je
Ġpro be
Ġpro xima
dad ores
ĠM Ã³
ĠM ant
ĠM eso
ĠM IS
Ġdes li
Ġdes fal
Ġcu alidad
Ġmi ran
ba ba
Ġpara t
Ġpo tero
Ġac cum
Ġhab entur
Ġhab ebis
fi eri
Ġpos ti
ĠL ima
ĠR io
Ġpr isa
Ġso it
Ġcre ando
Ġcre Ã¡is
cu atro
ĠB ac
ĠB ono
ĠB ell
Ġdis tri
ĠIs te
In via
Ġar diente
Ġpri mos
Ġcons is
ĠÃ© sos
Ġfu rios
Ġco de
Ġinter nas
Ġinter reti
Ġdu bia
Ġfac erent
Ġ- Â¿
Ġob vio
Ġab uelos
Ġpas se
Se gura
Ġsa que
Ġda ret
cum Ã©n
Ġpec a
Ġve is
Ġve zi
Ġcos tado
par o
Ġqua erunt
Ġ19 29
Ġ19 45
Ġfaci amus
Ġven tas
Ġhacer me
Ġri pro
Ġcol pa
Ġcol ori
Ġmat rimonios
ni e
[...]
