{
  "version": "1.0",
  "truncation": null,
  "padding": null,
  "added_tokens": [
    {
      "id": 0,
      "content": "<pad>",
      "single_word": false,
      "lstrip": false,
      "rstrip": false,
      "normalized": false,
      "special": true
    },
    {
      "id": 1,
      "content": "<bos>",
      "single_word": false,
      "lstrip": false,
      "rstrip": false,
      "normalized": false,
      "special": true
    },
    {
      "id": 2,
      "content": "<eos>",
      "single_word": false,
      "lstrip": false,
      "rstrip": false,
      "normalized": false,
      "special": true
    },
    {
      "id": 3,
      "content": "<unk>",
      "single_word": false,
      "lstrip": false,
      "rstrip": false,
      "normalized": false,
      "special": true
    }
  ],
  "normalizer": null,
  "pre_tokenizer": {
    "type": "ByteLevel",
    "add_prefix_space": false,
    "trim_offsets": true,
    "use_regex": true
  },
  "post_processor": {
    "type": "ByteLevel",
    "add_prefix_space": true,
    "trim_offsets": false,
    "use_regex": true
  },
  "decoder": {
    "type": "ByteLevel",
    "add_prefix_space": true,
    "trim_offsets": true,
    "use_regex": true
  },
  "model": {
    "type": "BPE",
    "dropout": null,
    "unk_token": null,
    "continuing_subword_prefix": null,
    "end_of_word_suffix": null,
    "fuse_unk": false,
    "byte_fallback": false,
    "ignore_merges": false,
    "vocab": {
      "<pad>": 0,
      "<bos>": 1,
      "<eos>": 2,
      "<unk>": 3,
      "!": 4,
      "\"": 5,
      "#": 6,
      "$": 7,
      "%": 8,
      "&": 9,
      "'": 10,
      "(": 11,
      ")": 12,
      "*": 13,
      "+": 14,
      ",": 15,
      "-": 16,
      ".": 17,
      "/": 18,
      "0": 19,
      "1": 20,
      "2": 21,
      "3": 22,
      "4": 23,
      "5": 24,
      "6": 25,
      "7": 26,
      "8": 27,
      "9": 28,
      ":": 29,
      ";": 30,
      "<": 31,
      "=": 32,
      ">": 33,
      "?": 34,
      "@": 35,
      "A": 36,
      "B": 37,
      "C": 38,
      "D": 39,
      "E": 40,
      "F": 41,
      "G": 42,
      "H": 43,
      "I": 44,
      "J": 45,
      "K": 46,
      "L": 47,
      "M": 48,
      "N": 49,
      "O": 50,
      "P": 51,
      "Q": 52,
      "R": 53,
      "S": 54,
      "T": 55,
      "U": 56,
      "V": 57,
      "W": 58,
      "X": 59,
      "Y": 60,
      "Z": 61,
      "[": 62,
      "\\": 63,
      "]": 64,
      "^": 65,
      "_": 66,
      "`": 67,
      "a": 68,
      "b": 69,
      "c": 70,
      "d": 71,
      "e": 72,
      "f": 73,
      "g": 74,
      "h": 75,
      "i": 76,
      "j": 77,
      "k": 78,
      "l": 79,
      "m": 80,
      "n": 81,
      "o": 82,
      "p": 83,
      "q": 84,
      "r": 85,
      "s": 86,
      "t": 87,
      "u": 88,
      "v": 89,
      "w": 90,
      "x": 91,
      "y": 92,
      "z": 93,
      "{": 94,
      "|": 95,
      "}": 96,
      "~": 97,
      "¡": 98,
      "¢": 99,
      "£": 100,
      "¤": 101,
      "¥": 102,
      "¦": 103,
      "§": 104,
      "¨": 105,
      "©": 106,
      "ª": 107,
      "«": 108,
      "¬": 109,
      "®": 110,
      "¯": 111,
      "°": 112,
      "±": 113,
      "²": 114,
      "³": 115,
      "´": 116,
      "µ": 117,
      "¶": 118,
      "·": 119,
      "¸": 120,
      "¹": 121,
      "º": 122,
      "»": 123,
      "¼": 124,
      "½": 125,
      "¾": 126,
      "¿": 127,
      "À": 128,
      "Á": 129,
      "Â": 130,
      "Ã": 131,
      "Ä": 132,
      "Å": 133,
      "Æ": 134,
      "Ç": 135,
      "È": 136,
      "É": 137,
      "Ê": 138,
      "Ë": 139,
      "Ì": 140,
      "Í": 141,
      "Î": 142,
      "Ï": 143,
      "Ð": 144,
      "Ñ": 145,
      "Ò": 146,
      "Ó": 147,
      "Ô": 148,
      "Õ": 149,
      "Ö": 150,
      "×": 151,
      "Ø": 152,
      "Ù": 153,
      "Ú": 154,
      "Û": 155,
      "Ü": 156,
      "Ý": 157,
      "Þ": 158,
      "ß": 159,
      "à": 160,
      "á": 161,
      "â": 162,
      "ã": 163,
      "ä": 164,
      "å": 165,
      "æ": 166,
      "ç": 167,
      "è": 168,
      "é": 169,
      "ê": 170,
      "ë": 171,
      "ì": 172,
      "í": 173,
      "î": 174,
      "ï": 175,
      "ð": 176,
      "ñ": 177,
      "ò": 178,
      "ó": 179,
      "ô": 180,
      "õ": 181,
      "ö": 182,
      "÷": 183,
      "ø": 184,
      "ù": 185,
      "ú": 186,
      "û": 187,
      "ü": 188,
      "ý": 189,
      "þ": 190,
      "ÿ": 191,
      "Ā": 192,
      "ā": 193,
      "Ă": 194,
      "ă": 195,
      "Ą": 196,
      "ą": 197,
      "Ć": 198,
      "ć": 199,
      "Ĉ": 200,
      "ĉ": 201,
      "Ċ": 202,
      "ċ": 203,
      "Č": 204,
      "č": 205,
      "Ď": 206,
      "ď": 207,
      "Đ": 208,
      "đ": 209,
      "Ē": 210,
      "ē": 211,
      "Ĕ": 212,
      "ĕ": 213,
      "Ė": 214,
      "ė": 215,
      "Ę": 216,
      "ę": 217,
      "Ě": 218,
      "ě": 219,
      "Ĝ": 220,
      "ĝ": 221,
      "Ğ": 222,
      "ğ": 223,
      "Ġ": 224,
      "ġ": 225,
      "Ģ": 226,
      "ģ": 227,
      "Ĥ": 228,
      "ĥ": 229,
      "Ħ": 230,
      "ħ": 231,
      "Ĩ": 232,
      "ĩ": 233,
      "Ī": 234,
      "ī": 235,
      "Ĭ": 236,
      "ĭ": 237,
      "Į": 238,
      "į": 239,
      "İ": 240,
      "ı": 241,
      "Ĳ": 242,
      "ĳ": 243,
      "Ĵ": 244,
      "ĵ": 245,
      "Ķ": 246,
      "ķ": 247,
      "ĸ": 248,
      "Ĺ": 249,
      "ĺ": 250,
      "Ļ": 251,
      "ļ": 252,
      "Ľ": 253,
      "ľ": 254,
      "Ŀ": 255,
      "ŀ": 256,
      "Ł": 257,
      "ł": 258,
      "Ń": 259,
      "Ġe": 260,
      "er": 261,
      "Ġd": 262,
      "Ġs": 263,
      "en": 264,
      "os": 265,
      "es": 266,
      "Ġa": 267,
      "on": 268,
      "Ġp": 269,
      "qu": 270,
      "Ġc": 271,
      "Ġl": 272,
      "ta": 273,
      "ra": 274,
      "in": 275,
      "Ġde": 276,
      "ti": 277,
      "Ġm": 278,
      "Ġqu": 279,
      "or": 280,
      "ci": 281,
      "Ġn": 282,
      "is": 283,
      "re": 284,
      "Ġes": 285,
      "te": 286,
      "an": 287,
      "us": 288,
      "un": 289,
      "as": 290,
      "um": 291,
      "ar": 292,
      "Ġv": 293,
      "am": 294,
      "Ġh": 295,
      "tu": 296,
      "li": 297,
      "to": 298,
      "do": 299,
      "om": 300,
      "Ġin": 301,
      "Ġf": 302,
      "Ġla": 303,
      "Ġen": 304,
      "di": 305,
      "Ã³": 306,
      "ri": 307,
      "Ġque": 308,
      "ÃŃ": 309,
      "Ġy": 310,
      "al": 311,
      "Ġet": 312,
      "da": 313,
      "ro": 314,
      "Ġel": 315,
      "ec": 316,
      "Ġcon": 317,
      "Ġdi": 318,
      "Ã¡": 319,
      "em": 320,
      "Ġi": 321,
      "la": 322,
      "Ã©": 323,
      "Ġest": 324,
      "Ġse": 325,
      "it": 326,
      "el": 327,
      "Ġno": 328,
      "ic": 329,
      "ĠA": 330,
      "Ġt": 331,
      "âĢ": 332,
      "Ġun": 333,
      "de": 334,
      "Ġha": 335,
      "Ġo": 336,
      "ĠD": 337,
      "Ã³n": 338,
      "Ġsu": 339,
      "ol": 340,
      "ul": 341,
      "Ġre": 342,
      "Ġqui": 343,
      "bi": 344,
      "at": 345,
      "res": 346,
      "Qu": 347,
      "le": 348,
      "ĠC": 349,
      "im": 350,
      "Ġg": 351,
      "Ġper": 352,
      "se": 353,
      "ce": 354,
      "Ġlos": 355,
      "Ġnon": 356,
      "..": 357,
      "unt": 358,
      "ter": 359,
      "ĠI": 360,
      "ca": 361,
      "ia": 362,
      "ĠS": 363,
      "Ġme": 364,
      "tur": 365,
      "ent": 366,
      "ue": 367,
      "Â¿": 368,
      "Ġpa": 369,
      "que": 370,
      "Ġcom": 371,
      "Ġdel": 372,
      "Ġsi": 373,
      "ere": 374,
      "vi": 375,
      "ente": 376,
      "Ġb": 377,
      "Ġal": 378,
      "Ġvi": 379,
      "tra": 380,
      "Ġlo": 381,
      "ĠE": 382,
      "ciÃ³n": 383,
      "ĠP": 384,
      "ch": 385,
      "Ġad": 386,
      "si": 387,
      "go": 388,
      "lo": 389,
      "Ġpro": 390,
      "ac": 391,
      "ÃŃa": 392,
      "ut": 393,
      "bra": 394,
      "dad": 395,
      "Ġan": 396,
      "ma": 397,
      "Ġ(": 398,
      "Ġte": 399,
      "Ġpor": 400,
      "Ġtu": 401,
      "ĠM": 402,
      "et": 403,
      "Ġex": 404,
      "Ã±": 405,
      "ae": 406,
      "Ġdes": 407,
      "od": 408,
      "ero": 409,
      "Ġcu": 410,
      "Ġ1": 411,
      "era": 412,
      "pi": 413,
      "cia": 414,
      "tan": 415,
      "tion": 416,
      "mo": 417,
      "ĠDe": 418,
      "tas": 419,
      "tr": 420,
      "mp": 421,
      "Ġti": 422,
      "tes": 423,
      "La": 424,
      "enti": 425,
      "Ġle": 426,
      "dos": 427,
      "Ã¡s": 428,
      "io": 429,
      "gn": 430,
      "ues": 431,
      "Es": 432,
      "oc": 433,
      "Ġmi": 434,
      "ur": 435,
      "ba": 436,
      "ran": 437,
      "gu": 438,
      "Ġsunt": 439,
      "ando": 440,
      "pa": 441,
      "Ġlas": 442,
      "ib": 443,
      "No": 444,
      "Ġ2": 445,
      "brah": 446,
      "mi": 447,
      "Ġto": 448,
      "ones": 449,
      "Ġpara": 450,
      "Ãº": 451,
      "El": 452,
      "Ġpo": 453,
      "braham": 454,
      "...": 455,
      "Ġuna": 456,
      "uer": 457,
      "tem": 458,
      "ora": 459,
      "ver": 460,
      "qui": 461,
      "tis": 462,
      "tam": 463,
      "end": 464,
      "Ġca": 465,
      "bre": 466,
      "gi": 467,
      "Ġac": 468,
      "Et": 469,
      "Ġ[": 470,
      "Ġma": 471,
      "Ġnos": 472,
      "enta": 473,
      "Ġres": 474,
      "per": 475,
      "Ġhab": 476,
      "ens": 477,
      "âĢĿ": 478,
      "fi": 479,
      "ĠAbraham": 480,
      "Ġil": 481,
      "ed": 482,
      "Ġpos": 483,
      "co": 484,
      "za": 485,
      "ĠL": 486,
      "Ã¡n": 487,
      "ina": 488,
      "Ġver": 489,
      "ga": 490,
      "ios": 491,
      "Ġser": 492,
      "il": 493,
      "Ġmis": 494,
      "ĠR": 495,
      "Qui": 496,
      "du": 497,
      "Ġcum": 498,
      "va": 499,
      "ĠT": 500,
      "ĠâĢ": 501,
      "les": 502,
      "Ġsin": 503,
      "ento": 504,
      "Ġpr": 505,
      "Ġso": 506,
      "vo": 507,
      "ris": 508,
      "ab": 509,
      "Ġmu": 510,
      "Ġau": 511,
      "Un": 512,
      "tor": 513,
      "Ġcre": 514,
      "Ġj": 515,
      "ica": 516,
      "ĠF": 517,
      "ĠÂ": 518,
      "Ġesse": 519,
      "no": 520,
      "ene": 521,
      "tura": 522,
      "cu": 523,
      "pe": 524,
      "tum": 525,
      "En": 526,
      "ĠDeus": 527,
      "De": 528,
      "Ġna": 529,
      "tar": 530,
      "tro": 531,
      "jo": 532,
      "ĠB": 533,
      "ĠV": 534,
      "Ġdis": 535,
      "Ġut": 536,
      "pon": 537,
      "Ġson": 538,
      "Ġali": 539,
      "Ġpar": 540,
      "ĠN": 541,
      "ores": 542,
      "Ġci": 543,
      "ĠIs": 544,
      "tos": 545,
      "po": 546,
      "ve": 547,
      "tio": 548,
      "ĠG": 549,
      "omin": 550,
      "tus": 551,
      "Ġpue": 552,
      "Ġquod": 553,
      "tros": 554,
      "In": 555,
      "eni": 556,
      "entes": 557,
      "Ġcomo": 558,
      "ad": 559,
      "ius": 560,
      "ĠmÃ¡s": 561,
      "Ã©n": 562,
      "Ġar": 563,
      "Ġfa": 564,
      "Ġtra": 565,
      "ili": 566,
      "encia": 567,
      "cri": 568,
      "ĠH": 569,
      "Ġsus": 570,
      "ĠJ": 571,
      "one": 572,
      "fer": 573,
      "pos": 574,
      "los": 575,
      "ore": 576,
      "der": 577,
      "Ġpri": 578,
      "Ġcons": 579,
      "Si": 580,
      "ali": 581,
      "ces": 582,
      "ĠDios": 583,
      "cit": 584,
      "endi": 585,
      "ĠIn": 586,
      "ud": 587,
      "cio": 588,
      "Ġas": 589,
      "ita": 590,
      "Ġam": 591,
      "ĠÃ": 592,
      "ciones": 593,
      "ĠÃ©": 594,
      "tre": 595,
      "tin": 596,
      "omo": 597,
      "Ġman": 598,
      "ĠÂ¿": 599,
      "Ġaqu": 600,
      "Ġ\"": 601,
      "ado": 602,
      "cul": 603,
      "Ġlib": 604,
      "ales": 605,
      "Ġ20": 606,
      "Ġquam": 607,
      "Ġpre": 608,
      "Ġmo": 609,
      "Ġsol": 610,
      "con": 611,
      "Ġfu": 612,
      "Ġcor": 613,
      "Ġap": 614,
      "Ġco": 615,
      "Ġta": 616,
      "Ġquid": 617,
      "so": 618,
      "eces": 619,
      "Ġinter": 620,
      "Ġdu": 621,
      "cer": 622,
      "Ġne": 623,
      "gun": 624,
      "hi": 625,
      "Ġpers": 626,
      "esti": 627,
      "ari": 628,
      "Ġesta": 629,
      "eli": 630,
      "ru": 631,
      "Ġdic": 632,
      "ĠAl": 633,
      "quam": 634,
      "omn": 635,
      "ori": 636,
      "Â¡": 637,
      "Ġfor": 638,
      "ĠâĢľ": 639,
      "ĠO": 640,
      "endo": 641,
      ").": 642,
      "he": 643,
      "Sed": 644,
      "Ġimp": 645,
      "Ġfac": 646,
      "Â»": 647,
      "des": 648,
      "oso": 649,
      "Ġ:": 650,
      "Ġ-": 651,
      "Ġob": 652,
      "Ġop": 653,
      "ano": 654,
      "Con": 655,
      "vit": 656,
      "Cu": 657,
      "fec": 658,
      "gar": 659,
      "Ġsal": 660,
      "me": 661,
      "Ġab": 662,
      "ant": 663,
      "ne": 664,
      "Ġomn": 665,
      "Ġter": 666,
      "che": 667,
      "Ġni": 668,
      "Ġpu": 669,
      "Ġhi": 670,
      "ob": 671,
      "ico": 672,
      "ona": 673,
      "eric": 674,
      "eri": 675,
      "Por": 676,
      "âĢĿ.": 677,
      "sa": 678,
      "Non": 679,
      "gra": 680,
      "das": 681,
      "Ġis": 682,
      "na": 683,
      "Ġquae": 684,
      "ana": 685,
      "eb": 686,
      "ino": 687,
      "lam": 688,
      "Los": 689,
      "Ġhay": 690,
      "Ġr": 691,
      "Ġera": 692,
      "Ġpas": 693,
      "ech": 694,
      "Ġu": 695,
      "ĠEs": 696,
      "ĠIsra": 697,
      "dia": 698,
      "ir": 699,
      "oni": 700,
      "Ġvol": 701,
      "Ġenim": 702,
      "Ã©s": 703,
      "ena": 704,
      "lica": 705,
      "pu": 706,
      "dit": 707,
      "rio": 708,
      "zi": 709,
      "Ġsub": 710,
      "Ġtan": 711,
      "Me": 712,
      "emp": 713,
      "Ã±o": 714,
      "Ġsed": 715,
      "Ġdesc": 716,
      "emos": 717,
      "fici": 718,
      "bo": 719,
      "Pero": 720,
      "Ġcas": 721,
      "ini": 722,
      "Se": 723,
      "Ġcar": 724,
      "Ġbi": 725,
      "Ġus": 726,
      "tri": 727,
      "Ġautem": 728,
      "ericor": 729,
      "fica": 730,
      "Ġpotes": 731,
      "Ġtam": 732,
      "Ġgra": 733,
      "Ġcontra": 734,
      "ombre": 735,
      "mos": 736,
      "sim": 737,
      "Ġpl": 738,
      "ĠÃ©l": 739,
      "isi": 740,
      "Ãł": 741,
      "ine": 742,
      "man": 743,
      "Ġsa": 744,
      "jos": 745,
      "Ġten": 746,
      "âĢĻ": 747,
      "Ġra": 748,
      "Ġmisericor": 749,
      "Ã³mo": 750,
      "las": 751,
      "Ġneces": 752,
      "Ġgus": 753,
      "ĠestÃ¡": 754,
      "den": 755,
      "Ġtemp": 756,
      "ara": 757,
      "Quid": 758,
      "Ġda": 759,
      "QuÃ©": 760,
      "cion": 761,
      "tionem": 762,
      "Ġfi": 763,
      "ĠaquÃŃ": 764,
      "Ġlu": 765,
      "ven": 766,
      "Ġeum": 767,
      "Ġ3": 768,
      "âĢ¦": 769,
      "amos": 770,
      "Ġmal": 771,
      "ten": 772,
      "âĢľ": 773,
      "Al": 774,
      "cum": 775,
      "Ġeius": 776,
      "Ġnues": 777,
      "00": 778,
      "cias": 779,
      "pues": 780,
      "dio": 781,
      "cep": 782,
      "lis": 783,
      "Ãºn": 784,
      "Ġpec": 785,
      "Ġve": 786,
      "Ha": 787,
      "Ġpra": 788,
      "Ġvo": 789,
      "ber": 790,
      "Ġquien": 791,
      "por": 792,
      "anc": 793,
      "Ġmul": 794,
      "tione": 795,
      "Ġvel": 796,
      "ella": 797,
      "je": 798,
      "ĠIsrael": 799,
      "ante": 800,
      "Ġmuch": 801,
      "Ġrec": 802,
      "amente": 803,
      "Ġcos": 804,
      "gui": 805,
      "ge": 806,
      "Ġsec": 807,
      "Ã±os": 808,
      "par": 809,
      "Ġfuer": 810,
      "Ġfue": 811,
      "Ġdici": 812,
      "Ġmon": 813,
      "Ġpuede": 814,
      "Ġpi": 815,
      "ui": 816,
      "Ġvos": 817,
      "Ġqua": 818,
      "Ġor": 819,
      "ĠCon": 820,
      "be": 821,
      "Ġ201": 822,
      "Ġbien": 823,
      "dic": 824,
      "ario": 825,
      "Ġquem": 826,
      "Ġquo": 827,
      "orum": 828,
      "Ġsim": 829,
      "Ġesto": 830,
      "titu": 831,
      "tae": 832,
      "Ġquia": 833,
      "Ġmor": 834,
      "Ġeste": 835,
      "ale": 836,
      "Ġdeci": 837,
      "uc": 838,
      "ras": 839,
      "rec": 840,
      "Ġgen": 841,
      "Ġ19": 842,
      "Ġaut": 843,
      "Ġhum": 844,
      "Ġfaci": 845,
      "Ġdice": 846,
      "Ġpotest": 847,
      "lia": 848,
      "Ġentre": 849,
      "inci": 850,
      "duc": 851,
      "Ġoc": 852,
      "Ġprop": 853,
      "fic": 854,
      "und": 855,
      "ĠSe": 856,
      "Ġins": 857,
      "eron": 858,
      "lah": 859,
      "Ġpero": 860,
      "Ġsobre": 861,
      "usa": 862,
      "ĠdÃŃa": 863,
      "Ġante": 864,
      "min": 865,
      "Ġhoc": 866,
      "Ġprim": 867,
      "Ġfe": 868,
      "Ġprom": 869,
      "zo": 870,
      "Ġer": 871,
      "for": 872,
      "ÃŃas": 873,
      "ĠÃ¨": 874,
      "Ġgusta": 875,
      "Ġcam": 876,
      "ria": 877,
      "Ġyo": 878,
      "Il": 879,
      "Ġven": 880,
      "bus": 881,
      "Ġche": 882,
      "ĠquÃ©": 883,
      "Ġip": 884,
      "unc": 885,
      "mente": 886,
      "Ġverdad": 887,
      "undo": 888,
      "Ġhacer": 889,
      "ĠÂ«": 890,
      "Ġri": 891,
      "dem": 892,
      "ĠEl": 893,
      "Ġsem": 894,
      "Com": 895,
      "Ġnoche": 896,
      "Ġtodo": 897,
      "tic": 898,
      "ior": 899,
      "Ġmin": 900,
      "Ġquis": 901,
      "xit": 902,
      "Ġcomp": 903,
      "Ġat": 904,
      "Ġvero": 905,
      "Ġcol": 906,
      "Ġ?": 907,
      "tia": 908,
      "Ġtiene": 909,
      "Ġvida": 910,
      "erra": 911,
      "Ġsit": 912,
      "Ġnoc": 913,
      "sum": 914,
      "Ġcuando": 915,
      "ros": 916,
      "Ġbu": 917,
      "gni": 918,
      "Ġsab": 919,
      "uni": 920,
      "Ġlle": 921,
      "tate": 922,
      "Ġmat": 923,
      "\".": 924,
      "lar": 925,
      "Ġles": 926,
      "og": 927,
      "pul": 928,
      "Ġcan": 929,
      "tivo": 930,
      "ble": 931,
      "tiones": 932,
      "ni": 933,
      "ĠY": 934,
      "quid": 935,
      "Di": 936,
      "bis": 937,
      "Ġpres": 938,
      "ĠLa": 939,
      "vos": 940,
      "Ġtodos": 941,
      "Ġomnes": 942,
      "entos": 943,
      "au": 944,
      "Ġos": 945,
      "tel": 946,
      "Ġ4": 947,
      "ja": 948,
      "erunt": 949,
      "cis": 950,
      "Ġanno": 951,
      "nos": 952,
      "Ġanim": 953,
      "lic": 954,
      "rim": 955,
      "Ġea": 956,
      "Que": 957,
      "vis": 958,
      "para": 959,
      "Ġ5": 960,
      "entia": 961,
      "Ġhora": 962,
      "die": 963,
      "Ġdicit": 964,
      "van": 965,
      "An": 966,
      "Ġju": 967,
      "tica": 968,
      "Ġhas": 969,
      "asi": 970,
      "ĠNo": 971,
      "Ġnatura": 972,
      "eros": 973,
      "gos": 974,
      "Ġpod": 975,
      "gen": 976,
      "ala": 977,
      "Ġvis": 978,
      "risto": 979,
      "pec": 980,
      "Ġfin": 981,
      "ĠAn": 982,
      "Ġrespon": 983,
      "Re": 984,
      "Ġinc": 985,
      "Ġconsi": 986,
      "ĠRe": 987,
      "gli": 988,
      "Ġgran": 989,
      "II": 990,
      "Ġnada": 991,
      "tÃŃ": 992,
      "Ġrespues": 993,
      "Ã±a": 994,
      "dre": 995,
      "esta": 996,
      "ton": 997,
      "ĠAllah": 998,
      "Ġerat": 999,
      "Ġvide": 1000,
      "ĠmÃŃ": 1001,
      "anto": 1002,
      "ĠDei": 1003,
      "Ġsac": 1004,
      "zione": 1005,
      "Ġhaec": 1006,
      "CÃ³mo": 1007,
      "Ġmodo": 1008,
      "Ġcomenta": 1009,
      "eno": 1010,
      "gis": 1011,
      "hil": 1012,
      "bu": 1013,
      "ani": 1014,
      "vid": 1015,
      "ĠÂ»": 1016,
      "mas": 1017,
      "aria": 1018,
      "Ġhomin": 1019,
      "acob": 1020,
      "espon": 1021,
      "Ġinv": 1022,
      "Ġpat": 1023,
      "ĠIsa": 1024,
      "Ġdos": 1025,
      "pro": 1026,
      "tiam": 1027,
      "edi": 1028,
      "ĠCh": 1029,
      "ÃŃan": 1030,
      "Ġmihi": 1031,
      "jer": 1032,
      "cita": 1033,
      "Ġem": 1034,
      "Ġpla": 1035,
      "Ġvir": 1036,
      "usti": 1037,
      "10": 1038,
      "miento": 1039,
      "tatem": 1040,
      "Ġrespuesta": 1041,
      "tir": 1042,
      "osotros": 1043,
      "elo": 1044,
      "Ġmuy": 1045,
      "Ġfal": 1046,
      "ted": 1047,
      "ub": 1048,
      "mis": 1049,
      "Ġprinci": 1050,
      "lan": 1051,
      "crip": 1052,
      "Le": 1053,
      "alis": 1054,
      "est": 1055,
      "Ġami": 1056,
      "Ġellos": 1057,
      "Ġdijo": 1058,
      "dam": 1059,
      "Ġhu": 1060,
      "Ġquando": 1061,
      "ha": 1062,
      "oy": 1063,
      "ĠIsaac": 1064,
      "Ġdella": 1065,
      "Ġdiv": 1066,
      "Ġmismo": 1067,
      "Ġego": 1068,
      "Ġcer": 1069,
      "14": 1070,
      "lec": 1071,
      "ĠSi": 1072,
      "Ġsum": 1073,
      "20": 1074,
      "Ġelec": 1075,
      "Ġhombre": 1076,
      "Ġdol": 1077,
      "Ġpues": 1078,
      "Ġsic": 1079,
      "gel": 1080,
      "tado": 1081,
      "Ex": 1082,
      "gua": 1083,
      "iÃ³n": 1084,
      "enda": 1085,
      "Ġof": 1086,
      "tad": 1087,
      "toria": 1088,
      "19": 1089,
      "Ġita": 1090,
      "Ġdom": 1091,
      "Ġ.": 1092,
      "),": 1093,
      "tal": 1094,
      "Ġhabi": 1095,
      "xim": 1096,
      "Ġconse": 1097,
      "Ġhis": 1098,
      "Ġcausa": 1099,
      "echo": 1100,
      "ea": 1101,
      "lidad": 1102,
      "nam": 1103,
      "Ġtiem": 1104,
      "Ġcual": 1105,
      "can": 1106,
      "Ġnum": 1107,
      "gno": 1108,
      "As": 1109,
      "Ġ/": 1110,
      "gan": 1111,
      "gina": 1112,
      "zar": 1113,
      "Ġpost": 1114,
      "Ġbene": 1115,
      "Ġmenti": 1116,
      "cil": 1117,
      "ĠEn": 1118,
      "eter": 1119,
      "Ġpersona": 1120,
      "Ġ...": 1121,
      "Ġdescend": 1122,
      "Ġya": 1123,
      "gnos": 1124,
      "Lo": 1125,
      "Ġterra": 1126,
      "Ġexp": 1127,
      "ular": 1128,
      "rÃ¡": 1129,
      "Ġdif": 1130,
      "duce": 1131,
      "Una": 1132,
      "Las": 1133,
      "ex": 1134,
      "Ġeos": 1135,
      "chi": 1136,
      "ĠCar": 1137,
      "ph": 1138,
      "Ġher": 1139,
      "Ġsino": 1140,
      "oci": 1141,
      "risti": 1142,
      "Ġforma": 1143,
      "Â«": 1144,
      "Ġfili": 1145,
      "Ġhabet": 1146,
      "11": 1147,
      "lu": 1148,
      "ĠMa": 1149,
      "vers": 1150,
      "ĠDomin": 1151,
      "Pro": 1152,
      "ĠaÃ±os": 1153,
      "untur": 1154,
      "ĠQu": 1155,
      "hora": 1156,
      "pis": 1157,
      "Ġsua": 1158,
      "biÃ©n": 1159,
      "Per": 1160,
      "ban": 1161,
      "Ã£": 1162,
      "gÃºn": 1163,
      "Ġuno": 1164,
      "dis": 1165,
      "Ġcomentario": 1166,
      "ĠEt": 1167,
      "Ġnue": 1168,
      "lig": 1169,
      "OR": 1170,
      "Ġveni": 1171,
      "ibus": 1172,
      "ÃŃs": 1173,
      "Des": 1174,
      "Ġfra": 1175,
      "pre": 1176,
      "Ġcul": 1177,
      "lesia": 1178,
      "Ġdec": 1179,
      "Ġtraba": 1180,
      "elar": 1181,
      "Ġmuer": 1182,
      "Ġsuper": 1183,
      "dae": 1184,
      "uta": 1185,
      "Ġprof": 1186,
      "are": 1187,
      "Ġmen": 1188,
      "Ġperson": 1189,
      "gre": 1190,
      "Ar": 1191,
      "Ġmej": 1192,
      "car": 1193,
      "cet": 1194,
      "Yo": 1195,
      "lem": 1196,
      "dere": 1197,
      "pio": 1198,
      "ĠU": 1199,
      "Ġpe": 1200,
      "anos": 1201,
      "Â».": 1202,
      "tionis": 1203,
      "Ġmar": 1204,
      "Ġnoso": 1205,
      "Ġeso": 1206,
      "ender": 1207,
      "bras": 1208,
      "Ġllam": 1209,
      "mon": 1210,
      "Ġtiempo": 1211,
      "teg": 1212,
      "Ã±or": 1213,
      "atus": 1214,
      "posi": 1215,
      "din": 1216,
      "ves": 1217,
      "âĨ": 1218,
      "cc": 1219,
      "uit": 1220,
      "dor": 1221,
      "enes": 1222,
      "culo": 1223,
      "ho": 1224,
      "Ġposs": 1225,
      "Ġnosotros": 1226,
      "up": 1227,
      "Ġsuo": 1228,
      "eta": 1229,
      "ritu": 1230,
      "ĠUn": 1231,
      "Ġei": 1232,
      "lus": 1233,
      "Ã©is": 1234,
      "ĠLe": 1235,
      "Ġsolo": 1236,
      "ĠW": 1237,
      "gin": 1238,
      "Ġuni": 1239,
      "diam": 1240,
      "ĠâĢĵ": 1241,
      "ser": 1242,
      "oria": 1243,
      "Ġmundo": 1244,
      "empre": 1245,
      "Ã³lo": 1246,
      "Ġva": 1247,
      "reo": 1248,
      "bres": 1249,
      "ome": 1250,
      "sion": 1251,
      "Ãºs": 1252,
      "Ġcel": 1253,
      "Ġdeb": 1254,
      "].": 1255,
      "Ġparte": 1256,
      "Ġtibi": 1257,
      "Ġdicitur": 1258,
      "Ġsan": 1259,
      "Ġtran": 1260,
      "Ġtaber": 1261,
      "Ġsue": 1262,
      "Est": 1263,
      "ĠCanc": 1264,
      "ok": 1265,
      "ensa": 1266,
      "Ġtua": 1267,
      "cho": 1268,
      "jar": 1269,
      "peci": 1270,
      ".\"": 1271,
      "Ġalgo": 1272,
      "Ġim": 1273,
      "ĠRom": 1274,
      "Ġtres": 1275,
      "ĠDi": 1276,
      "Ġ200": 1277,
      "Ġpon": 1278,
      "ĠCancelar": 1279,
      "Ġch": 1280,
      "ĠMar": 1281,
      "ulla": 1282,
      "Ġhace": 1283,
      "gna": 1284,
      "esponder": 1285,
      "Ġtamen": 1286,
      "Ġiam": 1287,
      "ĠPro": 1288,
      "Ġinf": 1289,
      "cip": 1290,
      "Ġ6": 1291,
      "Ġhac": 1292,
      "Ġcrea": 1293,
      "tÃ³": 1294,
      "ĠaÃ±o": 1295,
      "usto": 1296,
      "tiva": 1297,
      "ĠsÃŃ": 1298,
      "veni": 1299,
      "Ad": 1300,
      "Ġmea": 1301,
      "Ġconf": 1302,
      "turo": 1303,
      "Ġtierra": 1304,
      "Ġvosotros": 1305,
      "Ġall": 1306,
      "Ġaliqu": 1307,
      "Ġisra": 1308,
      "Ġhe": 1309,
      "Mi": 1310,
      "Ġdei": 1311,
      "Ġsci": 1312,
      "gitur": 1313,
      "Ġamor": 1314,
      "Ġreli": 1315,
      "una": 1316,
      "Ġtesti": 1317,
      "uego": 1318,
      "troduce": 1319,
      "tat": 1320,
      "ĠÂ·": 1321,
      "Ġhijos": 1322,
      "ĠAr": 1323,
      "ĠCristo": 1324,
      "Ġdecir": 1325,
      "Ca": 1326,
      "Ġag": 1327,
      "ĠasÃŃ": 1328,
      "olo": 1329,
      "imus": 1330,
      "Ġporque": 1331,
      "īl": 1332,
      "Ġaliquid": 1333,
      "Ġescri": 1334,
      "eo": 1335,
      "Ġ|": 1336,
      "bar": 1337,
      "Vi": 1338,
      "cios": 1339,
      "Ġdon": 1340,
      "ĠCa": 1341,
      "12": 1342,
      "OS": 1343,
      "lio": 1344,
      "dades": 1345,
      "rar": 1346,
      "rem": 1347,
      "tras": 1348,
      "ĠtambiÃ©n": 1349,
      "!!": 1350,
      "Ġfam": 1351,
      "ĠIntroduce": 1352,
      "Ġusted": 1353,
      "Ġbon": 1354,
      "Ġaudi": 1355,
      "Ġperfec": 1356,
      "Cor": 1357,
      "Ġcomm": 1358,
      "15": 1359,
      "Ġalgun": 1360,
      "Ġfuturo": 1361,
      "Ġmol": 1362,
      "Ġtri": 1363,
      "Ġpromis": 1364,
      "Ġhasta": 1365,
      "Ġej": 1366,
      "gres": 1367,
      "Ġverita": 1368,
      "ua": 1369,
      "Ġhom": 1370,
      "Ġfacere": 1371,
      "Ġmisericordia": 1372,
      "Ġexis": 1373,
      "ula": 1374,
      "Ġleg": 1375,
      "siones": 1376,
      "Ġ10": 1377,
      "Ġmom": 1378,
      "Ġsine": 1379,
      "Ġfav": 1380,
      "Ġhan": 1381,
      "ĠtÃº": 1382,
      "tonces": 1383,
      "tamente": 1384,
      "Ġdomin": 1385,
      "QuiÃ©n": 1386,
      "Ġmedi": 1387,
      "Ġdef": 1388,
      "iu": 1389,
      "ĠestÃ¡n": 1390,
      "cha": 1391,
      "Quam": 1392,
      "ici": 1393,
      "non": 1394,
      "Ġpare": 1395,
      "ire": 1396,
      "Ġservi": 1397,
      "Ġtanto": 1398,
      "iores": 1399,
      "Ġparti": 1400,
      "Cuando": 1401,
      "Ġquidem": 1402,
      "lum": 1403,
      "tare": 1404,
      "Ġves": 1405,
      "Ġid": 1406,
      "ĠPa": 1407,
      "Como": 1408,
      "Ġora": 1409,
      "Ġnun": 1410,
      "Ġba": 1411,
      "tante": 1412,
      "oco": 1413,
      "uel": 1414,
      "Para": 1415,
      "Ġlab": 1416,
      "pti": 1417,
      "Ġro": 1418,
      "ĠhabÃŃa": 1419,
      "Ã¨": 1420,
      "Ġella": 1421,
      "rit": 1422,
      "ible": 1423,
      "versi": 1424,
      "erto": 1425,
      "Ġcir": 1426,
      "ĠCom": 1427,
      "lla": 1428,
      "lium": 1429,
      "Ġiu": 1430,
      "lti": 1431,
      "Ġcui": 1432,
      "enen": 1433,
      "itter": 1434,
      "Rec": 1435,
      "Ġreci": 1436,
      "pera": 1437,
      "cto": 1438,
      "Ġsenti": 1439,
      "almente": 1440,
      "ace": 1441,
      "vas": 1442,
      "18": 1443,
      "Ġess": 1444,
      "Ġquan": 1445,
      "Ġ8": 1446,
      "Ġdo": 1447,
      "Ġabs": 1448,
      "Ġtoda": 1449,
      ".âĢĿ": 1450,
      "uro": 1451,
      "ensi": 1452,
      "forma": 1453,
      "isse": 1454,
      "endit": 1455,
      "yo": 1456,
      "deo": 1457,
      "Ã§": 1458,
      "rum": 1459,
      "Ġintel": 1460,
      "Ġvirtu": 1461,
      "ĠNa": 1462,
      "Ġvez": 1463,
      "Ġsicut": 1464,
      "Ġay": 1465,
      "Ġrep": 1466,
      "esa": 1467,
      "Su": 1468,
      "orem": 1469,
      "eat": 1470,
      "endum": 1471,
      "Imp": 1472,
      "Ã³nico": 1473,
      "hel": 1474,
      "rÃŃa": 1475,
      "Haec": 1476,
      "bat": 1477,
      "Ġsoy": 1478,
      "pli": 1479,
      "dum": 1480,
      "vere": 1481,
      "mus": 1482,
      "Ġille": 1483,
      "Ġdixit": 1484,
      "Ġlibro": 1485,
      "Ġcosas": 1486,
      "Ġelectr": 1487,
      "cus": 1488,
      "Ã³nde": 1489,
      "13": 1490,
      "Ġeis": 1491,
      "Ġdoc": 1492,
      "log": 1493,
      "Ã£o": 1494,
      "omodo": 1495,
      "Ġello": 1496,
      "Ġmujer": 1497,
      "Ġmejor": 1498,
      "aron": 1499,
      "Ġnoctur": 1500,
      "Ġsea": 1501,
      "ĠJes": 1502,
      "Ġcognos": 1503,
      "iento": 1504,
      "dica": 1505,
      "Ġhic": 1506,
      "Ġmisericordiam": 1507,
      "Tu": 1508,
      "Ġpadre": 1509,
      "Ġpopul": 1510,
      "Ġmucho": 1511,
      "eria": 1512,
      "ĠSeÃ±or": 1513,
      "16": 1514,
      "ing": 1515,
      "Ġcasa": 1516,
      "Ġnunc": 1517,
      "Ġvul": 1518,
      "sis": 1519,
      "erum": 1520,
      "ono": 1521,
      "Ġhecho": 1522,
      "Ti": 1523,
      "embre": 1524,
      "Unde": 1525,
      "uda": 1526,
      "ĠÂ¡": 1527,
      "tico": 1528,
      "Pos": 1529,
      "ola": 1530,
      "Ġrela": 1531,
      "rios": 1532,
      "Ġpuer": 1533,
      "Ġplus": 1534,
      "Ġ7": 1535,
      "sus": 1536,
      "Ġnocte": 1537,
      "ĠX": 1538,
      "unque": 1539,
      "Ġpala": 1540,
      "book": 1541,
      "Ġconfi": 1542,
      "AsÃŃ": 1543,
      "vel": 1544,
      "Ġpossi": 1545,
      "Ġvia": 1546,
      "Ġ9": 1547,
      "Ġliber": 1548,
      "tores": 1549,
      "Ġmod": 1550,
      "ĠelectrÃ³nico": 1551,
      "Ġnombre": 1552,
      "Ġese": 1553,
      "mir": 1554,
      "gas": 1555,
      "Ġvivi": 1556,
      "ende": 1557,
      "qua": 1558,
      "esto": 1559,
      "undum": 1560,
      "ĠSan": 1561,
      "cel": 1562,
      "Ġcal": 1563,
      "Ġlugar": 1564,
      ".)": 1565,
      "adre": 1566,
      "gue": 1567,
      "ura": 1568,
      "Ġsing": 1569,
      "To": 1570,
      "Ġquin": 1571,
      "Te": 1572,
      "17": 1573,
      "Sin": 1574,
      "enza": 1575,
      "Ġmas": 1576,
      "Esto": 1577,
      "Ġsigni": 1578,
      "Ġtuo": 1579,
      "Ġnihil": 1580,
      "Ġcontin": 1581,
      "Ġreligi": 1582,
      "Ġfamili": 1583,
      "Ġestaba": 1584,
      "Ġvita": 1585,
      "bit": 1586,
      "dar": 1587,
      "Ġemp": 1588,
      "paÃ±": 1589,
      "Ġdistin": 1590,
      "entum": 1591,
      "Ġli": 1592,
      "Ġpub": 1593,
      "Ã©r": 1594,
      "gando": 1595,
      "inos": 1596,
      "Ġtempore": 1597,
      "cid": 1598,
      "Er": 1599,
      "MÃ¡s": 1600,
      "Ġnom": 1601,
      "ĠDa": 1602,
      "pÃŃ": 1603,
      "Ma": 1604,
      "ya": 1605,
      "erno": 1606,
      "Ter": 1607,
      "Ġhombres": 1608,
      "acebook": 1609,
      "Ġpueb": 1610,
      "Ġmeus": 1611,
      "tique": 1612,
      "ece": 1613,
      "Ġipse": 1614,
      "trar": 1615,
      "bile": 1616,
      "unto": 1617,
      "Ġnuestro": 1618,
      "Ġeo": 1619,
      "ulta": 1620,
      "cas": 1621,
      "andae": 1622,
      "Ġilli": 1623,
      "quier": 1624,
      "mor": 1625,
      "ans": 1626,
      "pero": 1627,
      "Ġsoci": 1628,
      "ecu": 1629,
      "Ġsuf": 1630,
      "verunt": 1631,
      "Ġmil": 1632,
      "ĠSa": 1633,
      "Ġconc": 1634,
      "ram": 1635,
      "ÃŃn": 1636,
      "id": 1637,
      "anza": 1638,
      "Ġerr": 1639,
      "Ġapud": 1640,
      "Ġprima": 1641,
      "gio": 1642,
      "var": 1643,
      "su": 1644,
      "Ġtus": 1645,
      "Ġanti": 1646,
      "Ġtrans": 1647,
      "Ġdie": 1648,
      "tamos": 1649,
      "erat": 1650,
      "Ġsta": 1651,
      "antes": 1652,
      "Ġdeus": 1653,
      "via": 1654,
      "Ġetiam": 1655,
      "âĨĴ": 1656,
      "Ġergo": 1657,
      "Ġval": 1658,
      "Ġele": 1659,
      "Esta": 1660,
      "ĠsÃ³lo": 1661,
      "Ġfun": 1662,
      "Ġgl": 1663,
      "Ġaquel": 1664,
      "Ġcarne": 1665,
      "puÃ©s": 1666,
      "Po": 1667,
      "ĠquiÃ©n": 1668,
      "Ġsiempre": 1669,
      "Ġpregun": 1670,
      "atum": 1671,
      "rante": 1672,
      "Ġcuer": 1673,
      "Ġsint": 1674,
      "Ġmomento": 1675,
      "Ġreali": 1676,
      "Ġado": 1677,
      "Ġquiere": 1678,
      "Ã¹": 1679,
      "Ġesset": 1680,
      "cido": 1681,
      "bili": 1682,
      "vol": 1683,
      "ĠÃº": 1684,
      "âĢĶ": 1685,
      "peri": 1686,
      "At": 1687,
      "Ġnes": 1688,
      "Ġir": 1689,
      "ĠCor": 1690,
      "Ġfavor": 1691,
      "Ġho": 1692,
      "eres": 1693,
      "taciÃ³n": 1694,
      "Ġsur": 1695,
      "cuent": 1696,
      "Ġ15": 1697,
      "Dios": 1698,
      "Cum": 1699,
      "AN": 1700,
      "geli": 1701,
      "Ġquasi": 1702,
      "Ġ18": 1703,
      "culos": 1704,
      "isti": 1705,
      "mar": 1706,
      "eris": 1707,
      "nes": 1708,
      "ĠVi": 1709,
      "Ġahora": 1710,
      "Ġmer": 1711,
      "Ġigitur": 1712,
      "feros": 1713,
      "ĠserÃ¡": 1714,
      "Ġnulla": 1715,
      "glesia": 1716,
      "guiente": 1717,
      "Ġtut": 1718,
      "quÃ©": 1719,
      "],": 1720,
      "ag": 1721,
      "Ġul": 1722,
      "Hab": 1723,
      "ĠPat": 1724,
      "Mu": 1725,
      "and": 1726,
      "dores": 1727,
      "Ġsingular": 1728,
      "ĠÃł": 1729,
      "zÃ³n": 1730,
      "Ġencon": 1731,
      "antur": 1732,
      "Ġnuestros": 1733,
      "Ġmay": 1734,
      "Ġaf": 1735,
      "Ġsegu": 1736,
      "Ġaccep": 1737,
      "Ġconsider": 1738,
      "nae": 1739,
      "Ġmes": 1740,
      "ES": 1741,
      "orda": 1742,
      "mina": 1743,
      "Ġori": 1744,
      "Ġestar": 1745,
      "Ġuti": 1746,
      "echa": 1747,
      "cere": 1748,
      "cera": 1749,
      "sit": 1750,
      "Na": 1751,
      "VI": 1752,
      "osa": 1753,
      "Hay": 1754,
      "Ġris": 1755,
      "Ġfr": 1756,
      "Ġmortu": 1757,
      "icos": 1758,
      "terior": 1759,
      "ĠAs": 1760,
      "Ġvolun": 1761,
      "Âª": 1762,
      "Ġcambi": 1763,
      "Ã²": 1764,
      "Ġnobis": 1765,
      "iste": 1766,
      "Ġotros": 1767,
      "vÃŃa": 1768,
      "ĠÃ¡n": 1769,
      "Ġantes": 1770,
      "pr": 1771,
      "Ġef": 1772,
      "Ġ'": 1773,
      "Ġsido": 1774,
      "arios": 1775,
      "ĠAlÃ¡": 1776,
      "ĠdÃŃas": 1777,
      "arum": 1778,
      "edad": 1779,
      "ĠIacob": 1780,
      "ĠSal": 1781,
      "Ġnuestra": 1782,
      "Este": 1783,
      "Ġpueblo": 1784,
      "Ġotra": 1785,
      "Compar": 1786,
      "Ġum": 1787,
      "leza": 1788,
      "Ġdar": 1789,
      "Ġgu": 1790,
      "bir": 1791,
      "Ġesc": 1792,
      "jun": 1793,
      "Ġilla": 1794,
      "rimir": 1795,
      "ÃŃo": 1796,
      "Ġaux": 1797,
      "Correo": 1798,
      "entis": 1799,
      "Ġini": 1800,
      "Ġeran": 1801,
      "Ġgenera": 1802,
      "Ġbuen": 1803,
      "Ġdix": 1804,
      "int": 1805,
      "Ġciu": 1806,
      "Ġasc": 1807,
      "ĠCargando": 1808,
      "Ġdonde": 1809,
      "Ergo": 1810,
      "witter": 1811,
      "Ġnin": 1812,
      "eso": 1813,
      "Ġmeum": 1814,
      "ĠLos": 1815,
      "ebra": 1816,
      "amo": 1817,
      "olog": 1818,
      "Ãª": 1819,
      "Ġinvi": 1820,
      "diÃ³": 1821,
      "Ġdolor": 1822,
      "mit": 1823,
      "Sal": 1824,
      "ord": 1825,
      "Ġder": 1826,
      "Ġmem": 1827,
      "Ġimpor": 1828,
      "ito": 1829,
      "Ã¡l": 1830,
      "Ġmedio": 1831,
      "ret": 1832,
      "tud": 1833,
      "Ġmenos": 1834,
      "Ġnostra": 1835,
      "cce": 1836,
      "cional": 1837,
      "ĠInferos": 1838,
      "Ġw": 1839,
      "ste": 1840,
      "Ġsor": 1841,
      "oris": 1842,
      "Quae": 1843,
      "bas": 1844,
      "hÃŃ": 1845,
      "Ġima": 1846,
      "Ġsom": 1847,
      "Ġtienen": 1848,
      "tivi": 1849,
      "entiam": 1850,
      "Ġlec": 1851,
      "Ġsapi": 1852,
      "ĠUni": 1853,
      "22": 1854,
      "Ita": 1855,
      "Ġ>": 1856,
      "Ego": 1857,
      "tribu": 1858,
      "Imprimir": 1859,
      "ĠPadre": 1860,
      "uo": 1861,
      "tulo": 1862,
      "Ġestu": 1863,
      "Ġdies": 1864,
      "Ġpueden": 1865,
      "tÃł": 1866,
      "encias": 1867,
      "imo": 1868,
      "ER": 1869,
      "tres": 1870,
      "ĠJacob": 1871,
      "fa": 1872,
      "com": 1873,
      "Abraham": 1874,
      "Ġdesde": 1875,
      "ĠcÃ³mo": 1876,
      "ĠâĢĶ": 1877,
      "entem": 1878,
      "erdo": 1879,
      "Ġmuerte": 1880,
      "Ġotro": 1881,
      "Ġpersonas": 1882,
      "Responder": 1883,
      "Ġtodas": 1884,
      "Ġcada": 1885,
      "imos": 1886,
      "ĠDE": 1887,
      "ista": 1888,
      "Deus": 1889,
      "Ġcondi": 1890,
      "Ġpoco": 1891,
      "Ġlin": 1892,
      "Ġillo": 1893,
      "Ġconoci": 1894,
      "jes": 1895,
      "lin": 1896,
      "Ġactu": 1897,
      "Ġnostri": 1898,
      "Ġcorp": 1899,
      "Facebook": 1900,
      "Ġsegun": 1901,
      "Ġhomines": 1902,
      "Ġ!": 1903,
      "Ġait": 1904,
      "tori": 1905,
      "Ġtal": 1906,
      "emplo": 1907,
      "Ġescu": 1908,
      "ĠSu": 1909,
      "Ġcur": 1910,
      "Ġscrip": 1911,
      "geles": 1912,
      "Ġama": 1913,
      "Dic": 1914,
      "Ġopera": 1915,
      "Ġmori": 1916,
      "dea": 1917,
      "Ġalla": 1918,
      "istra": 1919,
      "Ali": 1920,
      "oniam": 1921,
      "tim": 1922,
      "git": 1923,
      "Ġsubjun": 1924,
      "gado": 1925,
      "ĠFran": 1926,
      "Ġaliquam": 1927,
      "Ġhizo": 1928,
      "Ġgrande": 1929,
      "Ġsubjuntivo": 1930,
      "ĠAd": 1931,
      "Ġgener": 1932,
      "Ġdor": 1933,
      "ot": 1934,
      "Ġneque": 1935,
      "Ġfuerit": 1936,
      "Twitter": 1937,
      "oog": 1938,
      "ĠÃīl": 1939,
      "itum": 1940,
      "Ġtur": 1941,
      "Ġmuchos": 1942,
      "orÃŃa": 1943,
      "Ġvolup": 1944,
      "Cur": 1945,
      "Ġjusti": 1946,
      "Ã¡r": 1947,
      "oogle": 1948,
      "batur": 1949,
      "Ġquer": 1950,
      "eca": 1951,
      "Ġconta": 1952,
      "Ġtrabajo": 1953,
      "Ġmagis": 1954,
      "Ġley": 1955,
      "Ġhijo": 1956,
      "Ġpecado": 1957,
      "âĢĵ": 1958,
      "Ġcome": 1959,
      "sione": 1960,
      "Ġpot": 1961,
      "cur": 1962,
      "ĠâĨĴ": 1963,
      "EN": 1964,
      "Ġabi": 1965,
      "Ġencuent": 1966,
      "Ġcaus": 1967,
      "ĠâĢ¦": 1968,
      "iae": 1969,
      "Ġtar": 1970,
      "Ġconsequ": 1971,
      "Ġsex": 1972,
      "tima": 1973,
      "zas": 1974,
      "Ġtenta": 1975,
      "men": 1976,
      "piritu": 1977,
      "cos": 1978,
      "Ġcosa": 1979,
      "Dis": 1980,
      "aris": 1981,
      "Ġur": 1982,
      "uerdo": 1983,
      "Quien": 1984,
      "ĠâĢĿ.": 1985,
      "turas": 1986,
      "Nos": 1987,
      "ern": 1988,
      "Ġatque": 1989,
      "tÃŃculo": 1990,
      "Ġvult": 1991,
      "trum": 1992,
      "urrec": 1993,
      "Gra": 1994,
      "Ġfecit": 1995,
      "ĠK": 1996,
      "Ġviv": 1997,
      "Ġenvi": 1998,
      "erte": 1999,
      "Ġeres": 2000,
      "tit": 2001,
      "undi": 2002,
      "isiÃ³n": 2003,
      "Ġsecundum": 2004,
      "cipi": 2005,
      "Ġsignifica": 2006,
      "Ġauxili": 2007,
      "Ġvues": 2008,
      "ĠEx": 2009,
      "Ġherman": 2010,
      "erit": 2011,
      "Ġmulti": 2012,
      "Ġprincipio": 2013,
      "ys": 2014,
      "alem": 2015,
      "Ġduo": 2016,
      "ell": 2017,
      "Ġsuscita": 2018,
      "Ġesa": 2019,
      "Ġunde": 2020,
      "blem": 2021,
      "Ã³s": 2022,
      "Ġprimo": 2023,
      "ple": 2024,
      "Ġcora": 2025,
      "amiento": 2026,
      "Ġalia": 2027,
      "esi": 2028,
      "simo": 2029,
      "Ne": 2030,
      "Ġannos": 2031,
      "Ġ12": 2032,
      "31": 2033,
      "culum": 2034,
      "lara": 2035,
      "eras": 2036,
      "Ġdebe": 2037,
      "Ġplacet": 2038,
      "ĠNon": 2039,
      "Ã¡gina": 2040,
      "ador": 2041,
      "entur": 2042,
      "Ġnuevo": 2043,
      "ĠÃºlti": 2044,
      "bles": 2045,
      "ole": 2046,
      "tium": 2047,
      "Ġol": 2048,
      "Ġpad": 2049,
      "Ġsono": 2050,
      "amus": 2051,
      "Ġscri": 2052,
      "Sec": 2053,
      "Ġnunca": 2054,
      "ĠfÃ¡": 2055,
      "Ġdimis": 2056,
      "Ġhistoria": 2057,
      "Ġhere": 2058,
      "Ġindi": 2059,
      "Porque": 2060,
      "lado": 2061,
      "ĠDavid": 2062,
      "Ġespeci": 2063,
      "idad": 2064,
      "jas": 2065,
      "Ġdesi": 2066,
      "Ġconver": 2067,
      "Ġgli": 2068,
      "Ġbus": 2069,
      "elitas": 2070,
      "Ġfactae": 2071,
      "ĠTi": 2072,
      "Heri": 2073,
      "til": 2074,
      "Ġpromissiones": 2075,
      "Hoc": 2076,
      "Ġdifer": 2077,
      "Ġisrahel": 2078,
      "odos": 2079,
      "Ġplan": 2080,
      "Ġprae": 2081,
      "pÃŃritu": 2082,
      "entro": 2083,
      "Ġ16": 2084,
      "Ġtengo": 2085,
      "Ġbel": 2086,
      "voca": 2087,
      "Pre": 2088,
      "Ver": 2089,
      "ĠMe": 2090,
      "Ġeam": 2091,
      "ON": 2092,
      "ap": 2093,
      "Ġinfi": 2094,
      "gia": 2095,
      "Ġentra": 2096,
      "udi": 2097,
      "cir": 2098,
      "Ã¡ndo": 2099,
      "Ġquoque": 2100,
      "oro": 2101,
      "Ãºm": 2102,
      "Ġmadre": 2103,
      "guien": 2104,
      "ĠVer": 2105,
      "Ġtabernam": 2106,
      "stan": 2107,
      "ima": 2108,
      "immo": 2109,
      "ĠdespuÃ©s": 2110,
      "oo": 2111,
      "Ġnocturnam": 2112,
      "Ġtabernae": 2113,
      "Ġiimus": 2114,
      "Compartir": 2115,
      "solium": 2116,
      "Ġsubsolium": 2117,
      "ĠRoma": 2118,
      "Ġquantum": 2119,
      "rica": 2120,
      "ges": 2121,
      "ĠMo": 2122,
      "Ġsimili": 2123,
      "ux": 2124,
      "Ġconoc": 2125,
      "Home": 2126,
      "Ġcredi": 2127,
      "ĠallÃŃ": 2128,
      "25": 2129,
      "Ġnisi": 2130,
      "tua": 2131,
      "Ġextra": 2132,
      "Ġorden": 2133,
      "Ġparece": 2134,
      "Ã¦": 2135,
      "Ġsola": 2136,
      "Ġfil": 2137,
      "Ġsier": 2138,
      "Ġvoca": 2139,
      "Ġcualquier": 2140,
      "Ni": 2141,
      "ismo": 2142,
      "Ġ,": 2143,
      "Quod": 2144,
      "ĠLib": 2145,
      "zza": 2146,
      "Quis": 2147,
      "arÃ¡": 2148,
      "Ġcru": 2149,
      "Ġmora": 2150,
      "Ġfeli": 2151,
      "Ġembar": 2152,
      "ImprimirMe": 2153,
      "Ac": 2154,
      "Ġcapi": 2155,
      "Ġvin": 2156,
      "ĠIta": 2157,
      "ĠAm": 2158,
      "Ġvidetur": 2159,
      "Tercera": 2160,
      "Cre": 2161,
      "Ġmani": 2162,
      "Ġcomple": 2163,
      "So": 2164,
      "emo": 2165,
      "num": 2166,
      "ciÃ³": 2167,
      "Ġfo": 2168,
      "lius": 2169,
      "Ġ14": 2170,
      "tatis": 2171,
      "Ġsacerdo": 2172,
      "Ġalma": 2173,
      "Pues": 2174,
      "Ġhabeat": 2175,
      "Ġequi": 2176,
      "Ġculpa": 2177,
      "bilidad": 2178,
      "Ġtener": 2179,
      "Ġsanc": 2180,
      "Ġcrey": 2181,
      "Ġce": 2182,
      "Ġquos": 2183,
      "dido": 2184,
      "tru": 2185,
      "icio": 2186,
      "pres": 2187,
      "terio": 2188,
      "Tra": 2189,
      "unda": 2190,
      "ĠII": 2191,
      "Ġtempora": 2192,
      "Ġrom": 2193,
      "Ġpol": 2194,
      "onium": 2195,
      "Ġveritatis": 2196,
      "ĠdÃ©": 2197,
      "200": 2198,
      "Ġmanera": 2199,
      "Ġgente": 2200,
      "Ġlon": 2201,
      "Ġconsiderandae": 2202,
      "gum": 2203,
      "Ġbas": 2204,
      "Ġnesci": 2205,
      "ĠHi": 2206,
      "Ġesper": 2207,
      "obis": 2208,
      "rÃ¡n": 2209,
      "ers": 2210,
      "ares": 2211,
      "ĠIglesia": 2212,
      "derunt": 2213,
      "Ġposi": 2214,
      "Ġceter": 2215,
      "ite": 2216,
      "tivos": 2217,
      "Ġembargo": 2218,
      "Ġprimera": 2219,
      "simus": 2220,
      "len": 2221,
      "ĠResponder": 2222,
      "Ġtantum": 2223,
      "Ġsemper": 2224,
      "AS": 2225,
      "ados": 2226,
      "Ġquas": 2227,
      "inde": 2228,
      "lici": 2229,
      "Ġfide": 2230,
      "Ġarti": 2231,
      "CI": 2232,
      "ĠFa": 2233,
      "Ġestoy": 2234,
      "ĠpiÃ¹": 2235,
      "Ġmus": 2236,
      "Cui": 2237,
      "Pr": 2238,
      "bri": 2239,
      "pare": 2240,
      "Ġcivi": 2241,
      "sos": 2242,
      "ye": 2243,
      "Ġcap": 2244,
      "tido": 2245,
      "ator": 2246,
      "bilis": 2247,
      "Ġubi": 2248,
      "ĠÃ¡ngeles": 2249,
      "truc": 2250,
      "entiae": 2251,
      "30": 2252,
      "Ġinfer": 2253,
      "ficio": 2254,
      "Son": 2255,
      "fo": 2256,
      "Ġcuius": 2257,
      "ĠsegÃºn": 2258,
      "Ġdescendi": 2259,
      "Ġhacia": 2260,
      "ĠEuro": 2261,
      "Ġconstitu": 2262,
      "Ġinterro": 2263,
      "Ġtuam": 2264,
      "Ġquienes": 2265,
      "post": 2266,
      "isset": 2267,
      "cclesia": 2268,
      "leg": 2269,
      "tera": 2270,
      "Ġblog": 2271,
      "sionem": 2272,
      "ecer": 2273,
      "ĠfÃ¡cil": 2274,
      "bol": 2275,
      "Ãī": 2276,
      "Ġpraes": 2277,
      "Pa": 2278,
      "entras": 2279,
      "AR": 2280,
      "ensu": 2281,
      "??": 2282,
      "Ġpens": 2283,
      "Ġ17": 2284,
      "Ġvesti": 2285,
      "Ġfueron": 2286,
      "Ġform": 2287,
      "vangeli": 2288,
      "Ġcuerpo": 2289,
      "Ġ11": 2290,
      "Ġespa": 2291,
      "tant": 2292,
      "itus": 2293,
      "Ġentonces": 2294,
      "tifica": 2295,
      "Ġtes": 2296,
      "tino": 2297,
      "anas": 2298,
      "laciÃ³n": 2299,
      "Pub": 2300,
      "Ġdicere": 2301,
      "Ġtestimon": 2302,
      "ĠsÃ©": 2303,
      "oma": 2304,
      "Ġhoy": 2305,
      "dera": 2306,
      "ĠJu": 2307,
      "Ġacer": 2308,
      "Mar": 2309,
      "Ġtab": 2310,
      "Ġqual": 2311,
      "ĠelectrÃ³nicoImprimirMe": 2312,
      "Is": 2313,
      "teri": 2314,
      "Ġerror": 2315,
      "ete": 2316,
      "Ġadi": 2317,
      "Ġprincip": 2318,
      "Num": 2319,
      "Ġvuel": 2320,
      "Ġdescendencia": 2321,
      "Ġisraelitas": 2322,
      "23": 2323,
      "erus": 2324,
      "Ã¬": 2325,
      "Ã±ana": 2326,
      "Ġdell": 2327,
      "Ġpoder": 2328,
      "Ġtienes": 2329,
      "Ġrey": 2330,
      "Ġsali": 2331,
      "atro": 2332,
      "tantes": 2333,
      "FacebookTwitter": 2334,
      "Ġfuera": 2335,
      "tados": 2336,
      "Ġmos": 2337,
      "Ġtro": 2338,
      "Ġhaber": 2339,
      "Ãīl": 2340,
      "ĠPor": 2341,
      "Ġmateria": 2342,
      ".,": 2343,
      "ren": 2344,
      "Ġloqu": 2345,
      "Red": 2346,
      "Ġdal": 2347,
      "Ġcuenta": 2348,
      "duca": 2349,
      "Ġherm": 2350,
      "Ġciudad": 2351,
      "rie": 2352,
      "gnum": 2353,
      "Ã¡is": 2354,
      "inas": 2355,
      "paÃ±a": 2356,
      "26": 2357,
      "don": 2358,
      "uno": 2359,
      "Ġperman": 2360,
      "Ġtex": 2361,
      "uto": 2362,
      "tÃ©": 2363,
      "Ġgentes": 2364,
      "tando": 2365,
      "Ġdicens": 2366,
      "Ġerit": 2367,
      "Ġvoc": 2368,
      "Ġdescendere": 2369,
      "rito": 2370,
      "Ġdurante": 2371,
      "guna": 2372,
      "esse": 2373,
      "Ġcristi": 2374,
      "Ġspeci": 2375,
      "Ġsimil": 2376,
      "Ġanima": 2377,
      "Ġdilec": 2378,
      "Ġhomo": 2379,
      "postQuam": 2380,
      "Ġgi": 2381,
      "ĠChristi": 2382,
      "Ġtuum": 2383,
      "licado": 2384,
      "Entonces": 2385,
      "Ġpartes": 2386,
      "Ġfuit": 2387,
      "Ġhermanos": 2388,
      "Res": 2389,
      "Ġon": 2390,
      "raciÃ³n": 2391,
      "alo": 2392,
      "lex": 2393,
      "Ġproduc": 2394,
      "ron": 2395,
      "Ġdem": 2396,
      "Ġfru": 2397,
      "Ġsolus": 2398,
      "th": 2399,
      "Ġlibros": 2400,
      "Ġista": 2401,
      "sionis": 2402,
      "ĠQui": 2403,
      "quae": 2404,
      "Ġdiver": 2405,
      "ulo": 2406,
      "....": 2407,
      "AM": 2408,
      "28": 2409,
      "rÃ©": 2410,
      "tati": 2411,
      "Ġdominus": 2412,
      "Post": 2413,
      "ĠCu": 2414,
      "Ġdisc": 2415,
      "Ġpuedo": 2416,
      "Ahora": 2417,
      "ĠMi": 2418,
      "ĠJesÃºs": 2419,
      "Ġquiero": 2420,
      "Ġexc": 2421,
      "gus": 2422,
      "Ġvobis": 2423,
      "uerra": 2424,
      "pas": 2425,
      "ĠAgar": 2426,
      ".-": 2427,
      "000": 2428,
      "tto": 2429,
      "Vo": 2430,
      "dado": 2431,
      "Ġtene": 2432,
      "fecto": 2433,
      "Ġpecca": 2434,
      "Ġojos": 2435,
      "?\"": 2436,
      "Ġmulta": 2437,
      "Ten": 2438,
      "Ġstu": 2439,
      "Ġmayor": 2440,
      "ĠPar": 2441,
      "quis": 2442,
      "Ġcasi": 2443,
      "Ġayud": 2444,
      "Ġpalabras": 2445,
      "Ġ0": 2446,
      "Ġsent": 2447,
      "Ġfilii": 2448,
      "rup": 2449,
      "Ġmuchas": 2450,
      "Ġminis": 2451,
      "posto": 2452,
      "ien": 2453,
      "Ġquoniam": 2454,
      "Ġimpos": 2455,
      "Recorda": 2456,
      "Ġcin": 2457,
      "tere": 2458,
      "Ġpuedes": 2459,
      "Ġfuego": 2460,
      "endis": 2461,
      "Ġobli": 2462,
      "Ġveces": 2463,
      "itos": 2464,
      "Ġetc": 2465,
      "ĠlÃŃ": 2466,
      "Ġcelebra": 2467,
      "Ġdicho": 2468,
      "icas": 2469,
      "Ġigu": 2470,
      "Ġresurrec": 2471,
      "Ġae": 2472,
      "tiv": 2473,
      "Ġlen": 2474,
      "Ġpropi": 2475,
      "Iam": 2476,
      ".'": 2477,
      "cidad": 2478,
      "Luego": 2479,
      "onem": 2480,
      "ticas": 2481,
      "ĠAp": 2482,
      "Ser": 2483,
      "llo": 2484,
      "ez": 2485,
      "reg": 2486,
      "bum": 2487,
      "Ġfamilia": 2488,
      "Ġcont": 2489,
      "Ġmisma": 2490,
      "Ġnaturaleza": 2491,
      "gere": 2492,
      "Ġvisto": 2493,
      "dus": 2494,
      "Ġomnia": 2495,
      "bant": 2496,
      "itÃł": 2497,
      "Ġsaber": 2498,
      "ose": 2499,
      "ess": 2500,
      "Ġvic": 2501,
      "Ġdilig": 2502,
      "Ġapp": 2503,
      "Ġangel": 2504,
      "pere": 2505,
      "ÃŃdo": 2506,
      "Ġav": 2507,
      "tec": 2508,
      "Ġbueno": 2509,
      "fectus": 2510,
      "24": 2511,
      "ĠtodavÃŃa": 2512,
      "Ġpossunt": 2513,
      "Ġalguna": 2514,
      "ide": 2515,
      "Ġ*": 2516,
      "Ġdefini": 2517,
      "temp": 2518,
      "rimon": 2519,
      "enter": 2520,
      "Ġfre": 2521,
      "bia": 2522,
      "Ġamici": 2523,
      "Ġint": 2524,
      "ĠAc": 2525,
      "Ġprue": 2526,
      "cede": 2527,
      "etas": 2528,
      "Ġhabere": 2529,
      "Ġquomodo": 2530,
      "tet": 2531,
      "Ġhumana": 2532,
      "âĢ¦]": 2533,
      "fÃŃa": 2534,
      "Ġhoras": 2535,
      "Ġnecess": 2536,
      "ministra": 2537,
      "DÃ³nde": 2538,
      "quit": 2539,
      "rma": 2540,
      "vio": 2541,
      "Ġfacit": 2542,
      "ĠHis": 2543,
      "untos": 2544,
      "Ġdesper": 2545,
      "Ġodio": 2546,
      "Ġopini": 2547,
      "Ġpes": 2548,
      "siÃ³n": 2549,
      "ĠCas": 2550,
      "peti": 2551,
      "erna": 2552,
      "Ġcuanto": 2553,
      "Ġpecc": 2554,
      "Ġterram": 2555,
      "pidi": 2556,
      "Ġsabe": 2557,
      "Ġpan": 2558,
      "zado": 2559,
      "Ġnadie": 2560,
      "ticos": 2561,
      "Ġcat": 2562,
      "menta": 2563,
      "pan": 2564,
      "Ġejemplo": 2565,
      "Ġaccepit": 2566,
      "Ġestos": 2567,
      "riÃ³": 2568,
      "Ġamigos": 2569,
      "del": 2570,
      "Ġprimer": 2571,
      "emus": 2572,
      "ĠnÃºm": 2573,
      "bido": 2574,
      "Ġmira": 2575,
      "Ġopor": 2576,
      "Ġmili": 2577,
      "pra": 2578,
      "det": 2579,
      "Ġref": 2580,
      "Ġmaiores": 2581,
      "ximo": 2582,
      "ger": 2583,
      "Ġpresente": 2584,
      "27": 2585,
      "Ġperse": 2586,
      "ie": 2587,
      "cial": 2588,
      "Ġrepu": 2589,
      "ĠSanto": 2590,
      "ej": 2591,
      "ĠÃºn": 2592,
      "Ġincre": 2593,
      "Ġposse": 2594,
      "iss": 2595,
      "Ġprophe": 2596,
      "Ġchi": 2597,
      "Ġinforma": 2598,
      "Ġsomos": 2599,
      "Ġusque": 2600,
      "rÃŃ": 2601,
      "huc": 2602,
      "Ġvisi": 2603,
      "Pri": 2604,
      "Ġbo": 2605,
      "Ya": 2606,
      "Ġsiguiente": 2607,
      "ĠmaÃ±ana": 2608,
      "Ġamigo": 2609,
      "Ġ199": 2610,
      "tales": 2611,
      "Om": 2612,
      "onis": 2613,
      "Ġexplica": 2614,
      "Ġign": 2615,
      "Inicio": 2616,
      "Ġvenit": 2617,
      "tora": 2618,
      "Ġpagina": 2619,
      "tamento": 2620,
      "Ġ;": 2621,
      "ĠHa": 2622,
      "Aqu": 2623,
      "Ġent": 2624,
      "Ġcaso": 2625,
      "Ġhominem": 2626,
      "IN": 2627,
      "Ġhemos": 2628,
      "Pue": 2629,
      "dan": 2630,
      "val": 2631,
      "ĠâĢĺ": 2632,
      "Ġrefer": 2633,
      "Ġmolesti": 2634,
      "Ġomni": 2635,
      "sio": 2636,
      "vin": 2637,
      "Ġexi": 2638,
      "ĠChris": 2639,
      "Ġpadres": 2640,
      "sima": 2641,
      "Ġedi": 2642,
      "Ġobras": 2643,
      "atos": 2644,
      "Ġdomui": 2645,
      "ĠDominus": 2646,
      "Ġsui": 2647,
      "alidad": 2648,
      "Ġtutti": 2649,
      "blica": 2650,
      "lÃł": 2651,
      "Ġsalu": 2652,
      "char": 2653,
      "ĠserÃ¡n": 2654,
      "tegorÃŃa": 2655,
      "ĠahÃŃ": 2656,
      "Eso": 2657,
      "Ġcelle": 2658,
      "Ġhon": 2659,
      "Ġmala": 2660,
      "rimonio": 2661,
      "como": 2662,
      "ĠZ": 2663,
      "pot": 2664,
      "Ġsalva": 2665,
      "iones": 2666,
      "emi": 2667,
      "Ġalguien": 2668,
      "Ġmei": 2669,
      "Ġdirec": 2670,
      "ele": 2671,
      "ĠDeum": 2672,
      "Ġmano": 2673,
      "Ġfactus": 2674,
      "Ġweb": 2675,
      "Ġpuella": 2676,
      "echos": 2677,
      "Reddit": 2678,
      "arta": 2679,
      "Ġserv": 2680,
      "ĠÃ¡": 2681,
      "Ġillum": 2682,
      "Nonne": 2683,
      ".Â»": 2684,
      "Ġestado": 2685,
      "ÃŃcil": 2686,
      "Ġnov": 2687,
      "bris": 2688,
      "Ġdelec": 2689,
      "ĠYo": 2690,
      "21": 2691,
      "tÃŃn": 2692,
      "Ġnumquam": 2693,
      "Ġreg": 2694,
      "paÃ±ol": 2695,
      "ĠNe": 2696,
      "Ġpacto": 2697,
      "Ġtend": 2698,
      "ced": 2699,
      "Ap": 2700,
      "gura": 2701,
      "stitu": 2702,
      "Ã§Ã£o": 2703,
      "puli": 2704,
      "Ġquisquam": 2705,
      "Ġllama": 2706,
      "fac": 2707,
      "pend": 2708,
      "Ġbuena": 2709,
      "Ġdios": 2710,
      "Ġnecesario": 2711,
      "zaciÃ³n": 2712,
      "Ġai": 2713,
      "Ġpul": 2714,
      "lico": 2715,
      "ese": 2716,
      "Ġmisericordie": 2717,
      "ĠIo": 2718,
      "zioni": 2719,
      "tius": 2720,
      "Ġnostro": 2721,
      "Ġgloria": 2722,
      "Ġ13": 2723,
      "Ġguar": 2724,
      "Ġgo": 2725,
      "Ġpaz": 2726,
      "Ġacuerdo": 2727,
      "inis": 2728,
      "gnis": 2729,
      "Recordatus": 2730,
      "Ġinduc": 2731,
      "Ġpropter": 2732,
      "Todo": 2733,
      "Quomodo": 2734,
      "Ġproblem": 2735,
      "Ġrecon": 2736,
      "Ġhabent": 2737,
      "Quando": 2738,
      "Ġsubi": 2739,
      "Ġregi": 2740,
      "ĠSo": 2741,
      "Ġnego": 2742,
      "iso": 2743,
      "adas": 2744,
      "Ġvivir": 2745,
      "Ġmorte": 2746,
      "Ġipsi": 2747,
      "Ġdispu": 2748,
      "Ġred": 2749,
      "Ġpros": 2750,
      "pl": 2751,
      "Ġsepara": 2752,
      "CuÃ¡n": 2753,
      "ĠcorazÃ³n": 2754,
      "Tag": 2755,
      "deci": 2756,
      "Ġhabita": 2757,
      "Ġtem": 2758,
      "Ġproba": 2759,
      "asta": 2760,
      "Nam": 2761,
      "ĠPr": 2762,
      "Ġaquam": 2763,
      "enas": 2764,
      "Ġdicen": 2765,
      "Ġsacri": 2766,
      "tiae": 2767,
      "rat": 2768,
      "urs": 2769,
      "tina": 2770,
      "Ġestas": 2771,
      "29": 2772,
      "Ġcommun": 2773,
      "lesi": 2774,
      "ei": 2775,
      "ques": 2776,
      "tero": 2777,
      "Ġcirca": 2778,
      "quer": 2779,
      "bitur": 2780,
      "Ġangelus": 2781,
      "Ġord": 2782,
      "tancia": 2783,
      "uestra": 2784,
      "?âĢĿ": 2785,
      "Am": 2786,
      "lit": 2787,
      "Âº": 2788,
      "ĠTra": 2789,
      "Ġnomin": 2790,
      "Ġexer": 2791,
      "arias": 2792,
      "Ġgracias": 2793,
      "Todos": 2794,
      "Ubi": 2795,
      "Ġnec": 2796,
      "enido": 2797,
      "vera": 2798,
      "eran": 2799,
      "Ġdejar": 2800,
      "undam": 2801,
      "bel": 2802,
      "Ġfem": 2803,
      "son": 2804,
      "Ġsimi": 2805,
      "Ġdiri": 2806,
      "Ġclas": 2807,
      "Ġinveni": 2808,
      "Ut": 2809,
      "ĠtÃŃ": 2810,
      "Ġobra": 2811,
      "Ġpour": 2812,
      "Ġobser": 2813,
      "Ġtestim": 2814,
      "rea": 2815,
      "Ġunos": 2816,
      "Ġpron": 2817,
      "Ġdescendientes": 2818,
      "Ġnor": 2819,
      "arse": 2820,
      "erman": 2821,
      "Ġll": 2822,
      "ĠPo": 2823,
      "Ġposible": 2824,
      "Ġcetera": 2825,
      "Ã«": 2826,
      "Ġloco": 2827,
      "Ġira": 2828,
      "CompartirFacebookTwitter": 2829,
      "Ġtor": 2830,
      "pto": 2831,
      "Ġdej": 2832,
      "Ġcomun": 2833,
      "itate": 2834,
      "Tam": 2835,
      "Ġmateri": 2836,
      "Ġconocimiento": 2837,
      "Ġsoli": 2838,
      "Ġsatis": 2839,
      "Ġvino": 2840,
      "Ġreve": 2841,
      "cula": 2842,
      "cipit": 2843,
      "XVI": 2844,
      "Ġrerum": 2845,
      "Ġveniam": 2846,
      "MÃ¡sCorreo": 2847,
      "Prim": 2848,
      "Ġdescendit": 2849,
      "Ġponit": 2850,
      "Ġ[[": 2851,
      "ĠdÃ³nde": 2852,
      "Ġarma": 2853,
      "III": 2854,
      "ice": 2855,
      "Par": 2856,
      "Ġnecesse": 2857,
      "Ġguerra": 2858,
      "Ġcumpli": 2859,
      "Ġmanda": 2860,
      "Ġdue": 2861,
      "inter": 2862,
      "cta": 2863,
      "grega": 2864,
      "Ġhacen": 2865,
      "SÃŃ": 2866,
      "ĠAu": 2867,
      "Ġveritatem": 2868,
      "Ġobedi": 2869,
      "ducciÃ³n": 2870,
      "este": 2871,
      "Ġanterior": 2872,
      "Ġmovere": 2873,
      "dinem": 2874,
      "bos": 2875,
      "aepe": 2876,
      "bajo": 2877,
      "unidad": 2878,
      "Sa": 2879,
      "Ġdeber": 2880,
      "Ġtradi": 2881,
      "ecati": 2882,
      "Ġvideo": 2883,
      "Ġtestimonio": 2884,
      "ts": 2885,
      "ĠmÃ©": 2886,
      "tea": 2887,
      "AD": 2888,
      "Ġconsecu": 2889,
      "Ġnecessi": 2890,
      "Ġsen": 2891,
      "ons": 2892,
      "Ġquesto": 2893,
      "Ġinterpre": 2894,
      "Ġdivina": 2895,
      "ll": 2896,
      "ebat": 2897,
      "Ġpossit": 2898,
      "cetis": 2899,
      "fr": 2900,
      "Ġtras": 2901,
      "ĠIam": 2902,
      "pie": 2903,
      "Ġsaluta": 2904,
      "Ġhaya": 2905,
      "Ġbonum": 2906,
      "ciona": 2907,
      "ĠLu": 2908,
      "Ġpalabra": 2909,
      "Bu": 2910,
      "Ġpaci": 2911,
      "Ġhumil": 2912,
      "zie": 2913,
      "termina": 2914,
      "Ġbeb": 2915,
      "Ġpoter": 2916,
      "Ġlim": 2917,
      "caecati": 2918,
      "ficia": 2919,
      "hiloso": 2920,
      "zia": 2921,
      "Ġ27": 2922,
      "ĠOr": 2923,
      "Aut": 2924,
      "Ġcl": 2925,
      "tore": 2926,
      "Ġbea": 2927,
      "ĠGoogle": 2928,
      "CuÃ¡l": 2929,
      "sta": 2930,
      "Ġmit": 2931,
      "Ġpeli": 2932,
      "Ġcasti": 2933,
      "ciendo": 2934,
      "ema": 2935,
      "Ġdicebatur": 2936,
      "cor": 2937,
      "ficiente": 2938,
      "Lib": 2939,
      "Pra": 2940,
      "Ġmientras": 2941,
      "Ġsabi": 2942,
      "Ġexcep": 2943,
      "CompartirFacebookTwitterReddit": 2944,
      "pes": 2945,
      "uomo": 2946,
      "ĠIes": 2947,
      "ĠpaÃŃs": 2948,
      "Ġpasa": 2949,
      "remos": 2950,
      "termin": 2951,
      "tiis": 2952,
      "Ġdij": 2953,
      "Ġcier": 2954,
      "Ġelegi": 2955,
      "Ġinterroga": 2956,
      "Ġdubi": 2957,
      "bula": 2958,
      "CompartirFacebookTwitterRedditMÃ¡sCorreo": 2959,
      "Ġlengua": 2960,
      "Da": 2961,
      "ĠTu": 2962,
      "ebant": 2963,
      "ĠIsraelis": 2964,
      "hor": 2965,
      "Ġcli": 2966,
      "ĠDeo": 2967,
      "versidad": 2968,
      "Ġsegundo": 2969,
      "erva": 2970,
      "Ġ25": 2971,
      "Ġnomen": 2972,
      "For": 2973,
      "verso": 2974,
      "Ġcono": 2975,
      "ĠpÃ¡gina": 2976,
      "He": 2977,
      "Sic": 2978,
      "ĠEspÃŃritu": 2979,
      "Ã«l": 2980,
      "ggi": 2981,
      "Ġamp": 2982,
      "Quia": 2983,
      "Ã±as": 2984,
      "Ġcognoscetis": 2985,
      "tudo": 2986,
      "Ġ24": 2987,
      "ticias": 2988,
      "Ġconveni": 2989,
      "edo": 2990,
      "ps": 2991,
      "Ġjus": 2992,
      "Ġquaes": 2993,
      "Ġtabular": 2994,
      "ef": 2995,
      "Ġveli": 2996,
      "ĠCi": 2997,
      "ental": 2998,
      "pia": 2999,
      "Ġsolu": 3000,
      "Ġcompr": 3001,
      "gÃ³": 3002,
      "ense": 3003,
      "Ġideo": 3004,
      "Inter": 3005,
      "Ġlic": 3006,
      "Ġfir": 3007,
      "Ġpopulum": 3008,
      "onte": 3009,
      "Ġense": 3010,
      "Ġsuam": 3011,
      "Ġnel": 3012,
      "Ġvitae": 3013,
      "Les": 3014,
      "Ġdivi": 3015,
      "uela": 3016,
      "Ġhablar": 3017,
      "ĠtenÃŃa": 3018,
      "Ġvan": 3019,
      "Ġsentido": 3020,
      "Ġdormi": 3021,
      "TI": 3022,
      "uti": 3023,
      "Co": 3024,
      "sal": 3025,
      "ĠDes": 3026,
      "utos": 3027,
      "Ġsiervo": 3028,
      "anti": 3029,
      "Ġinducam": 3030,
      "Ġoper": 3031,
      "chÃ©": 3032,
      "Ã¡c": 3033,
      "Ea": 3034,
      "Ġdese": 3035,
      "rado": 3036,
      "dios": 3037,
      "ĠPer": 3038,
      "arto": 3039,
      "Ġayudar": 3040,
      "ĠaÃºn": 3041,
      "Ġ[âĢ¦]": 3042,
      "Ġisti": 3043,
      "Ġpater": 3044,
      "âĢĿ,": 3045,
      "Ġpossimus": 3046,
      "Ġcamino": 3047,
      "ĠmÃŃo": 3048,
      "]]": 3049,
      "ĠSer": 3050,
      "Ġvidit": 3051,
      "rÃ¡s": 3052,
      "Ġaiu": 3053,
      "adem": 3054,
      "Ġluz": 3055,
      "Ġtarde": 3056,
      "tuor": 3057,
      "Ġius": 3058,
      "Ġlibera": 3059,
      "ĠIsraÃ«l": 3060,
      "Ġfinal": 3061,
      "all": 3062,
      "Ġcompara": 3063,
      "Ġcreer": 3064,
      "ORI": 3065,
      "Ġcielo": 3066,
      "Ġost": 3067,
      "Ġviene": 3068,
      "Respon": 3069,
      "rin": 3070,
      "Ġcontro": 3071,
      "ĠCo": 3072,
      "Ġfacta": 3073,
      "Ġpeque": 3074,
      "Ġutili": 3075,
      "Ġobs": 3076,
      "Ġfratres": 3077,
      "His": 3078,
      "tividad": 3079,
      "Ġjusticia": 3080,
      "Ġseu": 3081,
      "Qua": 3082,
      "Ġann": 3083,
      "ĠInter": 3084,
      "ĠQuid": 3085,
      "Ġdado": 3086,
      "Ġexs": 3087,
      "Ġexist": 3088,
      "AL": 3089,
      "Ġmatu": 3090,
      "quatur": 3091,
      "gro": 3092,
      "guir": 3093,
      "Ġbar": 3094,
      "entar": 3095,
      "Ġdio": 3096,
      "pisco": 3097,
      "Ġconci": 3098,
      "Ġmedic": 3099,
      "Ġmodi": 3100,
      "Ġprimero": 3101,
      "Ġprincipi": 3102,
      "Nun": 3103,
      "Ġpotu": 3104,
      "yec": 3105,
      "Ġlocum": 3106,
      "dici": 3107,
      "Ġotras": 3108,
      "Allah": 3109,
      "ĠItalia": 3110,
      "Ġproces": 3111,
      "Ġsean": 3112,
      "mes": 3113,
      "volu": 3114,
      "Ġigual": 3115,
      "Ġsalv": 3116,
      "ĠnÃºmero": 3117,
      "ggio": 3118,
      "itas": 3119,
      "Ġaca": 3120,
      "48": 3121,
      "tias": 3122,
      "Ġmensa": 3123,
      "ĠestÃ¡s": 3124,
      "Ġdisci": 3125,
      "Ġloqui": 3126,
      "Ġmentitur": 3127,
      "Ġmaxim": 3128,
      "TÃº": 3129,
      "Ġopus": 3130,
      "ĠdifÃŃcil": 3131,
      "Ġninguna": 3132,
      "ff": 3133,
      "Ġcusto": 3134,
      "tions": 3135,
      "dita": 3136,
      "itatis": 3137,
      "Ġascendit": 3138,
      "lud": 3139,
      "Ġminus": 3140,
      "esiÃ³n": 3141,
      "Ġcomer": 3142,
      "Ġrecom": 3143,
      "dur": 3144,
      "Ġluego": 3145,
      "Ġdico": 3146,
      "enso": 3147,
      "titud": 3148,
      "col": 3149,
      "Ã¢": 3150,
      "entan": 3151,
      "ĠDio": 3152,
      "Ġproposi": 3153,
      "Ġtestimonium": 3154,
      "ĠrÃ©": 3155,
      "ologÃŃa": 3156,
      "Ġru": 3157,
      "Ġenti": 3158,
      "Ġcomi": 3159,
      "hib": 3160,
      "tedes": 3161,
      "Ġapr": 3162,
      "Ġpropri": 3163,
      "ĠmÃ¡": 3164,
      "Ġargum": 3165,
      "Ġadhuc": 3166,
      "reta": 3167,
      "Vide": 3168,
      "cem": 3169,
      "eg": 3170,
      "Ġacep": 3171,
      "Sobre": 3172,
      "ĠniÃ±os": 3173,
      "Ġhubi": 3174,
      "Ġmanif": 3175,
      "EB": 3176,
      "uso": 3177,
      "cado": 3178,
      "bor": 3179,
      "sic": 3180,
      "ener": 3181,
      "Ġrem": 3182,
      "Cons": 3183,
      "Archi": 3184,
      "Iusti": 3185,
      "olu": 3186,
      "vil": 3187,
      "Ġpromesa": 3188,
      "Ġerant": 3189,
      "chas": 3190,
      "Ġcura": 3191,
      "Ġtrata": 3192,
      "Ġlar": 3193,
      "isÃ©s": 3194,
      "Ġanche": 3195,
      "Ġiste": 3196,
      "Sunt": 3197,
      "eh": 3198,
      "Ġtuus": 3199,
      "ped": 3200,
      "Ġcierto": 3201,
      "Ġibi": 3202,
      "Ġdelle": 3203,
      "Ġalter": 3204,
      "ĠEscri": 3205,
      "guen": 3206,
      "Ġtipo": 3207,
      "itatem": 3208,
      "Ġagra": 3209,
      "arro": 3210,
      "Ġinte": 3211,
      "ueva": 3212,
      "pecta": 3213,
      "Ġpriva": 3214,
      "gica": 3215,
      "pri": 3216,
      "pse": 3217,
      "erÃŃa": 3218,
      "Ġcreo": 3219,
      "Ġgracia": 3220,
      "Ġpopulo": 3221,
      "ÃŃos": 3222,
      "ĠseÃ±": 3223,
      "ĠEspaÃ±a": 3224,
      "Ġustedes": 3225,
      "EL": 3226,
      "Ġobje": 3227,
      "Ġclar": 3228,
      "Ġregis": 3229,
      "Ġsois": 3230,
      "Ġpublica": 3231,
      "ist": 3232,
      "Ġperd": 3233,
      "glio": 3234,
      "ure": 3235,
      "uri": 3236,
      "Ġtota": 3237,
      "Ġdispon": 3238,
      "Ġipsum": 3239,
      "ĠTo": 3240,
      "Ġbajo": 3241,
      "fra": 3242,
      "ĠPi": 3243,
      "Acc": 3244,
      "ĠEcclesia": 3245,
      "Ġnega": 3246,
      "quo": 3247,
      "ĠDis": 3248,
      "Ġterr": 3249,
      "bul": 3250,
      "Ġsir": 3251,
      "ientos": 3252,
      "asti": 3253,
      "puesto": 3254,
      "Ġviol": 3255,
      "Ġllegar": 3256,
      "Ġprueba": 3257,
      "Sus": 3258,
      "Ġqueda": 3259,
      "Ġnota": 3260,
      "Ġpati": 3261,
      "Ġcuatro": 3262,
      "Ġmagn": 3263,
      "Ġoccaecati": 3264,
      "inosau": 3265,
      "55": 3266,
      "Ġencontra": 3267,
      "ĠprÃ³": 3268,
      "Ġconsum": 3269,
      "torio": 3270,
      "Ġayuda": 3271,
      "turus": 3272,
      "Ġdiffer": 3273,
      "Ġpromissionis": 3274,
      "Ġfit": 3275,
      "Ġdiffici": 3276,
      "elli": 3277,
      "Ġlibre": 3278,
      "Ġintellec": 3279,
      "Ġinquit": 3280,
      "Ġhuius": 3281,
      "ĠBar": 3282,
      "Ġmale": 3283,
      "IS": 3284,
      "ĠLo": 3285,
      "Ġsacram": 3286,
      "Ġcapa": 3287,
      "adores": 3288,
      "prov": 3289,
      "âĨĲ": 3290,
      "Ġcambio": 3291,
      "Ġexper": 3292,
      "Ġquat": 3293,
      "Ġalcan": 3294,
      "Ġdinosau": 3295,
      "unci": 3296,
      "ril": 3297,
      "media": 3298,
      "eti": 3299,
      "Ġeu": 3300,
      "hilosoph": 3301,
      "Ci": 3302,
      "bora": 3303,
      "Ġblan": 3304,
      "Mo": 3305,
      "Ġquibus": 3306,
      "Ġmaior": 3307,
      "Ġfactum": 3308,
      "pecto": 3309,
      "Ã©c": 3310,
      "Ġhabeo": 3311,
      "Ġsensi": 3312,
      "entium": 3313,
      "Ġencontrar": 3314,
      "tuna": 3315,
      "quiera": 3316,
      "Ġcorpora": 3317,
      "Ġhermano": 3318,
      "33": 3319,
      "Ġlingua": 3320,
      "Ġ2015": 3321,
      "Ġsemej": 3322,
      "Ġcinco": 3323,
      "cam": 3324,
      "Ġcla": 3325,
      "Ġconvi": 3326,
      "Ecce": 3327,
      "Ġagua": 3328,
      "ĠMis": 3329,
      "Ġdesa": 3330,
      "Ġtales": 3331,
      "pet": 3332,
      "Ġvera": 3333,
      "Ch": 3334,
      "uncia": 3335,
      "Ġfer": 3336,
      "Ġjusto": 3337,
      "Ġalgunos": 3338,
      "Ġmemoria": 3339,
      "ĠCan": 3340,
      "ĠPre": 3341,
      "ĠTes": 3342,
      "Ġsaepe": 3343,
      "Ġinstitu": 3344,
      "turi": 3345,
      "aridad": 3346,
      "\",": 3347,
      "Ab": 3348,
      "omini": 3349,
      "Ġdicta": 3350,
      "Ġ2013": 3351,
      "Ġunivers": 3352,
      "Fa": 3353,
      "ecum": 3354,
      "Ġnegra": 3355,
      "net": 3356,
      "Ġaunque": 3357,
      "Ġhabla": 3358,
      "Ġdinosaurio": 3359,
      "ablo": 3360,
      "ĠDomini": 3361,
      "Ġarticulum": 3362,
      "\").": 3363,
      "Ġtris": 3364,
      "ĠGra": 3365,
      "Ġrealidad": 3366,
      "Ġquieres": 3367,
      "ĠÃģ": 3368,
      "genes": 3369,
      "Ġconsidera": 3370,
      "mail": 3371,
      "Ġcultura": 3372,
      "jus": 3373,
      "Ġdin": 3374,
      "acer": 3375,
      "Ġcumque": 3376,
      "ArtÃŃculo": 3377,
      "cal": 3378,
      "lina": 3379,
      "Ġaeter": 3380,
      "ĠChristus": 3381,
      "40": 3382,
      "eren": 3383,
      "cimiento": 3384,
      "chos": 3385,
      "tivas": 3386,
      "ridad": 3387,
      "ĠPapa": 3388,
      "Ġimportante": 3389,
      "Ġvend": 3390,
      "Ġdivers": 3391,
      "Ġlibertad": 3392,
      "tram": 3393,
      "Ġassum": 3394,
      "Ġinfierno": 3395,
      "yÃ³": 3396,
      "Ã©sped": 3397,
      "Ġconce": 3398,
      "hic": 3399,
      "tac": 3400,
      "Ġhos": 3401,
      "ĠVa": 3402,
      "venit": 3403,
      "guas": 3404,
      "Ġexperi": 3405,
      "Ġvie": 3406,
      "Ġpropio": 3407,
      "trina": 3408,
      "zio": 3409,
      "Ġdescensu": 3410,
      "Ġmontem": 3411,
      "respon": 3412,
      "Ġanni": 3413,
      "Ġauto": 3414,
      "amento": 3415,
      "Secundo": 3416,
      "37": 3417,
      "pendi": 3418,
      "dida": 3419,
      "ĠFor": 3420,
      "Ġauxilio": 3421,
      "cra": 3422,
      "Ġfec": 3423,
      "Entre": 3424,
      "Ġidem": 3425,
      "Ġidea": 3426,
      "Ġth": 3427,
      "Ġsuis": 3428,
      "Ġperic": 3429,
      "illa": 3430,
      "Ġ198": 3431,
      "ĠdespertÃ³": 3432,
      "Nunc": 3433,
      "Ġdemon": 3434,
      "Ġpasado": 3435,
      "Ġposside": 3436,
      "Os": 3437,
      "Ġjo": 3438,
      "zca": 3439,
      "Ġide": 3440,
      "Ġnueva": 3441,
      "Ġfrecu": 3442,
      "anno": 3443,
      "Ġleer": 3444,
      "ille": 3445,
      "Ġencuentra": 3446,
      "licet": 3447,
      "anda": 3448,
      "preh": 3449,
      "Ġabiit": 3450,
      "Ġmagni": 3451,
      "Ġverum": 3452,
      "Ġtenemos": 3453,
      "AquÃŃ": 3454,
      "Ġdeli": 3455,
      "Ġbendi": 3456,
      "taron": 3457,
      "Ġapro": 3458,
      "Ġtermin": 3459,
      "bunt": 3460,
      "ĠIII": 3461,
      "):": 3462,
      "ĠPara": 3463,
      "ĠFili": 3464,
      "Ġocur": 3465,
      "ĠhuÃ©sped": 3466,
      "Ġmalo": 3467,
      "Ġhumano": 3468,
      "Ġfacile": 3469,
      "QU": 3470,
      "ĠÃ©ste": 3471,
      "Ġsubstan": 3472,
      "Ġfilio": 3473,
      "Ġorare": 3474,
      "Ġdentro": 3475,
      "Ġinde": 3476,
      "ĠDec": 3477,
      "ĠVI": 3478,
      "Ġlibero": 3479,
      "arium": 3480,
      "Ġvous": 3481,
      "ĠCre": 3482,
      "ueil": 3483,
      "ĠPos": 3484,
      "Ġconsue": 3485,
      "Contra": 3486,
      "Ġoffici": 3487,
      "ment": 3488,
      "Ġbona": 3489,
      "Ġexemp": 3490,
      "ĠMarÃŃa": 3491,
      "Vol": 3492,
      "ches": 3493,
      "Ġconsec": 3494,
      "uicio": 3495,
      "jerci": 3496,
      "!âĢĿ": 3497,
      "Ġiusti": 3498,
      "Ġcara": 3499,
      "Ãºsica": 3500,
      "Ġpreguntas": 3501,
      "Mul": 3502,
      "ze": 3503,
      "Ġjam": 3504,
      "Ġexiste": 3505,
      "Ġglori": 3506,
      "Ġden": 3507,
      "Ġdebi": 3508,
      "Ġcerca": 3509,
      "Ġing": 3510,
      "Ġnam": 3511,
      "Ġlado": 3512,
      "Ġsep": 3513,
      "Aprov": 3514,
      "quia": 3515,
      "Ġga": 3516,
      "Ġexpres": 3517,
      "Ġhuman": 3518,
      "Publicado": 3519,
      "Ġvu": 3520,
      "Ã³m": 3521,
      "Ġaccid": 3522,
      "Ġmatrimonio": 3523,
      "Ġcupidi": 3524,
      "udas": 3525,
      "Conse": 3526,
      "Ġconocer": 3527,
      "(\"": 3528,
      "TE": 3529,
      "rus": 3530,
      "reto": 3531,
      "Jes": 3532,
      "Ã¼": 3533,
      "orios": 3534,
      "Ġbre": 3535,
      "able": 3536,
      "cura": 3537,
      "esare": 3538,
      "Ġencan": 3539,
      "Ġdixerunt": 3540,
      "tari": 3541,
      "Ġmejores": 3542,
      "Ġorigin": 3543,
      "Ġespera": 3544,
      "Ġsolum": 3545,
      "Ġale": 3546,
      "Ġjugar": 3547,
      "entemente": 3548,
      "bam": 3549,
      "uros": 3550,
      "Ġacerca": 3551,
      "line": 3552,
      "eret": 3553,
      "Ġhar": 3554,
      "ĠpuÃ²": 3555,
      "enderat": 3556,
      "Etique": 3557,
      "Ġaliquis": 3558,
      "\\'": 3559,
      "dice": 3560,
      "ĠAN": 3561,
      "Ġou": 3562,
      "lora": 3563,
      "ficado": 3564,
      "ĠQue": 3565,
      "Ġpermi": 3566,
      "tidad": 3567,
      "Ġmari": 3568,
      "Ġlegi": 3569,
      "ĠningÃºn": 3570,
      "rÃ³": 3571,
      "ĠcompaÃ±": 3572,
      "ĠrazÃ³n": 3573,
      "ÂĴ": 3574,
      "Ġquali": 3575,
      "enses": 3576,
      "Ġomnipot": 3577,
      "50": 3578,
      "arra": 3579,
      "Ġquiera": 3580,
      "Ġbe": 3581,
      "Ġpueda": 3582,
      "Ġsecundo": 3583,
      "mento": 3584,
      "Ġelem": 3585,
      "Ġquaeso": 3586,
      "Ġordin": 3587,
      "Ġvac": 3588,
      "Ġdigo": 3589,
      "ĠImp": 3590,
      "ĠMu": 3591,
      "Ġpossum": 3592,
      "simi": 3593,
      "ĠMat": 3594,
      "ĠMaria": 3595,
      "gent": 3596,
      "Ġpraec": 3597,
      "tibus": 3598,
      "ĠartÃŃculo": 3599,
      "Ã©l": 3600,
      "Ġsup": 3601,
      "uerunt": 3602,
      "Ġqualquer": 3603,
      "Ġluna": 3604,
      "Ġune": 3605,
      "Ġuomini": 3606,
      "entus": 3607,
      "Ġnunquam": 3608,
      "Ġperpe": 3609,
      "chia": 3610,
      "Ġpoli": 3611,
      "Ġfiloso": 3612,
      "fico": 3613,
      "Aprovecha": 3614,
      "etur": 3615,
      "Ġore": 3616,
      "Ġaper": 3617,
      "duxit": 3618,
      "Ġimper": 3619,
      "Ġux": 3620,
      "elos": 3621,
      "ello": 3622,
      "pede": 3623,
      "Chi": 3624,
      "Ãĵ": 3625,
      "Ġlum": 3626,
      "ard": 3627,
      "Ġserva": 3628,
      "Ġamo": 3629,
      "Ġnatural": 3630,
      "RE": 3631,
      "Ġpuesto": 3632,
      "ĠhÃ³s": 3633,
      "ĠhÃ³spede": 3634,
      "Leros": 3635,
      "voc": 3636,
      "Ġellas": 3637,
      "Ġ[=": 3638,
      "Ġdictum": 3639,
      "ĠHijo": 3640,
      "bal": 3641,
      "ane": 3642,
      "ame": 3643,
      "Ġfundam": 3644,
      "Ġsos": 3645,
      "Ġolvi": 3646,
      "Ġhor": 3647,
      "TA": 3648,
      "ĠLi": 3649,
      "Ġconfor": 3650,
      "ĠSanc": 3651,
      "RA": 3652,
      "cin": 3653,
      "Ġcorrup": 3654,
      "Ġomnis": 3655,
      "Ġtempo": 3656,
      "Ġestamos": 3657,
      "Ġindica": 3658,
      "Ġunum": 3659,
      "Ġdelante": 3660,
      "Ġtradu": 3661,
      "lle": 3662,
      "Anno": 3663,
      "Ġturbis": 3664,
      "Ġsuscitavit": 3665,
      "Ġtexto": 3666,
      "ĠdemÃ¡s": 3667,
      "lare": 3668,
      "ĠScrip": 3669,
      "bado": 3670,
      "verit": 3671,
      "entado": 3672,
      "ilia": 3673,
      "Ġlleva": 3674,
      "Ġquinque": 3675,
      "ĠDoc": 3676,
      "Ġmucha": 3677,
      "ĠpolÃŃ": 3678,
      "Ġdimisisset": 3679,
      "35": 3680,
      "Ġvivere": 3681,
      "Ġmonte": 3682,
      "Ġcolor": 3683,
      "Nihil": 3684,
      "cre": 3685,
      "Ġesca": 3686,
      "dium": 3687,
      "Ã©e": 3688,
      "Ġhaere": 3689,
      "Ġadministra": 3690,
      "utus": 3691,
      "Car": 3692,
      "ĠLas": 3693,
      "ĠGran": 3694,
      "Ġpatria": 3695,
      "teriores": 3696,
      "Ġmismos": 3697,
      "Ġarte": 3698,
      "Ġdimissis": 3699,
      "Ġlejos": 3700,
      "Ġillos": 3701,
      "arii": 3702,
      "Ġhodie": 3703,
      "tete": 3704,
      "deri": 3705,
      "tener": 3706,
      "Ġdiciendo": 3707,
      "Ġconclus": 3708,
      "Ġquattuor": 3709,
      "zÃ³": 3710,
      "ĠEst": 3711,
      "Aliquam": 3712,
      "Mat": 3713,
      "Ġton": 3714,
      "Ġmujeres": 3715,
      "Ġquesta": 3716,
      "Ġsepti": 3717,
      "ĠRes": 3718,
      "Ġdicunt": 3719,
      "ĠreligiÃ³n": 3720,
      "Ġmortuus": 3721,
      "Ġdelecta": 3722,
      "jet": 3723,
      "Ġsuerte": 3724,
      "ĠChi": 3725,
      "ĠEuropa": 3726,
      "Don": 3727,
      "Ġ&": 3728,
      "Ġevi": 3729,
      "iter": 3730,
      "ĠIsrahel": 3731,
      "Ġdijeron": 3732,
      "36": 3733,
      "?.": 3734,
      "tiÃ³": 3735,
      "cipa": 3736,
      "eles": 3737,
      "ĠÃ³": 3738,
      "Ġ30": 3739,
      "34": 3740,
      "Ġpena": 3741,
      "nis": 3742,
      "timo": 3743,
      "endas": 3744,
      "ĠBe": 3745,
      "Sim": 3746,
      "Ġinten": 3747,
      "iado": 3748,
      "Ġconos": 3749,
      "Ġorg": 3750,
      "tran": 3751,
      "ĠLat": 3752,
      "Ġvoluptatem": 3753,
      "Ġvelit": 3754,
      "gros": 3755,
      "Quem": 3756,
      "Ġmiedo": 3757,
      "Ġtotam": 3758,
      "Ġvoy": 3759,
      "Ġgrandes": 3760,
      "Ġpostquam": 3761,
      "Accueil": 3762,
      "Ġconsequatur": 3763,
      "Hic": 3764,
      "ĠBa": 3765,
      "Ġpecuni": 3766,
      "Ġinvesti": 3767,
      "Ġpeccatum": 3768,
      "ĠCam": 3769,
      "ĠPh": 3770,
      "migo": 3771,
      "torum": 3772,
      "Ġempres": 3773,
      "uria": 3774,
      "cito": 3775,
      "Ġcontes": 3776,
      "zan": 3777,
      "Ġdicendum": 3778,
      "Ġllega": 3779,
      "vangelio": 3780,
      "Neces": 3781,
      "tte": 3782,
      "Ġconti": 3783,
      "Ġimpe": 3784,
      "ondo": 3785,
      "Ġcontrario": 3786,
      "Ġpap": 3787,
      "Ġaccus": 3788,
      "arte": 3789,
      "Ġvere": 3790,
      "Ġfab": 3791,
      "dico": 3792,
      "Ġfacilis": 3793,
      "Vis": 3794,
      "Ġocul": 3795,
      "Ġpregunta": 3796,
      "lae": 3797,
      "Ġfalta": 3798,
      "Ju": 3799,
      "US": 3800,
      "ee": 3801,
      "aso": 3802,
      "Ġnovi": 3803,
      "Quin": 3804,
      "Ġsiendo": 3805,
      "ĠalgÃºn": 3806,
      "Ġk": 3807,
      "Ġvidere": 3808,
      "lama": 3809,
      "Ġfalso": 3810,
      "Ġeduca": 3811,
      "pira": 3812,
      "Ġmatutin": 3813,
      "Ġspiritu": 3814,
      "elle": 3815,
      "Ġtim": 3816,
      "Ġmuli": 3817,
      "Ġcie": 3818,
      "Ġmuertos": 3819,
      "Ġsempre": 3820,
      "Ġofre": 3821,
      "Ġmuerto": 3822,
      "plici": 3823,
      "ĠJuan": 3824,
      "Ġdinero": 3825,
      "fu": 3826,
      "ler": 3827,
      "Ġquale": 3828,
      "bes": 3829,
      "Ġdices": 3830,
      "Ġvive": 3831,
      "mientos": 3832,
      "ĠJo": 3833,
      "Ġduas": 3834,
      "cieron": 3835,
      "lim": 3836,
      "Ġtrabaj": 3837,
      "Ġcri": 3838,
      "Ġfl": 3839,
      "Ġreal": 3840,
      "Ġarchi": 3841,
      "alia": 3842,
      "Ġfuerte": 3843,
      "Nulla": 3844,
      "Ġcogno": 3845,
      "Ġterri": 3846,
      "Ġverdadero": 3847,
      "Ġfran": 3848,
      "Ã¡pi": 3849,
      "Ġcommo": 3850,
      "ĠRa": 3851,
      "Ġrecte": 3852,
      "Ġ2014": 3853,
      "cÃ³mo": 3854,
      "Ġ=": 3855,
      "tamus": 3856,
      "!\"": 3857,
      "Lu": 3858,
      "bros": 3859,
      "ĠPon": 3860,
      "bro": 3861,
      "icum": 3862,
      "aban": 3863,
      "Ġdul": 3864,
      "ÃŃr": 3865,
      "ĠMoisÃ©s": 3866,
      "ĠLA": 3867,
      "38": 3868,
      "Ġnul": 3869,
      "Ġexal": 3870,
      "zada": 3871,
      "Ġcogi": 3872,
      "Ġessere": 3873,
      "Ob": 3874,
      "Ġlet": 3875,
      "ĠPres": 3876,
      "Ġprud": 3877,
      "Ġdicis": 3878,
      "gat": 3879,
      "entaciÃ³n": 3880,
      "ĠVir": 3881,
      "Ġ--": 3882,
      "licar": 3883,
      "Ġmentiri": 3884,
      "Ġmediante": 3885,
      "tada": 3886,
      "Quo": 3887,
      "Ġgan": 3888,
      "ĠcuÃ¡n": 3889,
      "Ġservicio": 3890,
      "frica": 3891,
      "ĠespaÃ±ol": 3892,
      "ĠCat": 3893,
      "Pres": 3894,
      "nas": 3895,
      "plica": 3896,
      "Ġadul": 3897,
      "tÃŃculos": 3898,
      "Ġespiritu": 3899,
      "Ġresu": 3900,
      "ĠOri": 3901,
      "Ġcreatura": 3902,
      "Ġlaborum": 3903,
      "SÃ³lo": 3904,
      "tates": 3905,
      "Ġpropia": 3906,
      "Ġhabes": 3907,
      "Ġpraece": 3908,
      "ficar": 3909,
      "Ġrequi": 3910,
      "tana": 3911,
      "Ġmultum": 3912,
      "Ġmultos": 3913,
      "posiciÃ³n": 3914,
      "Ġmille": 3915,
      "zos": 3916,
      "Ġlevan": 3917,
      "Ellos": 3918,
      "Ġperfecto": 3919,
      "Dio": 3920,
      "Ġaedi": 3921,
      "Ġqued": 3922,
      "ĠAt": 3923,
      "Ġsiete": 3924,
      "ĠBri": 3925,
      "Ġfavore": 3926,
      "Ġed": 3927,
      "Ġsitio": 3928,
      "ĠFil": 3929,
      "Ã©sar": 3930,
      "Ġprimeros": 3931,
      "ĠSara": 3932,
      "dose": 3933,
      "Ġje": 3934,
      "Ġvaca": 3935,
      "ws": 3936,
      "Ġmente": 3937,
      "Ġigno": 3938,
      "ĠCol": 3939,
      "ĠPas": 3940,
      "zco": 3941,
      "Ġvec": 3942,
      "Ã¡les": 3943,
      "Ġsuficiente": 3944,
      "bio": 3945,
      "ĠSE": 3946,
      "ĠSec": 3947,
      "piri": 3948,
      "rando": 3949,
      "Vos": 3950,
      "Ġpunto": 3951,
      "Ġintro": 3952,
      "ĠGal": 3953,
      "inam": 3954,
      "Ġpropor": 3955,
      "Desde": 3956,
      "Ġderecho": 3957,
      "ĠSim": 3958,
      "ĠenseÃ±": 3959,
      "Cam": 3960,
      "ĠSoci": 3961,
      "Ġrespondit": 3962,
      "Ġtranqui": 3963,
      "tetur": 3964,
      "togra": 3965,
      "Ġsuas": 3966,
      "trac": 3967,
      "cionales": 3968,
      "Ġjuz": 3969,
      "Ġlabore": 3970,
      "Ġquare": 3971,
      "Ġaliquo": 3972,
      "32": 3973,
      "biÃ³": 3974,
      "Us": 3975,
      "ck": 3976,
      "usi": 3977,
      "Ġcredere": 3978,
      "Ġquaedam": 3979,
      "Ġvolver": 3980,
      "Ġnocturno": 3981,
      "ido": 3982,
      "Ġvari": 3983,
      "tionibus": 3984,
      "Ġtotal": 3985,
      "Ġscio": 3986,
      "eretur": 3987,
      "Ġvivo": 3988,
      "Ġexcel": 3989,
      "Rom": 3990,
      "enos": 3991,
      "ĠSol": 3992,
      "Ġcorrec": 3993,
      "Ġsegunda": 3994,
      "ffici": 3995,
      "Ġcria": 3996,
      "istas": 3997,
      "Ġdicam": 3998,
      "zon": 3999,
      "Ġev": 4000,
      "Ġ29": 4001,
      "Ġcerte": 4002,
      "tudine": 4003,
      "Ġcrediderunt": 4004,
      "Eum": 4005,
      "Ġcontac": 4006,
      "Ġpopuli": 4007,
      "ĠpodrÃŃa": 4008,
      "ĠÃºnico": 4009,
      "ai": 4010,
      "ses": 4011,
      "Ġdia": 4012,
      "ĠinformaciÃ³n": 4013,
      "Ġhaeredi": 4014,
      "Mt": 4015,
      "Ġdescu": 4016,
      "ï¿": 4017,
      "enit": 4018,
      "Ġcit": 4019,
      "Ġpostea": 4020,
      "Ġfaciam": 4021,
      "ĠÃºltimo": 4022,
      "Ġfine": 4023,
      "Ġmolto": 4024,
      ".'[": 4025,
      "Fac": 4026,
      "omos": 4027,
      "Ġcabe": 4028,
      "ĠveritÃł": 4029,
      "Ġfidem": 4030,
      "Ġlux": 4031,
      "Soy": 4032,
      "uli": 4033,
      "erta": 4034,
      "entas": 4035,
      "Ġquel": 4036,
      "gaciÃ³n": 4037,
      "Ġjunto": 4038,
      "Ġmorir": 4039,
      "Ġproblema": 4040,
      "bere": 4041,
      "cat": 4042,
      "hab": 4043,
      "Ġadmi": 4044,
      "Ġmanos": 4045,
      "ï¿½": 4046,
      "cf": 4047,
      "Ġaus": 4048,
      "Ġpia": 4049,
      "Ġsigue": 4050,
      "Ġproce": 4051,
      "OM": 4052,
      "Ġenemi": 4053,
      "icae": 4054,
      "ĠNi": 4055,
      "39": 4056,
      "Ġaposto": 4057,
      "onom": 4058,
      "Ġtui": 4059,
      "gente": 4060,
      "ligi": 4061,
      "odas": 4062,
      "ĠHe": 4063,
      "Ġ\".": 4064,
      "Ġintra": 4065,
      "Ġrepro": 4066,
      "sed": 4067,
      "mael": 4068,
      "gnore": 4069,
      "ĠVal": 4070,
      "Gracias": 4071,
      "Nes": 4072,
      "ĠWEB": 4073,
      "Pod": 4074,
      "utri": 4075,
      "Ġnuestras": 4076,
      "Ġoff": 4077,
      "pter": 4078,
      "Ġcreyentes": 4079,
      "cces": 4080,
      "Ãµ": 4081,
      "Ãģ": 4082,
      "Ġcontemp": 4083,
      "trÃ¡s": 4084,
      "poris": 4085,
      "Ġquanti": 4086,
      "Ġignora": 4087,
      "icus": 4088,
      "Ġadvers": 4089,
      "Ġ26": 4090,
      "Ġillud": 4091,
      "ĠNos": 4092,
      "Adem": 4093,
      "Id": 4094,
      "ĠpÃº": 4095,
      "ulos": 4096,
      "duci": 4097,
      "Ġnecesita": 4098,
      "gredi": 4099,
      "deatur": 4100,
      "Ġsacerdotes": 4101,
      "Ġdilectam": 4102,
      "Ġpulch": 4103,
      "Mas": 4104,
      "ins": 4105,
      "Ġduda": 4106,
      "Ġnumero": 4107,
      "!!!": 4108,
      "get": 4109,
      "Ġdans": 4110,
      "Ġapare": 4111,
      "Ġmeo": 4112,
      "Ġdistinc": 4113,
      "Ġsapiente": 4114,
      "CA": 4115,
      "rÃ³n": 4116,
      "Ġafi": 4117,
      "Ġine": 4118,
      "Ġprogra": 4119,
      "Ġjun": 4120,
      "Ġcito": 4121,
      "Ġsemen": 4122,
      "ginta": 4123,
      "Ġconsequuntur": 4124,
      "Ġpossideat": 4125,
      "Ġpecuniam": 4126,
      "Ho": 4127,
      "lÃŃ": 4128,
      "mÃ³": 4129,
      "Ġsequi": 4130,
      "Ġcree": 4131,
      "Ġciencia": 4132,
      "Siguiente": 4133,
      "Ġocasi": 4134,
      "Ġcomentarios": 4135,
      "Mihi": 4136,
      "Fue": 4137,
      "vim": 4138,
      "atore": 4139,
      "Ġcompar": 4140,
      "ĠJesus": 4141,
      "ĠSanta": 4142,
      "Ġcae": 4143,
      "Ġenga": 4144,
      "Ġprofeta": 4145,
      "ĠBib": 4146,
      "Ġhacerlo": 4147,
      "Nada": 4148,
      "gados": 4149,
      "ĠTe": 4150,
      "ĠseÃ±or": 4151,
      "terum": 4152,
      "Ella": 4153,
      "ferendis": 4154,
      "tonio": 4155,
      "Ġterrae": 4156,
      "Ġdeclara": 4157,
      "Ġdocum": 4158,
      "fuer": 4159,
      "jor": 4160,
      "Â·": 4161,
      "Ġnas": 4162,
      "Ġros": 4163,
      "Ġ2011": 4164,
      "Vel": 4165,
      "uevo": 4166,
      "uris": 4167,
      "ĠTer": 4168,
      "Tiene": 4169,
      "Hi": 4170,
      "Ġago": 4171,
      "Ġjue": 4172,
      "Categ": 4173,
      "Ġvoluntad": 4174,
      "Ġinterior": 4175,
      "Ġanimales": 4176,
      "Bus": 4177,
      "sunt": 4178,
      "Uno": 4179,
      "Ġjuicio": 4180,
      "Ġipsa": 4181,
      "Habeat": 4182,
      "cco": 4183,
      "Ġnoi": 4184,
      "edro": 4185,
      "ĠFide": 4186,
      "Ġestaban": 4187,
      "Ġpossideatur": 4188,
      "fru": 4189,
      "Ġrealmente": 4190,
      "inae": 4191,
      "grada": 4192,
      "EstÃ¡": 4193,
      "Ġinfin": 4194,
      "ĠSalom": 4195,
      "Gli": 4196,
      "AlÃ¡": 4197,
      "Ġprofetas": 4198,
      "ink": 4199,
      "ĠGre": 4200,
      "ĠGener": 4201,
      "Ġnecesidad": 4202,
      "jado": 4203,
      "Ġofici": 4204,
      "Ġcred": 4205,
      "Ġuso": 4206,
      "ĠÂ».": 4207,
      "Ġsignific": 4208,
      "Ġmeses": 4209,
      "Ġnesciunt": 4210,
      "simos": 4211,
      "Ġtuvo": 4212,
      "glia": 4213,
      "ditiis": 4214,
      "Ġrever": 4215,
      "turum": 4216,
      "Ġsigui": 4217,
      "cogi": 4218,
      "Ġpedi": 4219,
      "ĠcategorÃŃa": 4220,
      "inaciÃ³n": 4221,
      "ĠrÃ¡pi": 4222,
      "Ġnecesi": 4223,
      "Ġ2012": 4224,
      "Ġaliquando": 4225,
      "Ġperfecta": 4226,
      "Ġnomine": 4227,
      "Du": 4228,
      "Pat": 4229,
      "Ġconsci": 4230,
      "Ġescuch": 4231,
      "fecta": 4232,
      "Dec": 4233,
      "gamos": 4234,
      "Ġoculos": 4235,
      "Ġ22": 4236,
      "Ġsangu": 4237,
      "ĠquerÃŃa": 4238,
      "test": 4239,
      "IA": 4240,
      "mu": 4241,
      "Ġnella": 4242,
      "Ġhal": 4243,
      "Ġverba": 4244,
      "Come": 4245,
      "42": 4246,
      "tun": 4247,
      "titur": 4248,
      "Ġmais": 4249,
      "Ġpie": 4250,
      "Ġ197": 4251,
      "Ġsangre": 4252,
      "Bene": 4253,
      "pus": 4254,
      "esas": 4255,
      "Ġvas": 4256,
      "ducir": 4257,
      "ĠBo": 4258,
      "caso": 4259,
      "AdemÃ¡s": 4260,
      "nia": 4261,
      "yen": 4262,
      "ancia": 4263,
      "ĠIV": 4264,
      "ette": 4265,
      "Ġvista": 4266,
      "Ġcupiditate": 4267,
      "Solo": 4268,
      "TO": 4269,
      "vem": 4270,
      "ĠPra": 4271,
      "Ġ28": 4272,
      "Ġamar": 4273,
      "Ġdebes": 4274,
      "Ġomnipotens": 4275,
      "Veni": 4276,
      "ĠSem": 4277,
      "ĠMan": 4278,
      "ĠFatu": 4279,
      "rse": 4280,
      "xerunt": 4281,
      "Bien": 4282,
      "Ġ$": 4283,
      "Ġeadem": 4284,
      "Ġdan": 4285,
      "gne": 4286,
      "DE": 4287,
      "Pas": 4288,
      "pit": 4289,
      "Ġtum": 4290,
      "ĠCÃ©sar": 4291,
      "guo": 4292,
      "dÃŃ": 4293,
      "Ġsepul": 4294,
      "Ġadel": 4295,
      "trÃ³": 4296,
      "Ġmai": 4297,
      "Ġcirc": 4298,
      "gico": 4299,
      "osÃ©": 4300,
      "inc": 4301,
      "Ġdemas": 4302,
      "tive": 4303,
      "estiÃ³n": 4304,
      "ĠoraciÃ³n": 4305,
      "vor": 4306,
      "ÃĪ": 4307,
      "Ġcorreo": 4308,
      "Ġpodemos": 4309,
      "Ġimpi": 4310,
      "Or": 4311,
      "her": 4312,
      "ĠmÃºsica": 4313,
      "ama": 4314,
      "ÃŃpul": 4315,
      "Ġperder": 4316,
      "Ġvoz": 4317,
      "Ã§a": 4318,
      "Ġsalutatione": 4319,
      "Pi": 4320,
      "fe": 4321,
      "Ġefecto": 4322,
      "ĠaÃ±a": 4323,
      "uestro": 4324,
      "Ġacto": 4325,
      "Ġaliud": 4326,
      "Ġinteres": 4327,
      "Ġtemplo": 4328,
      "Ġfilios": 4329,
      "Neque": 4330,
      "damente": 4331,
      "Ġratio": 4332,
      "oribus": 4333,
      "Ġestre": 4334,
      "ĠMon": 4335,
      "Ġtomar": 4336,
      "Ġabsur": 4337,
      "Ġvoluptas": 4338,
      "Item": 4339,
      "Ã®": 4340,
      "ĠespÃŃritu": 4341,
      "Ġenfer": 4342,
      "Ġunir": 4343,
      "Ġgal": 4344,
      "ĠSac": 4345,
      "Ġmeli": 4346,
      "Ġmontes": 4347,
      "ĠRey": 4348,
      "han": 4349,
      "ĠNum": 4350,
      "Ġcorri": 4351,
      "Ġimposible": 4352,
      "Ġdob": 4353,
      "tario": 4354,
      "cilia": 4355,
      "Ġincon": 4356,
      "set": 4357,
      "Ġvigi": 4358,
      "Ġvolunt": 4359,
      "ĠlÃŃne": 4360,
      "Omnes": 4361,
      "Ġconsul": 4362,
      "ficaciÃ³n": 4363,
      "Ġmentiens": 4364,
      "Ġdele": 4365,
      "Ġinsi": 4366,
      "ĠAli": 4367,
      "positum": 4368,
      "porta": 4369,
      "Ġlegem": 4370,
      "cti": 4371,
      "Ġiusto": 4372,
      "Ġredi": 4373,
      "Quare": 4374,
      "Ġ196": 4375,
      "Ġsimilique": 4376,
      "erusalem": 4377,
      "cend": 4378,
      "vÃ©s": 4379,
      "Ġaves": 4380,
      "ĠpÃ¡": 4381,
      "Ġmuta": 4382,
      "Vous": 4383,
      "Nunca": 4384,
      "Verum": 4385,
      "pta": 4386,
      "quem": 4387,
      "ung": 4388,
      "Ġconven": 4389,
      "Ġrecuer": 4390,
      "oooo": 4391,
      "Ġqueri": 4392,
      "ime": 4393,
      "ĠIsmael": 4394,
      "Ġarri": 4395,
      "ebr": 4396,
      "ada": 4397,
      "Ġentrar": 4398,
      "Ġamis": 4399,
      "pic": 4400,
      "vre": 4401,
      "ĠOm": 4402,
      "Ġnumeros": 4403,
      "ĠallÃ¡": 4404,
      "45": 4405,
      "Ġq": 4406,
      "Ġpal": 4407,
      "Ġquanto": 4408,
      "Ġenvia": 4409,
      "Ġperi": 4410,
      "Ġpertin": 4411,
      "Ġtoma": 4412,
      "Ġmaes": 4413,
      "decim": 4414,
      "IV": 4415,
      "rupti": 4416,
      "Ġ2018": 4417,
      "Ġlonge": 4418,
      "Fi": 4419,
      "ki": 4420,
      "ceper": 4421,
      "Ġescribir": 4422,
      "Ġvirtud": 4423,
      "Ġimpedit": 4424,
      "Pla": 4425,
      "Sab": 4426,
      "Â°": 4427,
      "Ġaleg": 4428,
      "Ġconmigo": 4429,
      "ceat": 4430,
      "pisci": 4431,
      "Ġtema": 4432,
      "endido": 4433,
      "Ġanimal": 4434,
      "Ġcontinua": 4435,
      "Fu": 4436,
      "Mis": 4437,
      "ĠSin": 4438,
      "ocu": 4439,
      "Ġgratu": 4440,
      "Ġdiferencia": 4441,
      "Hasta": 4442,
      "gunt": 4443,
      "Ġexpe": 4444,
      "Ven": 4445,
      "Ġsucces": 4446,
      "Ġcreen": 4447,
      "cumque": 4448,
      "Ġciudades": 4449,
      "Ã³so": 4450,
      "Ġpace": 4451,
      "Ġcontradic": 4452,
      "durÃŃa": 4453,
      "Ġgru": 4454,
      "ficit": 4455,
      "Ġseguir": 4456,
      "Ġconcu": 4457,
      "Ġlibri": 4458,
      "Ġgenere": 4459,
      "Ġimagin": 4460,
      "Ipse": 4461,
      "ĠDomine": 4462,
      "yos": 4463,
      "Ġcres": 4464,
      "ement": 4465,
      "ĠhabÃŃan": 4466,
      "Ġprepara": 4467,
      "Ġinterna": 4468,
      "Ġmolestias": 4469,
      "umen": 4470,
      "Ġindu": 4471,
      "Ġminima": 4472,
      "hom": 4473,
      "anus": 4474,
      "vieron": 4475,
      "gipto": 4476,
      "Ġases": 4477,
      "Ġoro": 4478,
      "?âĢĿ.": 4479,
      "gare": 4480,
      "Ġplu": 4481,
      "Va": 4482,
      "ires": 4483,
      "liter": 4484,
      "Ġ2017": 4485,
      "Ġdecipi": 4486,
      "Estoy": 4487,
      "ual": 4488,
      "Ġperferendis": 4489,
      "ĠSed": 4490,
      "Ġrecor": 4491,
      "Ġabsol": 4492,
      "Ġaiutar": 4493,
      "Ġclaro": 4494,
      "46": 4495,
      "mÃ¡": 4496,
      "xi": 4497,
      "enten": 4498,
      "Espero": 4499,
      "Ġprofes": 4500,
      "Ġrecibir": 4501,
      ".]": 4502,
      "erem": 4503,
      "tiene": 4504,
      "ĠnÃ£o": 4505,
      "tioni": 4506,
      "ibles": 4507,
      "greso": 4508,
      "ĠScriptura": 4509,
      "Col": 4510,
      "rir": 4511,
      "Ġmedia": 4512,
      "Ġgratis": 4513,
      "Ġresponde": 4514,
      "Ġscilicet": 4515,
      "RI": 4516,
      "Ġpromo": 4517,
      "Nadie": 4518,
      "LA": 4519,
      "Ġestis": 4520,
      "ĠPri": 4521,
      "quiÃ©n": 4522,
      "enden": 4523,
      "Ġcorporis": 4524,
      "Ġbenedic": 4525,
      "Ġaquello": 4526,
      "Ġentrada": 4527,
      "pat": 4528,
      "udo": 4529,
      "Ġalta": 4530,
      "endere": 4531,
      "Ġmali": 4532,
      "ĠpodÃŃa": 4533,
      "Ġdomo": 4534,
      "Ġdegli": 4535,
      "ork": 4536,
      "Ġesos": 4537,
      "ĠNor": 4538,
      "ĠGerman": 4539,
      "venes": 4540,
      "Ġconfes": 4541,
      "Ġbonus": 4542,
      "Ġparticul": 4543,
      "tuis": 4544,
      "ulas": 4545,
      "entibus": 4546,
      "Ġdeben": 4547,
      "Ġvespere": 4548,
      "ĠTierra": 4549,
      "ĠVatic": 4550,
      "Del": 4551,
      "mino": 4552,
      "Ġala": 4553,
      "Ġdedit": 4554,
      "atores": 4555,
      "ĠComo": 4556,
      "Ġgesta": 4557,
      "Ġ2016": 4558,
      "Ġllevar": 4559,
      "trucciÃ³n": 4560,
      "?Â»": 4561,
      "Ġâ": 4562,
      "Ġsei": 4563,
      "Ġsignis": 4564,
      "tamen": 4565,
      "ĠÂ§": 4566,
      "Ġaband": 4567,
      "Ġcontacto": 4568,
      "ĠIl": 4569,
      "Ġformas": 4570,
      "Ġejec": 4571,
      "Ġadora": 4572,
      "Itaque": 4573,
      "tidie": 4574,
      "Ġinqui": 4575,
      "viÃ³": 4576,
      "ĠVol": 4577,
      "cripciÃ³n": 4578,
      "quod": 4579,
      "Ġnatus": 4580,
      "ania": 4581,
      "Ġconcep": 4582,
      "ĠIu": 4583,
      "entre": 4584,
      "Ġexitus": 4585,
      "Ġarbit": 4586,
      "Ġitaque": 4587,
      "Ġiniqui": 4588,
      "oseph": 4589,
      "Ġasi": 4590,
      "ĠtÃ©r": 4591,
      "Ġperten": 4592,
      "ĠES": 4593,
      "Ġcarrito": 4594,
      "ĠsueÃ±o": 4595,
      "ĠProp": 4596,
      "Grazie": 4597,
      "Ġdifficile": 4598,
      "ustra": 4599,
      "elÃŃ": 4600,
      "Ġprovid": 4601,
      "Ġpars": 4602,
      "Ġdiciembre": 4603,
      "ĠrespondiÃ³": 4604,
      "Ġdiez": 4605,
      "ĠPater": 4606,
      "Ġgeneral": 4607,
      "RO": 4608,
      "ĠCal": 4609,
      "Ġ23": 4610,
      "ventura": 4611,
      "Ġimagen": 4612,
      "ĠIesus": 4613,
      "ture": 4614,
      "Ġtr": 4615,
      "Ġcuales": 4616,
      "Ġforte": 4617,
      "ÃĵN": 4618,
      "Aunque": 4619,
      "uve": 4620,
      "ĠlatÃŃn": 4621,
      "ÃŃamos": 4622,
      "ĠDel": 4623,
      "Ġsuum": 4624,
      "Ġperdi": 4625,
      "Ġsitua": 4626,
      "abo": 4627,
      "ellat": 4628,
      "Ġmondo": 4629,
      "Ġinvoc": 4630,
      "Ġconfirma": 4631,
      "Ġexplicabo": 4632,
      "osos": 4633,
      "Ġphilosoph": 4634,
      "Ġdetermina": 4635,
      "Ġvid": 4636,
      "ĠMil": 4637,
      "Ġcorrespon": 4638,
      "guntas": 4639,
      "Ġoptio": 4640,
      "Ġputa": 4641,
      "audi": 4642,
      "Ġassumenda": 4643,
      "Hola": 4644,
      "atti": 4645,
      "Ġcorre": 4646,
      "ĠdiscÃŃpul": 4647,
      "Ġbeatae": 4648,
      "erda": 4649,
      "Ġlud": 4650,
      "tii": 4651,
      "ĠÃ©s": 4652,
      "Ġhumanos": 4653,
      "ĠFrancis": 4654,
      "ĠBritan": 4655,
      "Can": 4656,
      "Ãį": 4657,
      "onia": 4658,
      "isa": 4659,
      "ĠcreaciÃ³n": 4660,
      "Ġnub": 4661,
      "ĠvÃŃ": 4662,
      "Ġsuce": 4663,
      "Ġdestino": 4664,
      "Ġ100": 4665,
      "Ġ21": 4666,
      "sime": 4667,
      "Ġbuenos": 4668,
      "Hoy": 4669,
      "Ra": 4670,
      "Ġmens": 4671,
      "Ġesp": 4672,
      "ase": 4673,
      "âĢĺ": 4674,
      "cui": 4675,
      "Algun": 4676,
      "Ġvuestros": 4677,
      "tual": 4678,
      "luso": 4679,
      "sub": 4680,
      "rico": 4681,
      "tano": 4682,
      "rant": 4683,
      "Ġusu": 4684,
      "Ġdilectio": 4685,
      "Ġpecados": 4686,
      "Dixit": 4687,
      "Estne": 4688,
      "Primera": 4689,
      "Au": 4690,
      "quando": 4691,
      "Ġfinem": 4692,
      "Pu": 4693,
      "Ġeduxit": 4694,
      "Ġsp": 4695,
      "Ġinim": 4696,
      "Ġocu": 4697,
      "Ġverdadera": 4698,
      "ĠSignore": 4699,
      "Ġponer": 4700,
      "Ġstatu": 4701,
      "Ġsimile": 4702,
      "Ġmultas": 4703,
      "Ġsiervos": 4704,
      "Ri": 4705,
      "llas": 4706,
      "Ġlitter": 4707,
      "tale": 4708,
      "rans": 4709,
      "tarÃŃa": 4710,
      "Ġdisputa": 4711,
      "ruit": 4712,
      "mat": 4713,
      "neces": 4714,
      "tios": 4715,
      "biles": 4716,
      "ĠmuriÃ³": 4717,
      "xima": 4718,
      "Ġpotentia": 4719,
      "44": 4720,
      "vant": 4721,
      "visi": 4722,
      "dite": 4723,
      "bito": 4724,
      "etro": 4725,
      "icaciÃ³n": 4726,
      "Ġmundi": 4727,
      "icer": 4728,
      "ĠChristo": 4729,
      "Ġmill": 4730,
      "Ġenvidia": 4731,
      "tali": 4732,
      "ĠSam": 4733,
      "Ġdiscip": 4734,
      "trib": 4735,
      "Ġcantidad": 4736,
      "Ġescrito": 4737,
      "Ġbusca": 4738,
      "bbe": 4739,
      "Ġenc": 4740,
      "Ġgio": 4741,
      "Ġalum": 4742,
      "Ġcola": 4743,
      "Ġpute": 4744,
      "ensiÃ³n": 4745,
      "Ġdoctrina": 4746,
      "Ġjud": 4747,
      "Ġarro": 4748,
      "Ġpromesas": 4749,
      "Ġsuperior": 4750,
      "Ġ2008": 4751,
      "Ġsuffici": 4752,
      "Ġvocatur": 4753,
      "lÃ©": 4754,
      "Ġaver": 4755,
      "tubre": 4756,
      "Ġmeam": 4757,
      "Ġloc": 4758,
      "deros": 4759,
      "Ġsalud": 4760,
      "Ġinstrum": 4761,
      "XX": 4762,
      "plic": 4763,
      "tÃ¡": 4764,
      "âĢ¢": 4765,
      "dedor": 4766,
      "entÃŃ": 4767,
      "Uni": 4768,
      "Ġfieri": 4769,
      "glie": 4770,
      "ĠopiniÃ³n": 4771,
      "Ġdum": 4772,
      "ĠserÃŃa": 4773,
      "ĠFacebook": 4774,
      "Ġdura": 4775,
      "Ġvolo": 4776,
      "Ġtrabajar": 4777,
      "Ġconsuetudo": 4778,
      "uar": 4779,
      "ĠDÃŃa": 4780,
      "Ġcali": 4781,
      "DespuÃ©s": 4782,
      "Ġcircum": 4783,
      "Ġessent": 4784,
      "Ġestudi": 4785,
      "Ġcondiciones": 4786,
      "Ġonline": 4787,
      "Ġhubiera": 4788,
      "Ġintelig": 4789,
      "Io": 4790,
      "dal": 4791,
      "fes": 4792,
      "pae": 4793,
      "ty": 4794,
      "tula": 4795,
      "Ġiterum": 4796,
      "ĠEgipto": 4797,
      "Ġposuit": 4798,
      "Ġ2019": 4799,
      "ĠDominum": 4800,
      "Ġagere": 4801,
      "Ġvestram": 4802,
      "Tengo": 4803,
      "TambiÃ©n": 4804,
      "Ġvidi": 4805,
      "Ġartic": 4806,
      "Ġfecis": 4807,
      "Ġnuevas": 4808,
      "'.": 4809,
      "Ġvale": 4810,
      "Ġaquellos": 4811,
      "Ġseptiembre": 4812,
      "Ġvacaciones": 4813,
      "bet": 4814,
      "gine": 4815,
      "antas": 4816,
      "Ġproyec": 4817,
      "Dos": 4818,
      "tatio": 4819,
      "teo": 4820,
      "Ġcreat": 4821,
      "trem": 4822,
      "Ġoccur": 4823,
      "Ġvisita": 4824,
      "Ġcustodi": 4825,
      "sec": 4826,
      "Ĥ¬": 4827,
      "Ġprohi": 4828,
      "Ġdisposi": 4829,
      "Ġapar": 4830,
      "Ġappar": 4831,
      "Ġ2009": 4832,
      "Ġtutto": 4833,
      "Ġconoce": 4834,
      "Ay": 4835,
      "Ġdep": 4836,
      "ecen": 4837,
      "ĠSy": 4838,
      "Ġcaelo": 4839,
      "oridad": 4840,
      "Ġfuerat": 4841,
      "ĠdecÃŃa": 4842,
      "Ġdebet": 4843,
      "Ġiure": 4844,
      "pla": 4845,
      "antum": 4846,
      "Ġdiversi": 4847,
      "vir": 4848,
      "Ġamat": 4849,
      "Ġamico": 4850,
      "Ġcolores": 4851,
      "ĠLevi": 4852,
      "Ġrepres": 4853,
      "issent": 4854,
      "Bueno": 4855,
      "Dol": 4856,
      "tÃ³n": 4857,
      "Ġincid": 4858,
      "Ġboni": 4859,
      "Ġfugit": 4860,
      "ĠmÃŃn": 4861,
      "Ġhacemos": 4862,
      "Ġtriste": 4863,
      "Ġped": 4864,
      "bierno": 4865,
      "Ġsilen": 4866,
      "Ġillam": 4867,
      "Ġfuerza": 4868,
      "gosto": 4869,
      "Ġaiutarmi": 4870,
      "gal": 4871,
      "pens": 4872,
      "Ġcomen": 4873,
      "ĠPla": 4874,
      "ĠprÃ¡c": 4875,
      "Ġren": 4876,
      "disti": 4877,
      "Ġvuestro": 4878,
      "Ġcristianos": 4879,
      "Ġnu": 4880,
      "Ġiacob": 4881,
      "ĠMus": 4882,
      "Ġcorde": 4883,
      "anidad": 4884,
      "EstÃ¡s": 4885,
      "Ġconsequantur": 4886,
      "terium": 4887,
      "Ġhaereditatem": 4888,
      "mica": 4889,
      "tendi": 4890,
      "Ġvamos": 4891,
      "Ġnoti": 4892,
      "Ġrecha": 4893,
      "Ġvotre": 4894,
      "Ġfaciunt": 4895,
      "Ġ2001": 4896,
      "Ġ2007": 4897,
      "Ġesti": 4898,
      "sito": 4899,
      "Ġporro": 4900,
      "Ġcreado": 4901,
      "Ġprimum": 4902,
      "Ġparticip": 4903,
      "br": 4904,
      "todo": 4905,
      "ĠRus": 4906,
      "ĠHome": 4907,
      "aliter": 4908,
      "Ġquandoque": 4909,
      "Ġleyendo": 4910,
      "Creo": 4911,
      "umus": 4912,
      "Ġens": 4913,
      "ulus": 4914,
      "Ġnesciens": 4915,
      "Ġtrova": 4916,
      "ĠTestamento": 4917,
      "cen": 4918,
      "itur": 4919,
      "dade": 4920,
      "Ġiglesia": 4921,
      "ich": 4922,
      "Ġsig": 4923,
      "oderat": 4924,
      "Ġresulta": 4925,
      "ĠJe": 4926,
      "Ġamore": 4927,
      "Ġmortem": 4928,
      "Ġdomum": 4929,
      "Ġrevela": 4930,
      "terminos": 4931,
      "Ġsemejante": 4932,
      "Etiquetas": 4933,
      "Luc": 4934,
      "blico": 4935,
      "tudinem": 4936,
      "Ġhaciendo": 4937,
      "Ġfrente": 4938,
      "Ġservata": 4939,
      "olÃ³": 4940,
      "Ġresponder": 4941,
      "Ġdiferentes": 4942,
      "tulit": 4943,
      "Ġdescri": 4944,
      "nous": 4945,
      "Do": 4946,
      "ervi": 4947,
      "recen": 4948,
      "Ġalguno": 4949,
      "cidos": 4950,
      "tecto": 4951,
      "biec": 4952,
      "Ġgior": 4953,
      "gir": 4954,
      "Ġsabes": 4955,
      "Ġmatutini": 4956,
      "Ġejerci": 4957,
      "ĠPero": 4958,
      "pone": 4959,
      "Ġ2010": 4960,
      "Ġpotuit": 4961,
      "Ġdelectabis": 4962,
      "ĠFo": 4963,
      "Ġfuga": 4964,
      "Ġperpetu": 4965,
      "Ġsite": 4966,
      "dados": 4967,
      "ĠMos": 4968,
      "Ġscire": 4969,
      "Ã¡vel": 4970,
      "entales": 4971,
      "Ġattribu": 4972,
      "sÃŃ": 4973,
      "uales": 4974,
      "Ġdev": 4975,
      "pici": 4976,
      "ĠVil": 4977,
      "cclesi": 4978,
      "Ġposses": 4979,
      "ĠEscritura": 4980,
      "Usted": 4981,
      "Fran": 4982,
      "eos": 4983,
      "Ġph": 4984,
      "inar": 4985,
      "Ġquieren": 4986,
      "citationem": 4987,
      "Ġdioses": 4988,
      "enci": 4989,
      "Ġprimi": 4990,
      "Ġmater": 4991,
      "Ġexperim": 4992,
      "Google": 4993,
      "Ġdesarro": 4994,
      "tarum": 4995,
      "Ġalias": 4996,
      "Ġdiscipul": 4997,
      "Ġputeum": 4998,
      "Maria": 4999,
      "Ġespec": 5000,
      "oder": 5001,
      "Exinde": 5002,
      "Ġdalla": 5003,
      "JesÃºs": 5004,
      "omina": 5005,
      "ĠMas": 5006,
      "ĠFi": 5007,
      "uniÃ³n": 5008,
      "Ġlabora": 5009,
      "Ġsimiente": 5010,
      "Ġmensaje": 5011,
      "San": 5012,
      "Sol": 5013,
      "cenza": 5014,
      "fia": 5015,
      "ffer": 5016,
      "elu": 5017,
      "Ġresul": 5018,
      "Ġfortuna": 5019,
      "Ġpasar": 5020,
      "Donde": 5021,
      "sin": 5022,
      "Ġvarios": 5023,
      "Ġidi": 5024,
      "âĢĭ": 5025,
      "Ġalle": 5026,
      "endus": 5027,
      "Ġerrores": 5028,
      "Ġostenderat": 5029,
      "ke": 5030,
      "tta": 5031,
      "ĠCesare": 5032,
      "vidu": 5033,
      "Ġfrater": 5034,
      "QuiÃ©nes": 5035,
      "Ph": 5036,
      "Ġcena": 5037,
      "Ġnemo": 5038,
      "dito": 5039,
      "Ġverbum": 5040,
      "Ġdicuntur": 5041,
      "Ġdescenderunt": 5042,
      "istema": 5043,
      "Acaso": 5044,
      "Feli": 5045,
      "Ġespos": 5046,
      "Ġvali": 5047,
      "Ġporta": 5048,
      "ciatis": 5049,
      "Ġestable": 5050,
      "Puede": 5051,
      "Ġedad": 5052,
      "Ġefec": 5053,
      "Ġfoderat": 5054,
      "rid": 5055,
      "ĠAb": 5056,
      "ĠMensa": 5057,
      "Ġhabl": 5058,
      "Quiero": 5059,
      "Ġmane": 5060,
      "Ġcorpore": 5061,
      "Ġejectam": 5062,
      "ĠestÃ©": 5063,
      "Escri": 5064,
      "Ġprecede": 5065,
      "Ġrespuestas": 5066,
      "ext": 5067,
      "Ġtribu": 5068,
      "Ġpueri": 5069,
      "ĠSuper": 5070,
      "Ġsimiliter": 5071,
      "Ġfruc": 5072,
      "Ġfrecuentes": 5073,
      "Ãµes": 5074,
      "Ġgius": 5075,
      "ĠHab": 5076,
      "ĠniÃ±o": 5077,
      "dieron": 5078,
      "Ġunas": 5079,
      "Ġpassa": 5080,
      "Ġcausas": 5081,
      "Ġordine": 5082,
      "DI": 5083,
      "Iste": 5084,
      "Ins": 5085,
      "CuÃ¡les": 5086,
      "Ġomnem": 5087,
      "Ġ40": 5088,
      "Ġpeti": 5089,
      "Ġmolestiae": 5090,
      "Ġblanditiis": 5091,
      "mun": 5092,
      "Ġgol": 5093,
      "Ġgeh": 5094,
      "Comp": 5095,
      "Ġllamado": 5096,
      "Ġiudi": 5097,
      "Ġllo": 5098,
      "anum": 5099,
      "Ġenci": 5100,
      "Ġllegado": 5101,
      "ĠWeb": 5102,
      "ĠgiÃł": 5103,
      "Ġencanta": 5104,
      "ĠPonti": 5105,
      "CO": 5106,
      "Nem": 5107,
      "Ġeli": 5108,
      "endam": 5109,
      "ĠBel": 5110,
      "posta": 5111,
      "aux": 5112,
      "Ġmenor": 5113,
      "Jo": 5114,
      "sol": 5115,
      "Ġhaga": 5116,
      "Ġacces": 5117,
      "ĠtravÃ©s": 5118,
      "Ġfigura": 5119,
      "puesta": 5120,
      "Ġfalsa": 5121,
      "Ġdolores": 5122,
      "Muy": 5123,
      "Ġmittit": 5124,
      "Nosotros": 5125,
      "\\\"": 5126,
      "gh": 5127,
      "ĠEgo": 5128,
      "Ġtotum": 5129,
      "ĠAnti": 5130,
      "Ġobserva": 5131,
      "LO": 5132,
      "Ġadae": 5133,
      "Ġsibi": 5134,
      "trada": 5135,
      "Ġproxim": 5136,
      "Ġtuas": 5137,
      "Estos": 5138,
      "Ġpatrem": 5139,
      "Ġillius": 5140,
      "ĠresurrecciÃ³n": 5141,
      "cora": 5142,
      "Ġfon": 5143,
      "dir": 5144,
      "Ġconsilium": 5145,
      "ĠCum": 5146,
      "ĠPablo": 5147,
      "rano": 5148,
      "Ġhomine": 5149,
      "Prima": 5150,
      "Ġseptem": 5151,
      "Che": 5152,
      "ben": 5153,
      "Ġecce": 5154,
      "tici": 5155,
      "Ġconi": 5156,
      "Ġgob": 5157,
      "ĠSus": 5158,
      "ĠPrim": 5159,
      "Ġlegis": 5160,
      "Ãºa": 5161,
      "ĠTur": 5162,
      "Ġpremi": 5163,
      "Ġmons": 5164,
      "ĠsueÃ±os": 5165,
      "quata": 5166,
      "ĠAmeric": 5167,
      "Ġdeve": 5168,
      "Ġvaria": 5169,
      "Ġinven": 5170,
      "Ġunus": 5171,
      "Ġsoluta": 5172,
      "Ġratione": 5173,
      "Ġoccid": 5174,
      "Ġeffici": 5175,
      "ologia": 5176,
      "ĠPila": 5177,
      "Ġom": 5178,
      "ĠGreg": 5179,
      "Oh": 5180,
      "Ġses": 5181,
      "Ġspec": 5182,
      "cidit": 5183,
      "liza": 5184,
      "Ġthe": 5185,
      "Ġreino": 5186,
      "Ġpau": 5187,
      "Ġlege": 5188,
      "cionado": 5189,
      "Ġhominis": 5190,
      "Ġdemasiado": 5191,
      "Ġclam": 5192,
      "Ġrap": 5193,
      "Ġmisericordi": 5194,
      "Ġdominio": 5195,
      "Ġlingu": 5196,
      "tidi": 5197,
      "Ã³lica": 5198,
      "Ġnoite": 5199,
      "Ġpacem": 5200,
      "uerit": 5201,
      "Ġ50": 5202,
      "ĠAntonio": 5203,
      "dustri": 5204,
      "Ġoport": 5205,
      "Ġamistad": 5206,
      "?\".": 5207,
      "ocra": 5208,
      "Deinde": 5209,
      "Ġambi": 5210,
      "Ġcoche": 5211,
      "talla": 5212,
      "ĠgeneraciÃ³n": 5213,
      "Ġbastante": 5214,
      "Ġignoran": 5215,
      "Tal": 5216,
      "ede": 5217,
      "essa": 5218,
      "eme": 5219,
      "Ġbesti": 5220,
      "Ġhabe": 5221,
      "Ġimmor": 5222,
      "Ġejemp": 5223,
      "Ġappella": 5224,
      "Primo": 5225,
      "ĠsabidurÃŃa": 5226,
      "Ġrefi": 5227,
      "Ġvitam": 5228,
      "ĠMoy": 5229,
      "odem": 5230,
      "Ġciertamente": 5231,
      "ebrero": 5232,
      "hn": 5233,
      "estas": 5234,
      "Ġclic": 5235,
      "Ġlit": 5236,
      "Ġimpres": 5237,
      "Ġproprio": 5238,
      "Ġdolorem": 5239,
      "Ġentender": 5240,
      "Ġmanifesta": 5241,
      "Ã³sofo": 5242,
      ");": 5243,
      "Ġdeja": 5244,
      "ulis": 5245,
      "ĠPol": 5246,
      "Ġpersecu": 5247,
      "Ġmalos": 5248,
      "venire": 5249,
      "tatibus": 5250,
      "LE": 5251,
      "eÃ±o": 5252,
      "rer": 5253,
      "ute": 5254,
      "»¿": 5255,
      "ï»¿": 5256,
      "Ġadem": 5257,
      "Ġmandam": 5258,
      "Ġsaludo": 5259,
      "Ġloquitur": 5260,
      ",,": 5261,
      ".[": 5262,
      "arius": 5263,
      "Ġexire": 5264,
      "lesc": 5265,
      "CuÃ¡ndo": 5266,
      "Ġsocial": 5267,
      "esion": 5268,
      "ĠÃºltima": 5269,
      "hum": 5270,
      "icam": 5271,
      "Ġpoeta": 5272,
      "ĠRo": 5273,
      "Ah": 5274,
      "sent": 5275,
      "orio": 5276,
      "tui": 5277,
      "ulum": 5278,
      "Ġtanta": 5279,
      "Ġsapis": 5280,
      "Dicit": 5281,
      "Ġofficia": 5282,
      "ĠHispan": 5283,
      "ĠlÃŃnea": 5284,
      "?âĢĻ": 5285,
      "gÃ¼": 5286,
      "Ġepis": 5287,
      "Ġinvoca": 5288,
      "Ġdescon": 5289,
      "Ġarre": 5290,
      "ferencia": 5291,
      "ucristo": 5292,
      "ĠArchi": 5293,
      "Ġvirtudes": 5294,
      "Ġcastigo": 5295,
      "Ġcabeza": 5296,
      "Ġmecum": 5297,
      "arla": 5298,
      "rido": 5299,
      "Ġhaces": 5300,
      "Ġsiento": 5301,
      "Ġvuestra": 5302,
      "Tut": 5303,
      "ĠmÃŃa": 5304,
      "tulos": 5305,
      "Ġnova": 5306,
      "ĠMÃ©": 5307,
      "ficios": 5308,
      "Ġofficiis": 5309,
      "Ġdecipiebant": 5310,
      "bruit": 5311,
      "Ġscit": 5312,
      "Ġpone": 5313,
      "arlo": 5314,
      "Ġiac": 5315,
      "Ġregno": 5316,
      "Ġperf": 5317,
      "inidad": 5318,
      "Ġquoi": 5319,
      "ĠDiv": 5320,
      "Ġpeligros": 5321,
      "47": 5322,
      "Domin": 5323,
      "Ġaqui": 5324,
      "oras": 5325,
      "versa": 5326,
      "Potete": 5327,
      "Ġdesierto": 5328,
      "piritus": 5329,
      "ju": 5330,
      "zones": 5331,
      "usandae": 5332,
      "ĠEpisco": 5333,
      "tanto": 5334,
      "Ġrespecto": 5335,
      "ĠBra": 5336,
      "Ġtali": 5337,
      "Ġcommuni": 5338,
      "Ã¨re": 5339,
      "Ġintelec": 5340,
      "Ġespecial": 5341,
      "Ġiis": 5342,
      "Ġido": 5343,
      "...]": 5344,
      "Ġsermo": 5345,
      "Ġserve": 5346,
      "echas": 5347,
      "Ġfinis": 5348,
      "idente": 5349,
      "Ġheredi": 5350,
      "Bo": 5351,
      "tend": 5352,
      "Ġmys": 5353,
      "ult": 5354,
      "Ġprohib": 5355,
      "Ġtuos": 5356,
      "tris": 5357,
      "Ġfugi": 5358,
      "ĠrelaciÃ³n": 5359,
      "Ġseguro": 5360,
      "Ġescla": 5361,
      "Ġformul": 5362,
      "Ġincrebruit": 5363,
      "usiÃ³n": 5364,
      "unde": 5365,
      "liano": 5366,
      "Ġisto": 5367,
      "Ġcolum": 5368,
      "lexi": 5369,
      "Ġjustos": 5370,
      "Ġmillones": 5371,
      "TU": 5372,
      "ies": 5373,
      "arÃ¡n": 5374,
      "Ġfur": 5375,
      "tanÃ¡s": 5376,
      "Ġejus": 5377,
      "Ġrecibido": 5378,
      "zquier": 5379,
      "Ġdemo": 5380,
      "Ġnutri": 5381,
      "entarios": 5382,
      "Ġfare": 5383,
      "Ġmanus": 5384,
      "Ġcoe": 5385,
      "Ġvoto": 5386,
      "ĠConci": 5387,
      "Ġpotencia": 5388,
      "Numquid": 5389,
      "Ġbeber": 5390,
      "Ġamplius": 5391,
      "Ġconoscenza": 5392,
      "Ese": 5393,
      "aut": 5394,
      "Ġx": 5395,
      "ĠhÃ¡": 5396,
      "Ġquedar": 5397,
      "dura": 5398,
      "pÃŃtulo": 5399,
      "Ġbuenas": 5400,
      "Ġespecies": 5401,
      "Ġempresa": 5402,
      "49": 5403,
      "lÃ©s": 5404,
      "use": 5405,
      "ĠSen": 5406,
      "ĠPedro": 5407,
      "tismo": 5408,
      "tarse": 5409,
      "ĠJosÃ©": 5410,
      "Ġmarzo": 5411,
      "Ġalgunas": 5412,
      "Ġespada": 5413,
      "ĠHistoria": 5414,
      "cegli": 5415,
      "trui": 5416,
      "ĠhabÃ©is": 5417,
      "ĠConse": 5418,
      "ĠCongrega": 5419,
      "Ġpropria": 5420,
      "Ġpuertas": 5421,
      "zzo": 5422,
      "erci": 5423,
      "ĠAposto": 5424,
      "tarÃ¡": 5425,
      "cons": 5426,
      "Ġanimo": 5427,
      "Ġdivisi": 5428,
      "Ġsapiet": 5429,
      "Ġtentavit": 5430,
      "Ve": 5431,
      "ry": 5432,
      "Ġaun": 5433,
      "citur": 5434,
      "une": 5435,
      "Ġconversa": 5436,
      "60": 5437,
      "Edi": 5438,
      "Ġscis": 5439,
      "atori": 5440,
      "let": 5441,
      "Ġobis": 5442,
      "Cada": 5443,
      "Ġmagnam": 5444,
      "nem": 5445,
      "ĠsabÃŃa": 5446,
      "Ġinclu": 5447,
      "Ġnoviembre": 5448,
      "rÃŃan": 5449,
      "teis": 5450,
      "Ġhago": 5451,
      "Ġrespe": 5452,
      "Ġdisfru": 5453,
      "enique": 5454,
      "Ġsuscipit": 5455,
      "ĠLibro": 5456,
      "erusal": 5457,
      "mum": 5458,
      "roso": 5459,
      "Ġeorum": 5460,
      "ĠciÃ²": 5461,
      "Ġluxuria": 5462,
      "Ġdefici": 5463,
      "Ġtenido": 5464,
      "Ġvio": 5465,
      "ĠBu": 5466,
      "Siempre": 5467,
      "eblas": 5468,
      "Ġnomina": 5469,
      "Ġvictoria": 5470,
      "Ġobjeto": 5471,
      "Era": 5472,
      "Ġdas": 5473,
      "ĠCul": 5474,
      "ĠPala": 5475,
      "Ġcateg": 5476,
      "ĠFac": 5477,
      "Ġconsola": 5478,
      "Ġpastor": 5479,
      "Ġdecem": 5480,
      "ĠProf": 5481,
      "43": 5482,
      "fin": 5483,
      "ii": 5484,
      "mal": 5485,
      "tez": 5486,
      "andi": 5487,
      "Ġinm": 5488,
      "Ġloca": 5489,
      "ĠPe": 5490,
      "ĠallÃ¬": 5491,
      "Muchas": 5492,
      "Ġsalir": 5493,
      "Ġavec": 5494,
      "Ġnecessaria": 5495,
      "Ġterrena": 5496,
      "Nombre": 5497,
      "blic": 5498,
      "ego": 5499,
      "sam": 5500,
      "vamente": 5501,
      "ļlti": 5502,
      "Ġimi": 5503,
      "Ġjuego": 5504,
      "ĠHum": 5505,
      "Ġfratel": 5506,
      "Ġultima": 5507,
      "yendo": 5508,
      "Ġpotestis": 5509,
      "guidores": 5510,
      "remus": 5511,
      "Ġolvid": 5512,
      "hÃ£": 5513,
      "yas": 5514,
      "Ġduer": 5515,
      "Ġnous": 5516,
      "Ġprovin": 5517,
      "Ġputas": 5518,
      "Ġlaborios": 5519,
      "Ġtenebris": 5520,
      "Ġexperiencia": 5521,
      "Ġmulier": 5522,
      "dena": 5523,
      "sem": 5524,
      "Ġinmor": 5525,
      "Ġprotec": 5526,
      "Ġtele": 5527,
      "Ġdesea": 5528,
      "Ġmigli": 5529,
      "ĠThe": 5530,
      "ĠGo": 5531,
      "Ġhabitat": 5532,
      "Ġvenido": 5533,
      "ĠNatura": 5534,
      "Mor": 5535,
      "Ġlun": 5536,
      "ĠCur": 5537,
      "queda": 5538,
      "piciatis": 5539,
      "Ġrestitu": 5540,
      "Ġnuevos": 5541,
      "Ġpeccato": 5542,
      "Ġmaxime": 5543,
      "Ġfecerunt": 5544,
      "mÃ¡s": 5545,
      "Ġnoster": 5546,
      "ĠmanhÃ£": 5547,
      "Ġmulto": 5548,
      "Ġmonas": 5549,
      "Ġspecies": 5550,
      "Ġdistinctio": 5551,
      "ptio": 5552,
      "Ġetique": 5553,
      "tatur": 5554,
      "Ġmuestra": 5555,
      "teur": 5556,
      "Ġtre": 5557,
      "quien": 5558,
      "gada": 5559,
      "Ġdolore": 5560,
      "Ġvenir": 5561,
      "ĠFrancia": 5562,
      "ĠCuando": 5563,
      "effectus": 5564,
      "Bea": 5565,
      "vic": 5566,
      "ĠLot": 5567,
      "cuando": 5568,
      "Ġfui": 5569,
      "Ġfutura": 5570,
      "erusalÃ©n": 5571,
      "vimus": 5572,
      "ĠÃ¡r": 5573,
      "Ġstes": 5574,
      "unta": 5575,
      "rique": 5576,
      "ĠFin": 5577,
      "vitÃ¡vel": 5578,
      "ĠinevitÃ¡vel": 5579,
      "Ġincidunt": 5580,
      "Cas": 5581,
      "vÃŃ": 5582,
      "Ìģ": 5583,
      "Ġz": 5584,
      "cimus": 5585,
      "Ġuniverso": 5586,
      "ĠPatrem": 5587,
      "Ġadaequata": 5588,
      "dalo": 5589,
      "pin": 5590,
      "Ġecclesia": 5591,
      "Ġsens": 5592,
      "Ġclara": 5593,
      "ĠRec": 5594,
      "Ġtenga": 5595,
      "Ġresponsa": 5596,
      "ĠQuae": 5597,
      "Ġaliqua": 5598,
      "Ġdesider": 5599,
      "Ġsencil": 5600,
      "Historia": 5601,
      "Ġscel": 5602,
      "arÃ³n": 5603,
      "Ġpereg": 5604,
      "Consi": 5605,
      "ĠAugus": 5606,
      "jec": 5607,
      "anis": 5608,
      "andum": 5609,
      "ficium": 5610,
      "inea": 5611,
      "Ġindividu": 5612,
      "isogna": 5613,
      "Ġlargo": 5614,
      "ertamente": 5615,
      "Ġpoc": 5616,
      "Ġmun": 5617,
      "amini": 5618,
      "Ġtini": 5619,
      "catur": 5620,
      "ĠcomÃºn": 5621,
      "Ġtrac": 5622,
      "fert": 5623,
      "Cual": 5624,
      "Ġtermina": 5625,
      "ĠEste": 5626,
      "Ġscientia": 5627,
      "Ġeffectus": 5628,
      "Ġrepudi": 5629,
      "digo": 5630,
      "Ġgau": 5631,
      "Ġgratiam": 5632,
      "Ġconsejo": 5633,
      "Ġbello": 5634,
      "Ġexiit": 5635,
      "Ġpronto": 5636,
      "Ġevid": 5637,
      "Ġaum": 5638,
      "Ġsul": 5639,
      "Ġprogres": 5640,
      "ĠFam": 5641,
      "ĠNO": 5642,
      "ĠConstitu": 5643,
      "Ġmusica": 5644,
      ".:": 5645,
      "his": 5646,
      "vÃ¡": 5647,
      "estion": 5648,
      "Ġnarra": 5649,
      "dez": 5650,
      "Ġbra": 5651,
      "lemente": 5652,
      "positio": 5653,
      "Ġpuerta": 5654,
      "Ġsimilem": 5655,
      "Ġvuole": 5656,
      "ĠÃ³r": 5657,
      "Ġiret": 5658,
      "ĠPers": 5659,
      "ĠMin": 5660,
      "ĠMad": 5661,
      "Ġaquella": 5662,
      "Ġgratia": 5663,
      "Ġoctubre": 5664,
      "CategorÃŃa": 5665,
      "Ġmateriam": 5666,
      "Ġstra": 5667,
      "Ġpis": 5668,
      "Ġgenti": 5669,
      "Ġcorrupti": 5670,
      "Ġveo": 5671,
      "âĨĳ": 5672,
      "Ġsignificado": 5673,
      "ĠIoan": 5674,
      "Ġdebitis": 5675,
      "Nemo": 5676,
      "Ġ+": 5677,
      "Ġencar": 5678,
      "elas": 5679,
      "Ġseguridad": 5680,
      "Ġquaesumus": 5681,
      "Ġtinieblas": 5682,
      "59": 5683,
      "sen": 5684,
      "Ġenero": 5685,
      "ĠMer": 5686,
      "Ġjuntos": 5687,
      "Ġbib": 5688,
      "Ġsaben": 5689,
      "osas": 5690,
      "Ġata": 5691,
      "aro": 5692,
      "Ġdign": 5693,
      "Esse": 5694,
      "gula": 5695,
      "gido": 5696,
      "ĠFu": 5697,
      "Ġsalvar": 5698,
      "Ġvengan": 5699,
      "CuÃ¡nto": 5700,
      "Ġpin": 5701,
      "ĠAqu": 5702,
      "pirito": 5703,
      "Ġalio": 5704,
      "Ġvalor": 5705,
      "Ġherederos": 5706,
      "Ġexclu": 5707,
      "ror": 5708,
      "Ġemo": 5709,
      "Ġpreci": 5710,
      "cionar": 5711,
      "Ġfuerunt": 5712,
      "Ġimm": 5713,
      "gnissimos": 5714,
      "ensez": 5715,
      "Tres": 5716,
      "Ġlan": 5717,
      "leo": 5718,
      "ĠEvangelio": 5719,
      "ĠBus": 5720,
      "Ġabund": 5721,
      "cionario": 5722,
      "Ġidenti": 5723,
      "Ġstato": 5724,
      "Ġaequ": 5725,
      "bun": 5726,
      "Ãĳ": 5727,
      "orÃŃas": 5728,
      "ĠAbrah": 5729,
      "Ġgri": 5730,
      "tinus": 5731,
      "LI": 5732,
      "NO": 5733,
      "jero": 5734,
      "Ġdeseo": 5735,
      "Estas": 5736,
      "ĠTÃº": 5737,
      "pectu": 5738,
      "Ġrefu": 5739,
      "Videtur": 5740,
      "riel": 5741,
      "Ġsel": 5742,
      "Ġcomunidad": 5743,
      "Ġprodu": 5744,
      "ĠLon": 5745,
      "ĠLOS": 5746,
      "ĠOc": 5747,
      "?,": 5748,
      "Ġsanto": 5749,
      "retur": 5750,
      "ĠDu": 5751,
      "Ġmisit": 5752,
      "Ġisla": 5753,
      "ĠCons": 5754,
      "Nescio": 5755,
      "iam": 5756,
      "menti": 5757,
      "Ã³sito": 5758,
      "Ġnotre": 5759,
      "Ġexac": 5760,
      "eratura": 5761,
      "Ġmiem": 5762,
      "ĠGe": 5763,
      "Ġopti": 5764,
      "Ġsubdit": 5765,
      "Ġbienes": 5766,
      "vesti": 5767,
      "Ġstan": 5768,
      "ume": 5769,
      "Ġpartem": 5770,
      "ĠEsto": 5771,
      "Ġprac": 5772,
      "Ġpresencia": 5773,
      "Ġcognoscere": 5774,
      "ĠXVI": 5775,
      "dens": 5776,
      "anta": 5777,
      "Ġinmedia": 5778,
      "Ġlogra": 5779,
      "Ġdestru": 5780,
      "ĠBene": 5781,
      "ĠYa": 5782,
      "Ġpersevera": 5783,
      "ĠademÃ¡s": 5784,
      "Eli": 5785,
      "mam": 5786,
      "plan": 5787,
      "ĠVen": 5788,
      "Ġhicieron": 5789,
      "Ġpaso": 5790,
      "lisis": 5791,
      "Ġpresenta": 5792,
      "Ġnaturales": 5793,
      "Ġmayores": 5794,
      "Ġgenerans": 5795,
      "Ġprophetas": 5796,
      "--": 5797,
      "EM": 5798,
      "cter": 5799,
      "Ġemail": 5800,
      "quen": 5801,
      "Ġbau": 5802,
      "Ġextre": 5803,
      "Ġasper": 5804,
      "Ġpleni": 5805,
      "Ãītique": 5806,
      "taria": 5807,
      "Ġhechos": 5808,
      "tol": 5809,
      "ĠCiu": 5810,
      "Ġbor": 5811,
      "ĠJerusalÃ©n": 5812,
      "Ġsecund": 5813,
      "Ġscan": 5814,
      "Ġcaridad": 5815,
      "dat": 5816,
      "Ġdiga": 5817,
      "bilia": 5818,
      "Ġmoglie": 5819,
      "Vamos": 5820,
      "noc": 5821,
      "Ġcen": 5822,
      "ĠDia": 5823,
      "Ã¡ndose": 5824,
      "ĠNuevo": 5825,
      "Ġaspi": 5826,
      "Â¡Â¡": 5827,
      "Ġsimp": 5828,
      "cipere": 5829,
      "Ġapo": 5830,
      "Ġdire": 5831,
      "Ġsiamo": 5832,
      "Ġprov": 5833,
      "ciali": 5834,
      "Ã©ndo": 5835,
      "denes": 5836,
      "Ġaccepturus": 5837,
      "ttobre": 5838,
      "pliciter": 5839,
      "Ġattributa": 5840,
      "Lle": 5841,
      "dÃŃa": 5842,
      "eci": 5843,
      "Ġdiem": 5844,
      "Ġdigni": 5845,
      "Ġmare": 5846,
      "Ġ31": 5847,
      "Ġ?Â»": 5848,
      "Ġdoce": 5849,
      "Ġcruci": 5850,
      "Ġobedivit": 5851,
      "Ġperdido": 5852,
      "Ġnavi": 5853,
      "Ġsecunda": 5854,
      "Ġgenua": 5855,
      "Ġfaciem": 5856,
      "Ġpatres": 5857,
      "Ġvenire": 5858,
      "Ġtransgres": 5859,
      "Ġlectura": 5860,
      "ĠHaec": 5861,
      "ĠjamÃ¡s": 5862,
      "ĠÃ©stos": 5863,
      "lor": 5864,
      "ÂŃ": 5865,
      "erio": 5866,
      "lite": 5867,
      "Ġverbo": 5868,
      "ĠtraducciÃ³n": 5869,
      "Ġprecios": 5870,
      "Ġmultis": 5871,
      "Ġentendi": 5872,
      "Ġsiguientes": 5873,
      "Has": 5874,
      "Ġpuntos": 5875,
      "anu": 5876,
      "Ġcongrega": 5877,
      "Ġmisterio": 5878,
      "ĠHer": 5879,
      "cionamiento": 5880,
      "Ġnaturae": 5881,
      "lectamus": 5882,
      "ĠRomano": 5883,
      "iciendis": 5884,
      "Ã§Ãµes": 5885,
      "Ġproc": 5886,
      "ack": 5887,
      "Ġjur": 5888,
      "Ġescuchar": 5889,
      "Ġubique": 5890,
      "Ġenviado": 5891,
      "ham": 5892,
      "zer": 5893,
      "ric": 5894,
      "Ã©es": 5895,
      "sibile": 5896,
      "aco": 5897,
      "Ġadolesc": 5898,
      "Ġesperanza": 5899,
      "cendi": 5900,
      "har": 5901,
      "Ġcrim": 5902,
      "rededor": 5903,
      "ĠTom": 5904,
      "ĠFlectamus": 5905,
      "Ġexistencia": 5906,
      "ĠChiesa": 5907,
      "Ġpensez": 5908,
      "Ġalto": 5909,
      "zados": 5910,
      "Ġamet": 5911,
      "Ġrecorda": 5912,
      "fice": 5913,
      "Ġparticipa": 5914,
      "Ġgiung": 5915,
      "Ġoportet": 5916,
      "Ġoriginal": 5917,
      "ĠdiscÃŃpulos": 5918,
      "Ba": 5919,
      "Ġquad": 5920,
      "ÃŃtulo": 5921,
      "Ġdicer": 5922,
      "Ġpapa": 5923,
      "ĠacciÃ³n": 5924,
      "ĠHebra": 5925,
      "Ġambos": 5926,
      "Ante": 5927,
      "199": 5928,
      "Ġinfini": 5929,
      "Ġmoral": 5930,
      "Spero": 5931,
      "vero": 5932,
      "Ġevangeli": 5933,
      "tuali": 5934,
      "Ġacom": 5935,
      "Ġutrum": 5936,
      "Ġcose": 5937,
      "Ġinstante": 5938,
      "Propter": 5939,
      "Ġsilencio": 5940,
      "uali": 5941,
      "Ġec": 5942,
      "Ġabra": 5943,
      "teca": 5944,
      "dora": 5945,
      "Ġquella": 5946,
      "Ġdiab": 5947,
      "Ġperro": 5948,
      "Ġexces": 5949,
      "ĠBi": 5950,
      "Ġsolamente": 5951,
      "Ġtertio": 5952,
      "enaventura": 5953,
      "Ġquinto": 5954,
      "Ġpaciencia": 5955,
      "Ġproposito": 5956,
      "Ġespiritual": 5957,
      "Li": 5958,
      "Sem": 5959,
      "blec": 5960,
      "gÃŃa": 5961,
      "has": 5962,
      "ly": 5963,
      "Ġdecep": 5964,
      "Ġottobre": 5965,
      "ĠâĢľÂ¡": 5966,
      "ĠÃºltimos": 5967,
      "ĠvocÃª": 5968,
      "Ġoficial": 5969,
      "ĠjudÃŃos": 5970,
      "Fo": 5971,
      "Hu": 5972,
      "gran": 5973,
      "Ġizquier": 5974,
      "lace": 5975,
      "entra": 5976,
      "tasse": 5977,
      "Ġaliis": 5978,
      "Ġpregunt": 5979,
      "Ġdomus": 5980,
      "Ġmentira": 5981,
      "Ġfecisti": 5982,
      "Ġgehen": 5983,
      "CE": 5984,
      "psum": 5985,
      "tenta": 5986,
      "Ã©ra": 5987,
      "Ġunam": 5988,
      "ĠIN": 5989,
      "orar": 5990,
      "grafÃŃa": 5991,
      "Ġposibilidad": 5992,
      "Ġgiungano": 5993,
      "Temp": 5994,
      "gon": 5995,
      "Ġagosto": 5996,
      "Ġheri": 5997,
      "Ġentr": 5998,
      "Ã¡lisis": 5999,
      "Ġtesto": 6000,
      "Ġsignum": 6001,
      "Ġsole": 6002,
      "Ġimpedi": 6003,
      "Ġnie": 6004,
      "Ġplen": 6005,
      "Ġcampo": 6006,
      "Ġpatri": 6007,
      "pisc": 6008,
      "Ġinvidia": 6009,
      "Ġderechos": 6010,
      "Ġposset": 6011,
      "Faci": 6012,
      "ĠFrancisco": 6013,
      "anim": 6014,
      "Ġvendi": 6015,
      "Ġsupra": 6016,
      "Ġrece": 6017,
      "Ġperdu": 6018,
      "edere": 6019,
      "poli": 6020,
      "postÃ³": 6021,
      "Contac": 6022,
      "âĢĻ.": 6023,
      "Ġinvent": 6024,
      "Ãºsqueda": 6025,
      "Ġcuiuscumque": 6026,
      "Ġprincipium": 6027,
      "ĠquedÃ³": 6028,
      "Ġlaboriosam": 6029,
      "telo": 6030,
      "amientos": 6031,
      "ĠAÃ±o": 6032,
      "bios": 6033,
      "Ġblas": 6034,
      "guar": 6035,
      "fectum": 6036,
      "Ġmatrim": 6037,
      "197": 6038,
      "Ġvirtutem": 6039,
      "ĠAdÃ¡n": 6040,
      "PrÃ³": 6041,
      "Ġexercitationem": 6042,
      "Archivo": 6043,
      "ĠPost": 6044,
      "Ġtimore": 6045,
      "Ġinfinita": 6046,
      "casi": 6047,
      "Ġsomn": 6048,
      "Ġnuo": 6049,
      "Ġsupuesto": 6050,
      "aces": 6051,
      "ĠBlog": 6052,
      "Ġmarca": 6053,
      "Ġservicios": 6054,
      "Ġcontinu": 6055,
      "Ġescuela": 6056,
      "ĠPorque": 6057,
      "Ġenemigos": 6058,
      "Ãītiquette": 6059,
      "Min": 6060,
      "gencia": 6061,
      "tato": 6062,
      "Ġdetal": 6063,
      "istis": 6064,
      "Ġnoches": 6065,
      "Ġmisera": 6066,
      "ĠRos": 6067,
      "torem": 6068,
      "Ġtribula": 6069,
      "Salve": 6070,
      "Ġespecie": 6071,
      "Ġproblemas": 6072,
      "Ġmelior": 6073,
      "gam": 6074,
      "Ġire": 6075,
      "iatur": 6076,
      "ĠSÃŃ": 6077,
      "Ġexter": 6078,
      "uestros": 6079,
      "Ġpatris": 6080,
      "Ġfruto": 6081,
      "Eres": 6082,
      "Nin": 6083,
      "ner": 6084,
      "tex": 6085,
      "ĠSur": 6086,
      "inado": 6087,
      "ĠNoticias": 6088,
      "Ġvivimos": 6089,
      "AT": 6090,
      "Sit": 6091,
      "Ġspa": 6092,
      "Ġase": 6093,
      "Ġcha": 6094,
      "Ġham": 6095,
      "Ġregres": 6096,
      "ĠHo": 6097,
      "Ġprome": 6098,
      "Ġmomentos": 6099,
      "Ġconfianza": 6100,
      "ĠÃ¡rbol": 6101,
      "Ideo": 6102,
      "bano": 6103,
      "Ġauc": 6104,
      "ĠÃ©sta": 6105,
      "cumb": 6106,
      "Ġsembra": 6107,
      "Ġdivino": 6108,
      "Ġauxilium": 6109,
      "Isra": 6110,
      "toral": 6111,
      "ĠsalvaciÃ³n": 6112,
      "Of": 6113,
      "matus": 6114,
      "uv": 6115,
      "vano": 6116,
      "Ġsy": 6117,
      "Ġflu": 6118,
      "ĠoÃŃdo": 6119,
      "turba": 6120,
      "Ġbende": 6121,
      "Ġpose": 6122,
      "SegÃºn": 6123,
      "Ġvidet": 6124,
      "Ġtiempos": 6125,
      "ginas": 6126,
      "ĠArgent": 6127,
      "Ġtemporada": 6128,
      "ĠSancti": 6129,
      "Ġbenedicentur": 6130,
      "Jn": 6131,
      "amas": 6132,
      "Ġfat": 6133,
      "lados": 6134,
      "Ġrecuerdo": 6135,
      "Ġtribus": 6136,
      "Tertio": 6137,
      "Pour": 6138,
      "Ġescucha": 6139,
      "Ġservorum": 6140,
      "ĠSalomÃ³n": 6141,
      "Ġdoble": 6142,
      "ocupa": 6143,
      "]:": 6144,
      "gem": 6145,
      "tti": 6146,
      "Ġpic": 6147,
      "Ġmeri": 6148,
      "ĠMor": 6149,
      "Ġquaer": 6150,
      "Ġsabemos": 6151,
      "Puedes": 6152,
      "Ġcapaz": 6153,
      "41": 6154,
      "jÃ³": 6155,
      "mma": 6156,
      "teles": 6157,
      "diciÃ³n": 6158,
      "ÃŃsimo": 6159,
      "Ġreman": 6160,
      "bara": 6161,
      "Ġaccipi": 6162,
      "Ġhermana": 6163,
      "ĠpolÃŃtica": 6164,
      "Buscar": 6165,
      "-Â¿": 6166,
      "66": 6167,
      "Ġaperi": 6168,
      "tiles": 6169,
      "Ġvarias": 6170,
      "Ġconiu": 6171,
      "ĠCON": 6172,
      "terios": 6173,
      "eraciÃ³n": 6174,
      "Ġgravi": 6175,
      "Ġproprie": 6176,
      "Ġincom": 6177,
      "Descu": 6178,
      "tivamente": 6179,
      "Nueva": 6180,
      "Pl": 6181,
      "bamos": 6182,
      "Ãĥ": 6183,
      "imi": 6184,
      "Ġbri": 6185,
      "ĠPub": 6186,
      "ĠMen": 6187,
      "Ġversione": 6188,
      "poca": 6189,
      "posita": 6190,
      "tenciÃ³n": 6191,
      "Ġminor": 6192,
      "Ġcollo": 6193,
      "Ġfeliz": 6194,
      "Ġsalvino": 6195,
      "Ġgobern": 6196,
      "!,": 6197,
      "Pon": 6198,
      "erro": 6199,
      "Ġannum": 6200,
      "Esa": 6201,
      "breo": 6202,
      "Ġmutu": 6203,
      "prender": 6204,
      "Ġcompleto": 6205,
      "Ġaprender": 6206,
      "ĠcittÃł": 6207,
      "DO": 6208,
      "Idem": 6209,
      "dero": 6210,
      "ĠDI": 6211,
      "Ġsigno": 6212,
      "Ġcrear": 6213,
      "vista": 6214,
      "Tienes": 6215,
      "Ġpraedic": 6216,
      "CIÃĵN": 6217,
      "Ġcontigo": 6218,
      "Ġciegos": 6219,
      "Ġadelante": 6220,
      "ĠatrÃ¡s": 6221,
      "Ġfis": 6222,
      "Ġrebel": 6223,
      "Ġdare": 6224,
      "Alguien": 6225,
      "Ġcampi": 6226,
      "Ġmodus": 6227,
      "Ġcalor": 6228,
      "Ġrealizar": 6229,
      "Ġprincipal": 6230,
      "Ġquibusdam": 6231,
      "cida": 6232,
      "ance": 6233,
      "icamente": 6234,
      "ĠperchÃ©": 6235,
      "ĠSpirito": 6236,
      "pido": 6237,
      "ĠhabrÃ¡": 6238,
      "Ġplena": 6239,
      "guiendo": 6240,
      "ĠUniversidad": 6241,
      "Ġdiverti": 6242,
      "ĠCasa": 6243,
      "Ġconciencia": 6244,
      "Cer": 6245,
      "Fin": 6246,
      "Todas": 6247,
      "sas": 6248,
      "Ġtesta": 6249,
      "Ġnati": 6250,
      "Ġhumili": 6251,
      "Ġridi": 6252,
      "Ġtrabajos": 6253,
      "Ġinvidiam": 6254,
      "Ġsubiec": 6255,
      "Ġhereditate": 6256,
      "\"?": 6257,
      "pp": 6258,
      "Ġpuni": 6259,
      "Ġmuni": 6260,
      "Ġfebrero": 6261,
      "Ġrepeti": 6262,
      "mpoco": 6263,
      "guos": 6264,
      "Ġacc": 6265,
      "Ġsemana": 6266,
      "lusi": 6267,
      "Ġvirtutes": 6268,
      "Ġencuentran": 6269,
      "Ġsacerdote": 6270,
      "Ġresurrectionem": 6271,
      "Ġpesar": 6272,
      "Bi": 6273,
      "Mon": 6274,
      "rom": 6275,
      "tent": 6276,
      "Ġdud": 6277,
      "Ġsar": 6278,
      "Ġatra": 6279,
      "ÃŃdos": 6280,
      "Ã¡g": 6281,
      "ĠAmor": 6282,
      "Ġprefer": 6283,
      "Â»,": 6284,
      "ĠpasiÃ³n": 6285,
      "Ġjunio": 6286,
      "ĠVaticano": 6287,
      "Ġdudas": 6288,
      "laciones": 6289,
      "Ġsequ": 6290,
      "Ġrei": 6291,
      "cato": 6292,
      "Ġviven": 6293,
      "Ġ[...]": 6294,
      "cuit": 6295,
      "Ġlibenter": 6296,
      "Ġperspiciatis": 6297,
      "Ġguste": 6298,
      "ĠSep": 6299,
      "lares": 6300,
      "Ġrepente": 6301,
      "UM": 6302,
      "quin": 6303,
      "ĠacÃ¡": 6304,
      "ĠFre": 6305,
      "Ġnave": 6306,
      "porte": 6307,
      "Ġ190": 6308,
      "hovÃ¡": 6309,
      "Ġpopulus": 6310,
      "Toda": 6311,
      "ĠVerdad": 6312,
      "Ġclientes": 6313,
      "ĠLes": 6314,
      "ĠVic": 6315,
      "ĠOremus": 6316,
      "minos": 6317,
      "Ġplaceat": 6318,
      "Ġguarda": 6319,
      "Ġludere": 6320,
      "Ġuer": 6321,
      "Ġinici": 6322,
      "Ġtom": 6323,
      "Ġtampoco": 6324,
      "Ġabril": 6325,
      "Ġtemporibus": 6326,
      "Ġanimi": 6327,
      "ĠRomani": 6328,
      "ĠsoluciÃ³n": 6329,
      "titudine": 6330,
      "egy": 6331,
      "ĠseÃ±al": 6332,
      "Ġabandon": 6333,
      "Ġestilo": 6334,
      "Ori": 6335,
      "Pare": 6336,
      "SO": 6337,
      "cuno": 6338,
      "ĠDo": 6339,
      "Ġadmin": 6340,
      "ĠTri": 6341,
      "Ġsale": 6342,
      "Ġfoto": 6343,
      "Ġspecie": 6344,
      "Ġnovum": 6345,
      "Praes": 6346,
      "Volup": 6347,
      "Ġnubes": 6348,
      "UN": 6349,
      "aa": 6350,
      "Ġeuro": 6351,
      "Ġinfor": 6352,
      "entio": 6353,
      "tissimi": 6354,
      "vado": 6355,
      "Ġfilius": 6356,
      "Ġconfir": 6357,
      "Ġpossibile": 6358,
      "Ġhogar": 6359,
      "ĠenviÃ³": 6360,
      "Ġjoven": 6361,
      "Ġtraduzione": 6362,
      "dres": 6363,
      "lÃ¡": 6364,
      "Ġsti": 6365,
      "Ġsana": 6366,
      "Ġllen": 6367,
      "Ġenter": 6368,
      "ĠSO": 6369,
      "Ġpier": 6370,
      "ĠReino": 6371,
      "Ġlenguaje": 6372,
      "ĠpequeÃ±o": 6373,
      "Ġgrupo": 6374,
      "Bisogna": 6375,
      "inte": 6376,
      "antium": 6377,
      "Ġhones": 6378,
      "Ġiba": 6379,
      "Ġrecu": 6380,
      "Ġancora": 6381,
      "entias": 6382,
      "Ġmara": 6383,
      "illo": 6384,
      "Ġaman": 6385,
      "Ġplura": 6386,
      "ĠEthic": 6387,
      "ĠLey": 6388,
      "Ġsentir": 6389,
      "ĠCorÃ¡n": 6390,
      "Ġcambiar": 6391,
      "Ora": 6392,
      "cÃ³": 6393,
      "fini": 6394,
      "Ġescogi": 6395,
      "bida": 6396,
      "Ġpermis": 6397,
      "vidad": 6398,
      "Ġamicos": 6399,
      "Ġoblig": 6400,
      "Ġsubsis": 6401,
      "Ġcostum": 6402,
      "Dice": 6403,
      "Ġsacrificio": 6404,
      "ĠFilius": 6405,
      "Multi": 6406,
      "Ġbreve": 6407,
      "Ġstel": 6408,
      "taciones": 6409,
      "ĠEmp": 6410,
      "ĠPal": 6411,
      "Ġrationem": 6412,
      "Ġsimple": 6413,
      "dinis": 6414,
      "ĠJesucristo": 6415,
      "Ġconcur": 6416,
      "???": 6417,
      "Ġpapel": 6418,
      "Eos": 6419,
      "ðŁ": 6420,
      "Ġsis": 6421,
      "ĠAra": 6422,
      "modi": 6423,
      "urum": 6424,
      "gida": 6425,
      "ĠLuc": 6426,
      "ĠversiÃ³n": 6427,
      "Ġpartir": 6428,
      "Ġsalvos": 6429,
      "ĠllegÃ³": 6430,
      "ĠYork": 6431,
      "ĠimÃ¡": 6432,
      "blemente": 6433,
      "Ġpoterit": 6434,
      "Ġetiqueta": 6435,
      "Vale": 6436,
      "blo": 6437,
      "xico": 6438,
      "quisi": 6439,
      "Ġdevo": 6440,
      "cione": 6441,
      "Ġfri": 6442,
      "ule": 6443,
      "etto": 6444,
      "tantur": 6445,
      "Ġpudi": 6446,
      "Dijo": 6447,
      "Ġintellig": 6448,
      "Atque": 6449,
      "Ġobstante": 6450,
      "ĠfilosofÃŃa": 6451,
      "TÃŃtulo": 6452,
      "cunt": 6453,
      "ft": 6454,
      "Ġspe": 6455,
      "Ġdignissimos": 6456,
      "Ġobiec": 6457,
      "Ġcompe": 6458,
      "Ġcuarto": 6459,
      "Ġmovim": 6460,
      "ĠOs": 6461,
      "Ġconsejos": 6462,
      "Ġdiffic": 6463,
      "Ġquanta": 6464,
      "Ġespacio": 6465,
      "Ġproductos": 6466,
      "Ġopiniones": 6467,
      "Cristo": 6468,
      "Je": 6469,
      "Ġsia": 6470,
      "Ġscu": 6471,
      "Ġavan": 6472,
      "Ġnell": 6473,
      "tul": 6474,
      "ĠdirÃ¡s": 6475,
      "endite": 6476,
      "ĠâĢľÂ¿": 6477,
      "Ġguber": 6478,
      "Ġadipisci": 6479,
      "Servi": 6480,
      "Ġlocutus": 6481,
      "51": 6482,
      "Lc": 6483,
      "UR": 6484,
      "Ġaire": 6485,
      "Ġconten": 6486,
      "elec": 6487,
      "Ġsiente": 6488,
      "ĠPet": 6489,
      "bran": 6490,
      "erador": 6491,
      "Ġcaer": 6492,
      "Ġacce": 6493,
      "Ġresur": 6494,
      "derit": 6495,
      "culas": 6496,
      "Ġtantas": 6497,
      "nidad": 6498,
      "Ġperegr": 6499,
      "Ġmio": 6500,
      "Ġlav": 6501,
      "Ã³venes": 6502,
      "Ġrecep": 6503,
      "Ġportat": 6504,
      "uerte": 6505,
      "ĠcientÃŃ": 6506,
      "ĠGali": 6507,
      "Indi": 6508,
      "contra": 6509,
      "Ġcorpo": 6510,
      "Ġrecusandae": 6511,
      "Ġincluso": 6512,
      "curso": 6513,
      "Ġfrequ": 6514,
      "Ġlicet": 6515,
      "ĠrÃ©pon": 6516,
      "Ġpulchra": 6517,
      "Ecco": 6518,
      "tavit": 6519,
      "Ġtria": 6520,
      "ueba": 6521,
      "ĠEcce": 6522,
      "ĠGu": 6523,
      "Ġnivel": 6524,
      "ĠEspaÃ±ol": 6525,
      "Haz": 6526,
      "ĠWi": 6527,
      "Ġcreata": 6528,
      "ĠAsÃŃ": 6529,
      "Ġorgul": 6530,
      "Ġprograma": 6531,
      "Ġeterna": 6532,
      "Ġdije": 6533,
      "Ġmeos": 6534,
      "Ġilum": 6535,
      "ĠFeli": 6536,
      "conom": 6537,
      "Ġimpon": 6538,
      "ĠpasÃ³": 6539,
      "Ġcarta": 6540,
      "ericordia": 6541,
      "Ġgrave": 6542,
      "Ġempe": 6543,
      "Ġpueblos": 6544,
      "Ġantici": 6545,
      "Ġbuscar": 6546,
      "Ġcruz": 6547,
      "Ġfelicidad": 6548,
      "Ġromano": 6549,
      "Ġarticle": 6550,
      "57": 6551,
      "ĠUna": 6552,
      "Ġelig": 6553,
      "rexit": 6554,
      "Ġespero": 6555,
      "Ġingres": 6556,
      "Ġici": 6557,
      "Ġhai": 6558,
      "bil": 6559,
      "Ġbiso": 6560,
      "Ġdesid": 6561,
      "true": 6562,
      "Ġcalidad": 6563,
      "Ġposteriores": 6564,
      "Ġconstru": 6565,
      "Ġforo": 6566,
      "Ġchristi": 6567,
      "Mientras": 6568,
      "Ġaudire": 6569,
      "torias": 6570,
      "Ġepisco": 6571,
      "Ġcerra": 6572,
      "ditur": 6573,
      "rium": 6574,
      "Ġdivis": 6575,
      "Ġreno": 6576,
      "Ġsimul": 6577,
      "Ġessentia": 6578,
      "ĠVida": 6579,
      "Ġdormir": 6580,
      "ĠEuropae": 6581,
      "Ġclase": 6582,
      "ĠtÃŃtulo": 6583,
      "PrÃ³ximo": 6584,
      "PÃ¡gina": 6585,
      "xito": 6586,
      "Ġfum": 6587,
      "ĠAfrica": 6588,
      "chis": 6589,
      "ĠcuÃ¡l": 6590,
      "mite": 6591,
      "veri": 6592,
      "Ġcael": 6593,
      "Ġmayo": 6594,
      "ĠJoseph": 6595,
      "PerchÃ©": 6596,
      "Ġ2006": 6597,
      "Ġsociedad": 6598,
      "Ġcorpus": 6599,
      "ĠVerbo": 6600,
      "Sicut": 6601,
      "ĠimÃ¡genes": 6602,
      "64": 6603,
      "AQ": 6604,
      "prim": 6605,
      "Ġventa": 6606,
      "dierna": 6607,
      "ĠDic": 6608,
      "Ġangeli": 6609,
      "Ġseres": 6610,
      "dest": 6611,
      "ÃŃsticas": 6612,
      "ĠSatanÃ¡s": 6613,
      "Ġimporta": 6614,
      "Ġfidei": 6615,
      "Ġexcepturi": 6616,
      "Ġalcanzar": 6617,
      "Ġdemons": 6618,
      "DÃ©": 6619,
      "pol": 6620,
      "ype": 6621,
      "Ġqualis": 6622,
      "Ġfic": 6623,
      "Ġresto": 6624,
      "Ġviaje": 6625,
      "gustÃŃn": 6626,
      "Ġconsecuencia": 6627,
      "?Â».": 6628,
      "ocia": 6629,
      "pÃ³": 6630,
      "xta": 6631,
      "Ġpuso": 6632,
      "Ġcari": 6633,
      "isten": 6634,
      "ĠAudi": 6635,
      "ĠTrin": 6636,
      "Ġvoce": 6637,
      "Ġhubo": 6638,
      "ĠNacional": 6639,
      "Ġcausam": 6640,
      "Ġhonor": 6641,
      "ĠPreguntas": 6642,
      "Ġdulce": 6643,
      "ĠFilÃ³sofo": 6644,
      "ĠsituaciÃ³n": 6645,
      "dec": 6646,
      "Ġdedica": 6647,
      "Ġcompa": 6648,
      "Ġbella": 6649,
      "cess": 6650,
      "Ġpies": 6651,
      "Ġautor": 6652,
      "Ġsuoi": 6653,
      "ĠVide": 6654,
      "Ġinvenire": 6655,
      "ĠAbrahÃ¡n": 6656,
      "!âĢĿ.": 6657,
      "58": 6658,
      "atur": 6659,
      "mer": 6660,
      "mentum": 6661,
      "Ġeodem": 6662,
      "Ġlad": 6663,
      "ĠEu": 6664,
      "ensis": 6665,
      "Ġprius": 6666,
      "simum": 6667,
      "Ġdecimas": 6668,
      "Ġencima": 6669,
      ".ÂĴ": 6670,
      "ion": 6671,
      "zc": 6672,
      "Ġsistema": 6673,
      "onda": 6674,
      "Ġfecha": 6675,
      "Ġsupre": 6676,
      "Ġganas": 6677,
      "ĠLÃŃ": 6678,
      "Ġveri": 6679,
      "Ġpari": 6680,
      "Ġcurso": 6681,
      "donde": 6682,
      "Ġsatisfac": 6683,
      "65": 6684,
      "Tex": 6685,
      "hos": 6686,
      "jeros": 6687,
      "ernos": 6688,
      "Ġsome": 6689,
      "Ġpen": 6690,
      "ordin": 6691,
      "cite": 6692,
      "ĠAegy": 6693,
      "Ġrepreh": 6694,
      "Ġmeis": 6695,
      "Ġpropon": 6696,
      "Ġhija": 6697,
      "Ġsecreto": 6698,
      "ĠperfecciÃ³n": 6699,
      "ĠadoraciÃ³n": 6700,
      "ĠperdÃ³n": 6701,
      "bem": 6702,
      "Ġeas": 6703,
      "tuales": 6704,
      "Ġinci": 6705,
      "Ġconduc": 6706,
      "ĠAAS": 6707,
      "Ġreus": 6708,
      "Ġperdon": 6709,
      "Ġrespi": 6710,
      "inali": 6711,
      "ĠelecciÃ³n": 6712,
      "formaciÃ³n": 6713,
      "Ġamicitia": 6714,
      "Ġpiace": 6715,
      "Amor": 6716,
      "Ġdro": 6717,
      "esar": 6718,
      "Ġinoc": 6719,
      "Ġindustri": 6720,
      "Ġseis": 6721,
      "Ġsigna": 6722,
      "ting": 6723,
      "Ġveritate": 6724,
      "Ġmedida": 6725,
      "Ġcontar": 6726,
      "Ġdello": 6727,
      "Ġsil": 6728,
      "villa": 6729,
      "logo": 6730,
      "Ġtuerto": 6731,
      "vela": 6732,
      "Seguir": 6733,
      "Ġoscu": 6734,
      "Antes": 6735,
      "Ġtransi": 6736,
      "Ġintelle": 6737,
      "Italia": 6738,
      "Ġcontenido": 6739,
      "sicut": 6740,
      "cfr": 6741,
      "Ġdatos": 6742,
      "ites": 6743,
      "ueve": 6744,
      "Ã±ar": 6745,
      "ĠTa": 6746,
      "Ġquoddam": 6747,
      "Ġconser": 6748,
      "guno": 6749,
      "Ġcaro": 6750,
      "Ġdata": 6751,
      "AllÃŃ": 6752,
      "Ġinsta": 6753,
      "ĠhistÃ³": 6754,
      "Ġiudic": 6755,
      "Ãªn": 6756,
      "cumbent": 6757,
      "Tom": 6758,
      "Ġ{": 6759,
      "Ġtipos": 6760,
      "Ġdisper": 6761,
      "Ġsumus": 6762,
      "Ġultra": 6763,
      "andro": 6764,
      "ĠActividad": 6765,
      "voluciÃ³n": 6766,
      "Cal": 6767,
      "Ġatre": 6768,
      "Ġdemos": 6769,
      "ĠgÃ©n": 6770,
      "Ġgui": 6771,
      "piente": 6772,
      "natura": 6773,
      "Ġtantos": 6774,
      "Ġveter": 6775,
      "Ġllev": 6776,
      "Ġsufri": 6777,
      "Ġscriptum": 6778,
      "Ġmagistra": 6779,
      "Ġllena": 6780,
      "Ġencontrado": 6781,
      "Ġviejo": 6782,
      "Ġideas": 6783,
      "dÃ³n": 6784,
      "hem": 6785,
      "Ġave": 6786,
      "inum": 6787,
      "Ġquisi": 6788,
      "Ġrecumbent": 6789,
      "Quienes": 6790,
      "ĠTodos": 6791,
      "Ġobed": 6792,
      "puta": 6793,
      "Ġvelle": 6794,
      "viso": 6795,
      "Ġumquam": 6796,
      "Ġcelebran": 6797,
      "ĠCreador": 6798,
      "Dem": 6799,
      "GO": 6800,
      "Next": 6801,
      "Ġcoc": 6802,
      "Ġesfuer": 6803,
      "ĠCristi": 6804,
      "mad": 6805,
      "Ġextermina": 6806,
      "Ġdescar": 6807,
      "nostra": 6808,
      "alismo": 6809,
      "198": 6810,
      "Ġvuelta": 6811,
      "Pater": 6812,
      "bur": 6813,
      "ude": 6814,
      "its": 6815,
      "Ġalrededor": 6816,
      "utbol": 6817,
      "Intro": 6818,
      "Ġsantos": 6819,
      "Ġ2005": 6820,
      "Ġboca": 6821,
      "Ġconsecutam": 6822,
      "Ġdiscipuli": 6823,
      "Ġidioma": 6824,
      "!Â».": 6825,
      "pal": 6826,
      "Ġecclesi": 6827,
      "Ġconuer": 6828,
      "Ġpac": 6829,
      "etÃł": 6830,
      "Ġmierda": 6831,
      "ĠGa": 6832,
      "Ġsecre": 6833,
      "Dif": 6834,
      "Ġpersonal": 6835,
      "Ġorigen": 6836,
      "Ġproceso": 6837,
      "Ġsirve": 6838,
      "QUE": 6839,
      "Ġconsectetur": 6840,
      "ĠsÃ¡": 6841,
      "Ġsegui": 6842,
      "Ġproteg": 6843,
      "tanti": 6844,
      "ĠÃī": 6845,
      "nada": 6846,
      "âĢľÂ¿": 6847,
      "Ġescritura": 6848,
      "lioteca": 6849,
      "Ġservir": 6850,
      "ĠÃºnica": 6851,
      "Ġlam": 6852,
      "Ġpermit": 6853,
      "utum": 6854,
      "Ġdespi": 6855,
      "Ġpudo": 6856,
      "ĠCarta": 6857,
      "Ġvalde": 6858,
      "Ġfunda": 6859,
      "Ġoblivi": 6860,
      "Ġexerci": 6861,
      "ĠdeberÃŃa": 6862,
      "Ġperseverare": 6863,
      "ptum": 6864,
      "ĠcÃ³": 6865,
      "Ġcentro": 6866,
      "Ġvienen": 6867,
      "cher": 6868,
      "acula": 6869,
      "ĠMic": 6870,
      "Ġconserva": 6871,
      "Ġanimali": 6872,
      "bantur": 6873,
      "enderit": 6874,
      "Ã§o": 6875,
      "Ġrepellat": 6876,
      "linas": 6877,
      "Ġsuscitare": 6878,
      "ĠcreyÃ³": 6879,
      "Ġsimilis": 6880,
      "ĠInternet": 6881,
      "cent": 6882,
      "ka": 6883,
      "Ġ)": 6884,
      "tidos": 6885,
      "Ġques": 6886,
      "empo": 6887,
      "Ġprove": 6888,
      "ĠMal": 6889,
      "endario": 6890,
      "Ġprecio": 6891,
      "Ġquaerat": 6892,
      "Ġocchi": 6893,
      "demia": 6894,
      "Â«.": 6895,
      "Ġunidad": 6896,
      "Ġmodos": 6897,
      "ĠestarÃ¡": 6898,
      "ĠFavor": 6899,
      "Ġoportunidad": 6900,
      "Doc": 6901,
      "met": 6902,
      "oce": 6903,
      "ertos": 6904,
      "anae": 6905,
      "Ġben": 6906,
      "Ġprote": 6907,
      "Ġmagna": 6908,
      "ĠartÃŃculos": 6909,
      "ĠIng": 6910,
      "Ġcandida": 6911,
      "ĠincreÃŃ": 6912,
      "lesias": 6913,
      "Ġcommodi": 6914,
      "EC": 6915,
      "biamo": 6916,
      "uegos": 6917,
      "Ġtemor": 6918,
      "Ġsolici": 6919,
      "ĠInfi": 6920,
      "ĠÃ©xito": 6921,
      "Ġmoda": 6922,
      "grado": 6923,
      "Ġtengan": 6924,
      "Ġ35": 6925,
      "Ġsecondo": 6926,
      "Ġdecimatus": 6927,
      "Ġminutos": 6928,
      "Ġincor": 6929,
      "Ġagri": 6930,
      "Ġlegere": 6931,
      "bulum": 6932,
      "Ġuxorem": 6933,
      "Ġplures": 6934,
      "ĠJehovÃ¡": 6935,
      "Op": 6936,
      "lui": 6937,
      "Ġdetermin": 6938,
      "Ġeng": 6939,
      "direc": 6940,
      "Ġpou": 6941,
      "Ġconsiste": 6942,
      "ĠopciÃ³n": 6943,
      "ficos": 6944,
      "undus": 6945,
      "90": 6946,
      "Ej": 6947,
      "Sine": 6948,
      "cando": 6949,
      "fono": 6950,
      "ĠDer": 6951,
      "Ġprofec": 6952,
      "Inf": 6953,
      "aden": 6954,
      "recÃŃa": 6955,
      "Ġfacis": 6956,
      "istencia": 6957,
      "Algunos": 6958,
      "ĠBrasi": 6959,
      "ĠÃ³rdenes": 6960,
      "DA": 6961,
      "gri": 6962,
      "ppe": 6963,
      "xo": 6964,
      "Ġsenza": 6965,
      "ami": 6966,
      "Ġfini": 6967,
      "Ġleo": 6968,
      "Estamos": 6969,
      "verdad": 6970,
      "Ġquidam": 6971,
      "Ġdicat": 6972,
      "ĠAngeli": 6973,
      "Ġvesper": 6974,
      "ĠcuÃ¡nto": 6975,
      "Ġejercicio": 6976,
      "Denique": 6977,
      "Gran": 6978,
      "eum": 6979,
      "tior": 6980,
      "ĠquÃ¦": 6981,
      "ors": 6982,
      "ĠTh": 6983,
      "pedia": 6984,
      "ĠJud": 6985,
      "Ġcontraria": 6986,
      "porque": 6987,
      "Ġocta": 6988,
      "Ġcommenta": 6989,
      "Ġlegatum": 6990,
      "Ġurgente": 6991,
      "ĠtendrÃ¡": 6992,
      "Consul": 6993,
      "ĠeducaciÃ³n": 6994,
      "inked": 6995,
      "Ta": 6996,
      "mod": 6997,
      "phi": 6998,
      "sw": 6999,
      "zÃ¡s": 7000,
      "Ġreco": 7001,
      "uerto": 7002,
      "Ġfuerint": 7003,
      "genda": 7004,
      "Ġquinta": 7005,
      "Ġsexo": 7006,
      "ĠprÃ³j": 7007,
      "Simili": 7008,
      "Ġanticipo": 7009,
      "Ġseas": 7010,
      "ĠDem": 7011,
      "Ġtuyo": 7012,
      "Ġcuad": 7013,
      "illas": 7014,
      "Ġcredo": 7015,
      "ĠInicio": 7016,
      "itae": 7017,
      "Ġmanu": 7018,
      "Ġmalum": 7019,
      "Ġvaya": 7020,
      "ritÃ¡n": 7021,
      "Ġmortui": 7022,
      "Ġmortuis": 7023,
      "Numquam": 7024,
      "Ġreconoci": 7025,
      "Ġregiones": 7026,
      "ĠtÃ©rmino": 7027,
      "Sub": 7028,
      "Scegli": 7029,
      "cro": 7030,
      "Ġsper": 7031,
      "Ġfutbol": 7032,
      "Ġreper": 7033,
      "Ġcumple": 7034,
      "Ġalios": 7035,
      "Ġtale": 7036,
      "Ġsubli": 7037,
      "Ġrecta": 7038,
      "titudo": 7039,
      "Ġinventus": 7040,
      "Ġhermanas": 7041,
      "2008": 7042,
      "Ġpruebas": 7043,
      "Ġpropheta": 7044,
      "ĠPrinci": 7045,
      "Ġevitar": 7046,
      "Ġcriatura": 7047,
      "Sta": 7048,
      "gens": 7049,
      "Ġconden": 7050,
      "imiento": 7051,
      "ĠOb": 7052,
      "uncta": 7053,
      "Ġculto": 7054,
      "Ġtutte": 7055,
      "Ġconocido": 7056,
      "Ġcristiana": 7057,
      "Ġnecessario": 7058,
      "ĠmÃ©dico": 7059,
      ".ÂĴÂĴ": 7060,
      "748": 7061,
      "sti": 7062,
      "Ġ]": 7063,
      "Ġaj": 7064,
      "table": 7065,
      "Ġreiciendis": 7066,
      "bitis": 7067,
      "ĠSue": 7068,
      "Ġbur": 7069,
      "Ġmiente": 7070,
      "Ġmiles": 7071,
      "ĠhabrÃŃa": 7072,
      "ĠBen": 7073,
      "Ġpraeter": 7074,
      "Ġerunt": 7075,
      "Ġincendi": 7076,
      "ĠhacÃŃa": 7077,
      "Ġpensar": 7078,
      "ĠIesu": 7079,
      "Ġsacramento": 7080,
      "Ġgehennae": 7081,
      "Fal": 7082,
      "MA": 7083,
      "emania": 7084,
      "ĠAgustÃŃn": 7085,
      "Ġtuis": 7086,
      "Ġnacido": 7087,
      "asiÃ³n": 7088,
      "Ġfalsum": 7089,
      "Ġprofesion": 7090,
      "faci": 7091,
      "Ġdiversas": 7092,
      "ĠGeneral": 7093,
      "Ġprovident": 7094,
      "Nom": 7095,
      "dÃ©": 7096,
      "mul": 7097,
      "Ġfla": 7098,
      "Ġdii": 7099,
      "Ġofer": 7100,
      "Ġregnum": 7101,
      "ĠMÃ¡s": 7102,
      "Noticias": 7103,
      "Ġlui": 7104,
      "Ġmonta": 7105,
      "ĠSeguidores": 7106,
      "Ġfeci": 7107,
      "Ille": 7108,
      "Ġrichi": 7109,
      "Ġjuro": 7110,
      "usticia": 7111,
      "distis": 7112,
      "ĠdecÃŃan": 7113,
      "Ã©cn": 7114,
      "Ġafirma": 7115,
      "ĠFavoritos": 7116,
      "Ps": 7117,
      "jan": 7118,
      "tific": 7119,
      "ompe": 7120,
      "Ġgrie": 7121,
      "Ġadver": 7122,
      "Ġdeserunt": 7123,
      "Ġillis": 7124,
      "ĠConsi": 7125,
      "ĠSiguiendo": 7126,
      "Ġlectores": 7127,
      "Ġsententia": 7128,
      "ĠSobre": 7129,
      "Ġintellectus": 7130,
      "53": 7131,
      "DOS": 7132,
      "Ġsuces": 7133,
      "vie": 7134,
      "etti": 7135,
      "tionum": 7136,
      "ĠTor": 7137,
      "Ġduae": 7138,
      "elita": 7139,
      "tador": 7140,
      "Ġaeternum": 7141,
      "eluia": 7142,
      "ĠMadrid": 7143,
      "Ġexterminati": 7144,
      "Man": 7145,
      "pue": 7146,
      "udos": 7147,
      "Â©": 7148,
      "Ġmetus": 7149,
      "ĠTro": 7150,
      "ĠBer": 7151,
      "ilio": 7152,
      "ĠFatuae": 7153,
      "Mol": 7154,
      "Quasi": 7155,
      "ĠCl": 7156,
      "Ġpobre": 7157,
      "ĠCapi": 7158,
      "Ġdisciplina": 7159,
      "Nec": 7160,
      "Ã¡li": 7161,
      "Ġocho": 7162,
      "Ġmilia": 7163,
      "Ġacos": 7164,
      "tarÃ¡n": 7165,
      "potest": 7166,
      "Ġamas": 7167,
      "Ġduri": 7168,
      "Ġfieles": 7169,
      "Ġ38": 7170,
      "Ġexisten": 7171,
      "ĠPalabra": 7172,
      "Mus": 7173,
      "erent": 7174,
      "onas": 7175,
      "Ġpeso": 7176,
      "Ġinse": 7177,
      "Ġfino": 7178,
      "Ġdiven": 7179,
      "gnat": 7180,
      "Ġacus": 7181,
      "Quieres": 7182,
      "Ġtrai": 7183,
      "Ġmotus": 7184,
      "Ġvoi": 7185,
      "Ġantequam": 7186,
      "Ġnombra": 7187,
      "Ġsuffra": 7188,
      "Muchos": 7189,
      "tividades": 7190,
      "Ġencuentro": 7191,
      "Ġprincipios": 7192,
      "Ġorgani": 7193,
      "ĠrÃ¡pido": 7194,
      "56": 7195,
      "Somos": 7196,
      "teni": 7197,
      "ĠpelÃŃ": 7198,
      "quÃŃa": 7199,
      "Ġcondena": 7200,
      "Ġpage": 7201,
      "Ġsiquiera": 7202,
      "Ġadsum": 7203,
      "gantes": 7204,
      "ĠQuin": 7205,
      "Ġreliquis": 7206,
      "ĠXX": 7207,
      "Ġromanos": 7208,
      "Ġesperar": 7209,
      "tivum": 7210,
      "Ġviolasti": 7211,
      "ĠGrecia": 7212,
      "TR": 7213,
      "tÃŃa": 7214,
      "visiÃ³n": 7215,
      "Ġdam": 7216,
      "unti": 7217,
      "Ġgiu": 7218,
      "ĠEva": 7219,
      "Ġaudio": 7220,
      "cribir": 7221,
      "Ġestablec": 7222,
      "Ġuomo": 7223,
      "ĠautÃ©n": 7224,
      "ticae": 7225,
      "Ġnaturam": 7226,
      "Mira": 7227,
      "Ġservire": 7228,
      "mites": 7229,
      "Ġsorte": 7230,
      "Ġarriba": 7231,
      "ĠcontinuaciÃ³n": 7232,
      "Ġalumnos": 7233,
      "Audi": 7234,
      "anci": 7235,
      "Ġsinistra": 7236,
      "tende": 7237,
      "ĠridÃŃ": 7238,
      "ramento": 7239,
      "Ġtenetur": 7240,
      "Ġdiligere": 7241,
      "Ġregione": 7242,
      "pieza": 7243,
      "tenido": 7244,
      "Ġtuorum": 7245,
      "Ġcopi": 7246,
      "Ġfiel": 7247,
      "Ġuniversi": 7248,
      "Ġinfatti": 7249,
      "versiÃ³n": 7250,
      "Ġsociales": 7251,
      "Ġcivil": 7252,
      "ĠrevelaciÃ³n": 7253,
      "Ġelegir": 7254,
      "ĠinglÃ©s": 7255,
      "ĠpÃºblico": 7256,
      "ĠFatue": 7257,
      "Ġcircun": 7258,
      "Ġrepudiandae": 7259,
      "Ġero": 7260,
      "Ġfues": 7261,
      "Ġretro": 7262,
      "Ġproduce": 7263,
      "ĠMedi": 7264,
      "ils": 7265,
      "Ġmiseria": 7266,
      "graph": 7267,
      "Ġexplic": 7268,
      "ĠQuando": 7269,
      "Ġabsolu": 7270,
      "Ġinitio": 7271,
      "Credite": 7272,
      "Ġabsurdo": 7273,
      "ĠprÃ³jimo": 7274,
      "!.": 7275,
      "Val": 7276,
      "ira": 7277,
      "Ġsensu": 7278,
      "Ġesas": 7279,
      "Ã³r": 7280,
      "Ġove": 7281,
      "ĠRed": 7282,
      "port": 7283,
      "Ġcuerpos": 7284,
      "Cumque": 7285,
      "Ġmultiplic": 7286,
      "Ġcreyente": 7287,
      "Ġfirma": 7288,
      "ĠHispania": 7289,
      "SS": 7290,
      "SÃ©": 7291,
      "Ġmam": 7292,
      "Ġvini": 7293,
      "Ġsede": 7294,
      "Ġgoogle": 7295,
      "gios": 7296,
      "ĠTr": 7297,
      "ĠNombre": 7298,
      "ĠOn": 7299,
      "Ġimpendite": 7300,
      "Ġusar": 7301,
      "Ġluce": 7302,
      "âĢ¦.": 7303,
      "Ġllamar": 7304,
      "Ġtriun": 7305,
      "Ġsuffecta": 7306,
      "ĠÃ¡ngel": 7307,
      "Ġvuelve": 7308,
      "Tenemos": 7309,
      "Ġalaban": 7310,
      "ds": 7311,
      "ppo": 7312,
      "zando": 7313,
      "ines": 7314,
      "ciles": 7315,
      "Ġinj": 7316,
      "Ġconfer": 7317,
      "Ġoh": 7318,
      "cultura": 7319,
      "Ġmotivo": 7320,
      "Ġimpie": 7321,
      "Ġaudivit": 7322,
      "Ġmomenti": 7323,
      "Ġrelaciones": 7324,
      "Ġfamilias": 7325,
      "ĠdirecciÃ³n": 7326,
      "Ġlleno": 7327,
      "Ġelegido": 7328,
      "Bienveni": 7329,
      "Ġmiembros": 7330,
      "Ġdignidad": 7331,
      "Ġizquierda": 7332,
      "DÃŃa": 7333,
      "Ġdeman": 7334,
      "tiendo": 7335,
      "ande": 7336,
      "ĠharÃ¡": 7337,
      "Ġpatet": 7338,
      "Ġtuae": 7339,
      "oraciÃ³n": 7340,
      "edra": 7341,
      "ĠEsta": 7342,
      "Ġdebemos": 7343,
      "ĠInterna": 7344,
      "Cir": 7345,
      "Ġsc": 7346,
      "ĠfÃŃs": 7347,
      "rias": 7348,
      "Ġaltera": 7349,
      "edor": 7350,
      "ĠÃļlti": 7351,
      "Ġsalvo": 7352,
      "Ġomnibus": 7353,
      "Ġpuri": 7354,
      "mandi": 7355,
      "Ġmultae": 7356,
      "Ġfratrem": 7357,
      "Ġpeor": 7358,
      "Ġnescio": 7359,
      "ĠcondiciÃ³n": 7360,
      "Ã¡rcel": 7361,
      "Ġpeccata": 7362,
      "Ġconforme": 7363,
      "Ġaedifica": 7364,
      "Fra": 7365,
      "Pe": 7366,
      "istir": 7367,
      "tuvo": 7368,
      "ĠDani": 7369,
      "ĠCru": 7370,
      "ĠPÃ¡gina": 7371,
      "chio": 7372,
      "acto": 7373,
      "Ġmiseretur": 7374,
      "ĠAll": 7375,
      "Ġfacies": 7376,
      "Ġoccu": 7377,
      "Ġantiguos": 7378,
      "ĠAug": 7379,
      "Ġsubstantia": 7380,
      "Ġresucita": 7381,
      "Ġesposa": 7382,
      "54": 7383,
      "Uti": 7384,
      "ks": 7385,
      "pensa": 7386,
      "rera": 7387,
      "Ġeri": 7388,
      "Ġatribu": 7389,
      "Ġapeti": 7390,
      "ĠEsa": 7391,
      "ĠVeni": 7392,
      "Inc": 7393,
      "Ġ\"Â¿": 7394,
      "ariamente": 7395,
      "Ġopin": 7396,
      "Ġbuon": 7397,
      "Ġfrase": 7398,
      "Ġvoces": 7399,
      "Ġlettera": 7400,
      "Ġcriaturas": 7401,
      "tribui": 7402,
      "ĠGeor": 7403,
      "Ġcris": 7404,
      "tida": 7405,
      "dian": 7406,
      "empio": 7407,
      "ĠDure": 7408,
      "bate": 7409,
      "Ġactus": 7410,
      "ĠNueva": 7411,
      "Ġdato": 7412,
      "Ġparecer": 7413,
      "Ġdiferente": 7414,
      "Ġpropiedad": 7415,
      "Ciertamente": 7416,
      "Durante": 7417,
      "AC": 7418,
      "uelo": 7419,
      "ĠDamas": 7420,
      "Ġprobar": 7421,
      "torno": 7422,
      "adamente": 7423,
      "Ġfuisse": 7424,
      "ĠContra": 7425,
      "Ġvenga": 7426,
      "Ġdomani": 7427,
      "serva": 7428,
      "faut": 7429,
      "Ġmarido": 7430,
      "ĠalegrÃŃa": 7431,
      "Phone": 7432,
      "ware": 7433,
      "ĠÃŃn": 7434,
      "Ġapa": 7435,
      "timos": 7436,
      "lice": 7437,
      "Ġinteg": 7438,
      "Ġfas": 7439,
      "Ġferia": 7440,
      "Ġvivit": 7441,
      "Ġvivos": 7442,
      "Ġvideri": 7443,
      "Ġmila": 7444,
      "Ġreserva": 7445,
      "Ġhabetur": 7446,
      "ĠLuna": 7447,
      "ĠcreÃ³": 7448,
      "ĠBon": 7449,
      "Ġalius": 7450,
      "Ġappro": 7451,
      "Ġ48": 7452,
      "serit": 7453,
      "Ġintelleg": 7454,
      "Ġmessa": 7455,
      "Ġurbe": 7456,
      "Ġsubito": 7457,
      "CuÃ¡ntos": 7458,
      "Ġcomida": 7459,
      "ĠÃģn": 7460,
      "Ġconcupisc": 7461,
      "Cul": 7462,
      "Isa": 7463,
      "fÃ©": 7464,
      "Ġ#": 7465,
      "tulum": 7466,
      "toire": 7467,
      "Ġsuje": 7468,
      "Ġreti": 7469,
      "lea": 7470,
      "terra": 7471,
      "ĠEduca": 7472,
      "modo": 7473,
      "Ġcrees": 7474,
      "Ġlibres": 7475,
      "Ġsublim": 7476,
      "ĠgustarÃŃa": 7477,
      "Ġpecadores": 7478,
      "Ġmontana": 7479,
      "minis": 7480,
      "habi": 7481,
      "ĠescÃ¡n": 7482,
      "Juan": 7483,
      "Ġadmira": 7484,
      "Ġgolpe": 7485,
      "Ibi": 7486,
      "Ġsuyo": 7487,
      "Ġprova": 7488,
      "ĠMem": 7489,
      "Ġmagia": 7490,
      "ĠFe": 7491,
      "turam": 7492,
      "ĠniÃ±a": 7493,
      "Ġipso": 7494,
      "Ġtestamento": 7495,
      "Ġprincipales": 7496,
      "Satis": 7497,
      "Ġfundamenta": 7498,
      "Puella": 7499,
      "Cara": 7500,
      "dunt": 7501,
      "ias": 7502,
      "junto": 7503,
      "zÃ¡": 7504,
      "Ġple": 7505,
      "Ġcib": 7506,
      "Ġhecha": 7507,
      "Ġfere": 7508,
      "ĠAut": 7509,
      "ĠAna": 7510,
      "Ġretribu": 7511,
      "tans": 7512,
      "quidem": 7513,
      "ĠRob": 7514,
      "Ġfacti": 7515,
      "Ġeram": 7516,
      "Ġries": 7517,
      "Ġnaturalis": 7518,
      "Ġdiventa": 7519,
      "Ġrecibe": 7520,
      "Ġreligios": 7521,
      "linio": 7522,
      "Crea": 7523,
      "Ġpedes": 7524,
      "!Â»": 7525,
      "bÃ³": 7526,
      "cipe": 7527,
      "lada": 7528,
      "ellos": 7529,
      "ĠMes": 7530,
      "Ġdesta": 7531,
      "Ġcurios": 7532,
      "bato": 7533,
      "ĠRab": 7534,
      "Ġcrede": 7535,
      "Ġsont": 7536,
      "Ġconsc": 7537,
      "Ġaplica": 7538,
      "Ġub": 7539,
      "Ġvoluit": 7540,
      "Ġplacer": 7541,
      "Ġrecibi": 7542,
      "Ġestudio": 7543,
      "Ġargumento": 7544,
      "Ġcapacidad": 7545,
      "Ġmaestro": 7546,
      "Ġejemplos": 7547,
      "mem": 7548,
      "Ġstoria": 7549,
      "Ġlista": 7550,
      "ÃŃso": 7551,
      "etus": 7552,
      "ocer": 7553,
      "Ġimperat": 7554,
      "Ġcamera": 7555,
      "Ġadop": 7556,
      "Ġscribere": 7557,
      "Ġplaneta": 7558,
      "Ġfotogra": 7559,
      "ĠtÃŃtulos": 7560,
      "Casi": 7561,
      "Emp": 7562,
      "gor": 7563,
      "diciones": 7564,
      "Ġanci": 7565,
      "Ã¡sico": 7566,
      "Ġprior": 7567,
      "ĠÃª": 7568,
      "ĠpropÃ³sito": 7569,
      "Ġdivor": 7570,
      "Nempe": 7571,
      "ĠFamilia": 7572,
      "Ġconscenderat": 7573,
      "cci": 7574,
      "hu": 7575,
      "rÃŃas": 7576,
      "rez": 7577,
      "todos": 7578,
      "omas": 7579,
      "Ġang": 7580,
      "Ġcasas": 7581,
      "ÃŃstica": 7582,
      "Ġloquar": 7583,
      "Ġsublimibus": 7584,
      "Eadem": 7585,
      "gentes": 7586,
      "vum": 7587,
      "xa": 7588,
      "Ġmel": 7589,
      "Ġquoc": 7590,
      "Ġlatino": 7591,
      "ĠAca": 7592,
      "Ġviento": 7593,
      "vitÃł": 7594,
      "Ġtercera": 7595,
      "Ġ33": 7596,
      "puestas": 7597,
      "Ġconsilio": 7598,
      "Ġbelleza": 7599,
      "Ġpraesentium": 7600,
      "Ġcorporal": 7601,
      "Ġindurat": 7602,
      "Ġbisogno": 7603,
      "cero": 7604,
      "sci": 7605,
      "encial": 7606,
      "Ġnoticias": 7607,
      "ĠcuestiÃ³n": 7608,
      "count": 7609,
      "ill": 7610,
      "Ġobtin": 7611,
      "Ġgustan": 7612,
      "ĠAng": 7613,
      "Ġplata": 7614,
      "Ġcerto": 7615,
      "Ġhermos": 7616,
      "ĠSagrada": 7617,
      "Ġbase": 7618,
      "ĠServi": 7619,
      "Ġformulario": 7620,
      "ĠCultura": 7621,
      "inkedIn": 7622,
      "Dal": 7623,
      "Gu": 7624,
      "Gal": 7625,
      "Lin": 7626,
      "ctus": 7627,
      "fos": 7628,
      "eramente": 7629,
      "ence": 7630,
      "ĠcÃ¡rcel": 7631,
      "tieron": 7632,
      "Ġvit": 7633,
      "icem": 7634,
      "ĠAdam": 7635,
      "vide": 7636,
      "tanas": 7637,
      "brahim": 7638,
      "Mejor": 7639,
      "ĠcosÃ¬": 7640,
      "Ġsuperfici": 7641,
      "Ġdebent": 7642,
      "celona": 7643,
      "ĠdÃ©faut": 7644,
      "Ġtenebras": 7645,
      "Ġnegocio": 7646,
      "Ġinteresante": 7647,
      "Ġquerido": 7648,
      "Ġgiorni": 7649,
      "Ġtractare": 7650,
      "Ġhambre": 7651,
      "VIII": 7652,
      "cina": 7653,
      "glesias": 7654,
      "quista": 7655,
      "Ġinca": 7656,
      "Ġferi": 7657,
      "Ġgas": 7658,
      "ĠSab": 7659,
      "sioni": 7660,
      "Ġexterior": 7661,
      "Ġdescrip": 7662,
      "ĠVII": 7663,
      "Ġinternet": 7664,
      "ĠEstado": 7665,
      "Ġquot": 7666,
      "Ġescribe": 7667,
      "Ġmedios": 7668,
      "Ġvoluntatis": 7669,
      "Ġestuvo": 7670,
      "Ġactual": 7671,
      "Aliquid": 7672,
      "Princi": 7673,
      "Ġinterrogaverunt": 7674,
      "Ġexpedita": 7675,
      "Ġoccurrit": 7676,
      "Ġrefiere": 7677,
      "Ġduritiam": 7678,
      "Ġsuffragi": 7679,
      "Hemos": 7680,
      "dÃ³nde": 7681,
      "Ġagu": 7682,
      "isto": 7683,
      "Ġgentem": 7684,
      "Ġ\"Â¡": 7685,
      "omnes": 7686,
      "Contin": 7687,
      "ĠvehÃŃ": 7688,
      "ficab": 7689,
      "Ġreligiosa": 7690,
      "Ġpubblica": 7691,
      "atorio": 7692,
      "Ġnecessitate": 7693,
      "Ġinterpreta": 7694,
      "Ġpeligro": 7695,
      "Ġconozco": 7696,
      "Ġmanifes": 7697,
      "Ġexempla": 7698,
      "ĠocasiÃ³n": 7699,
      "Ġproyecto": 7700,
      "Ġdetalles": 7701,
      "Nuestro": 7702,
      "dÃ³": 7703,
      "jal": 7704,
      "nio": 7705,
      "Ġseno": 7706,
      "Ġagi": 7707,
      "Ġabajo": 7708,
      "Ġcere": 7709,
      "anzas": 7710,
      "usta": 7711,
      "Ġbat": 7712,
      "Ġprope": 7713,
      "utes": 7714,
      "Ġlega": 7715,
      "Ġresta": 7716,
      "firma": 7717,
      "Ġserm": 7718,
      "Ġarmas": 7719,
      "cern": 7720,
      "ants": 7721,
      "Ġtemporis": 7722,
      "ucaris": 7723,
      "Ġcualquiera": 7724,
      "ĠQuis": 7725,
      "veniet": 7726,
      "Ġabsque": 7727,
      "Ġlugares": 7728,
      "Ġpublic": 7729,
      "andus": 7730,
      "Ġquerer": 7731,
      "kipedia": 7732,
      "postÃ³lica": 7733,
      "etis": 7734,
      "flu": 7735,
      "rent": 7736,
      "cada": 7737,
      "Ġban": 7738,
      "ĠEvangeli": 7739,
      "Ġpoten": 7740,
      "eder": 7741,
      "cola": 7742,
      "voir": 7743,
      "ĠItali": 7744,
      "Ġinferior": 7745,
      "ĠForma": 7746,
      "truebat": 7747,
      "san": 7748,
      "Ã´": 7749,
      "ardo": 7750,
      "diendo": 7751,
      "Ã¡tica": 7752,
      "Quos": 7753,
      "Ġalem": 7754,
      "quitec": 7755,
      "ĠVo": 7756,
      "Ġparole": 7757,
      "ĠJa": 7758,
      "Ġnegar": 7759,
      "zion": 7760,
      "dicos": 7761,
      "ficere": 7762,
      "Ġropa": 7763,
      "Ġordena": 7764,
      "Ġtotalmente": 7765,
      "Ġpertinet": 7766,
      "ĠmÃŃnimo": 7767,
      "Ġresultado": 7768,
      "Ġmandamientos": 7769,
      "tÃº": 7770,
      "rata": 7771,
      "doma": 7772,
      "Ġmeta": 7773,
      "Ġpag": 7774,
      "Ġcomien": 7775,
      "Ġveritas": 7776,
      "Ġalimenta": 7777,
      "cessit": 7778,
      "Ġpiens": 7779,
      "Ġmortales": 7780,
      "Ġhominum": 7781,
      "Ġlongi": 7782,
      "Ġmittitur": 7783,
      "ĠOriente": 7784,
      "Ġaperiam": 7785,
      "SI": 7786,
      "Sur": 7787,
      "idos": 7788,
      "ĠQuien": 7789,
      "Ġlimos": 7790,
      "Ġmore": 7791,
      "Ġespe": 7792,
      "dias": 7793,
      "Ġselec": 7794,
      "Ġcompon": 7795,
      "Ġanal": 7796,
      "Ġext": 7797,
      "pida": 7798,
      "Ġasocia": 7799,
      "Ġcotidi": 7800,
      "Ġautoridad": 7801,
      "ĠSalva": 7802,
      "TwitterFacebook": 7803,
      "presentan": 7804,
      "Ġimpossibile": 7805,
      "Ġpersever": 7806,
      "Ġciego": 7807,
      "ĠOccid": 7808,
      "Ġadsumptio": 7809,
      "\"Â¿": 7810,
      "dent": 7811,
      "ged": 7812,
      "Ġscho": 7813,
      "Ġeterno": 7814,
      "turis": 7815,
      "ocÃª": 7816,
      "Ġactividad": 7817,
      "cerca": 7818,
      "Ġrin": 7819,
      "SeÃ±or": 7820,
      "laro": 7821,
      "ĠpodrÃ¡": 7822,
      "tÃŃsimo": 7823,
      "ĠUr": 7824,
      "oloca": 7825,
      "Ã¡rtelo": 7826,
      "Ġsuscitabit": 7827,
      "2007": 7828,
      "Ġdifferentia": 7829,
      "Ġescapar": 7830,
      "Ġocasiones": 7831,
      ",.": 7832,
      "AÃºn": 7833,
      "cle": 7834,
      "ko": 7835,
      "lon": 7836,
      "tÃ©s": 7837,
      "uis": 7838,
      "âĤ¬": 7839,
      "ertas": 7840,
      "Ġsentado": 7841,
      "Ġaz": 7842,
      "cienda": 7843,
      "americ": 7844,
      "Ġdiablo": 7845,
      "Ġalco": 7846,
      "signum": 7847,
      "Segu": 7848,
      "Ġmonaden": 7849,
      "Ġcole": 7850,
      "Ġhomini": 7851,
      "Ġdecre": 7852,
      "erumque": 7853,
      "Ġrisposta": 7854,
      "Ġdixissent": 7855,
      "Ġordina": 7856,
      "Ġsosp": 7857,
      "Ġpauper": 7858,
      "Ġcategoria": 7859,
      "ĠacompaÃ±": 7860,
      "mm": 7861,
      "Ġech": 7862,
      "Ġnar": 7863,
      "tolo": 7864,
      "ĠEli": 7865,
      "cuentes": 7866,
      "Ġ2000": 7867,
      "Ġobtulit": 7868,
      "Ġinsula": 7869,
      "Ġtrabaja": 7870,
      "ĠDixit": 7871,
      "Ġlibra": 7872,
      "ĠConsejo": 7873,
      "Ġimpietatem": 7874,
      "52": 7875,
      "Fonte": 7876,
      "cuela": 7877,
      "lli": 7878,
      "Ġsensa": 7879,
      "estro": 7880,
      "aste": 7881,
      "Ġener": 7882,
      "Ã©rica": 7883,
      "ĠDon": 7884,
      "ueves": 7885,
      "ĠMel": 7886,
      "Ġexam": 7887,
      "ĠcuÃ¡ndo": 7888,
      "Ġacciones": 7889,
      "Ġmatar": 7890,
      "Ġcook": 7891,
      "Ġistis": 7892,
      "Ġmascul": 7893,
      "Ġgover": 7894,
      "Ġaspicias": 7895,
      "Ġdiceres": 7896,
      "ĠHebraico": 7897,
      "Dico": 7898,
      "ĠcomuniÃ³n": 7899,
      "Ġalc": 7900,
      "tionalis": 7901,
      "bai": 7902,
      "ĠHoc": 7903,
      "Ġconstat": 7904,
      "Ġcanta": 7905,
      "ĠDirec": 7906,
      "ĠCausa": 7907,
      "Ġbono": 7908,
      "ĠÃºtil": 7909,
      "âĢĶÂ¿": 7910,
      "Ġimagina": 7911,
      "ĠnÃºmeros": 7912,
      "Ġdesapare": 7913,
      "tena": 7914,
      "Ġspera": 7915,
      "ĠcrÃ©": 7916,
      "anismo": 7917,
      "Ġdim": 7918,
      "resurrec": 7919,
      "mpa": 7920,
      "Ġsober": 7921,
      "ĠInstitu": 7922,
      "Ġeaque": 7923,
      "Reci": 7924,
      "Sint": 7925,
      "Traba": 7926,
      "ĠsaliÃ³": 7927,
      "pendentemente": 7928,
      "mentos": 7929,
      "ĠcrÃŃ": 7930,
      "Ġllu": 7931,
      "ĠmÃ³": 7932,
      "Ġnem": 7933,
      "Ġsiguen": 7934,
      "Ġcuarta": 7935,
      "ĠjÃ³venes": 7936,
      "Ġnaciones": 7937,
      "fectos": 7938,
      "ticamente": 7939,
      "eterea": 7940,
      "versus": 7941,
      "Ġessendo": 7942,
      "Ġmusul": 7943,
      "Ġpeligrosamente": 7944,
      "Ġentendimiento": 7945,
      "Certe": 7946,
      "Duo": 7947,
      "yeron": 7948,
      "Ġpur": 7949,
      "ciam": 7950,
      "antos": 7951,
      "Ġviam": 7952,
      "tamenti": 7953,
      "Ġacaso": 7954,
      "ĠTag": 7955,
      "Ġartis": 7956,
      "Ġface": 7957,
      "desa": 7958,
      "Ġhici": 7959,
      "natur": 7960,
      "Ġgratias": 7961,
      "Algo": 7962,
      "Ġpecun": 7963,
      "Ġjudi": 7964,
      "ĠUS": 7965,
      "Ġconclu": 7966,
      "Ġuma": 7967,
      "Ġascend": 7968,
      "ĠdejarÃ¡": 7969,
      "Ġparticular": 7970,
      "AB": 7971,
      "LinkedIn": 7972,
      "Ã»": 7973,
      "Ã©tica": 7974,
      "ity": 7975,
      "Ġrepe": 7976,
      "ĠMinis": 7977,
      "Ãºblica": 7978,
      "lamento": 7979,
      "Ġoccasi": 7980,
      "2014": 7981,
      "Ġconseguir": 7982,
      "jaros": 7983,
      "Ġtestigo": 7984,
      "Ġfotos": 7985,
      "Ġreyes": 7986,
      "ĠcompaÃ±eros": 7987,
      "Ġflores": 7988,
      "ida": 7989,
      "mine": 7990,
      "Ġdat": 7991,
      "Ġdabo": 7992,
      "Ġscon": 7993,
      "ciales": 7994,
      "Ġinnoc": 7995,
      "Ġoi": 7996,
      "bilem": 7997,
      "iles": 7998,
      "Ġalianza": 7999,
      "Ġocci": 8000,
      "2012": 8001,
      "ĠPaulus": 8002,
      "Ġvuln": 8003,
      "Ġsorores": 8004,
      "Ġcompleta": 8005,
      "Ġdejado": 8006,
      "Ġsatisfec": 8007,
      "Ġmandatum": 8008,
      "prehensi": 8009,
      "Ġestrellas": 8010,
      "ĠpreguntÃ³": 8011,
      "Ġinventore": 8012,
      "Ġscuola": 8013,
      "Ġdur": 8014,
      "cioso": 8015,
      "Ġquedan": 8016,
      "Ġdimit": 8017,
      "Ġsuel": 8018,
      "teranno": 8019,
      "Ġviri": 8020,
      "ĠanÃ¡lisis": 8021,
      "Ġdistancia": 8022,
      "Ã±ola": 8023,
      "Hace": 8024,
      "Ġcane": 8025,
      "Ġmortuos": 8026,
      "Ġmanifi": 8027,
      "Ġpraeconium": 8028,
      "ĠAugustinus": 8029,
      "edades": 8030,
      "sy": 8031,
      "Ġevangelio": 8032,
      "erar": 8033,
      "Ġliter": 8034,
      "Ġviva": 8035,
      "ĠEd": 8036,
      "Ġexcus": 8037,
      "Ġdiscu": 8038,
      "Ġtraduc": 8039,
      "cular": 8040,
      "Ġminim": 8041,
      "errami": 8042,
      "hodierna": 8043,
      "Ġchica": 8044,
      "Ġsexta": 8045,
      "Ġconvertir": 8046,
      "Ġnecessarium": 8047,
      "ĠEscrituras": 8048,
      "ĠArgentina": 8049,
      "69": 8050,
      "Eius": 8051,
      "LL": 8052,
      "VII": 8053,
      "fas": 8054,
      "yan": 8055,
      "ĠCI": 8056,
      "Ġbril": 8057,
      "Ġanun": 8058,
      "Ġmail": 8059,
      "Ġmuere": 8060,
      "ĠGen": 8061,
      "Ġcogni": 8062,
      "chezza": 8063,
      "Ġcasu": 8064,
      "ĠtenÃ©is": 8065,
      "Ġsecreta": 8066,
      "Ġmortal": 8067,
      "Ġhumanidad": 8068,
      "Ġirra": 8069,
      "ĠUnidos": 8070,
      "Ġinfir": 8071,
      "Ġgobierno": 8072,
      "ĠsarÃł": 8073,
      "Euro": 8074,
      "Lec": 8075,
      "Multa": 8076,
      "vÃ©": 8077,
      "Ġdona": 8078,
      "Ġloro": 8079,
      "Ã³nimo": 8080,
      "Ġservid": 8081,
      "Ġpreocupa": 8082,
      "ĠAlemania": 8083,
      "Ġabo": 8084,
      "ebam": 8085,
      "Ġfalsi": 8086,
      "Ġvirtute": 8087,
      "ĠmayorÃŃa": 8088,
      "ĠParÃŃs": 8089,
      "Formandi": 8090,
      "Ġayudarme": 8091,
      "Ġsignificat": 8092,
      "Ġrecuerda": 8093,
      "Ġtestatur": 8094,
      "ĠWikipedia": 8095,
      "Men": 8096,
      "llos": 8097,
      "Ġ!!": 8098,
      "Ġaesti": 8099,
      "Ġdejo": 8100,
      "Ġesencia": 8101,
      "dimus": 8102,
      "Ġtren": 8103,
      "Ġalmas": 8104,
      "ĠEN": 8105,
      "licae": 8106,
      "Ġnecesaria": 8107,
      "Ġgusto": 8108,
      "ĠSede": 8109,
      "Ġgustado": 8110,
      "Ã¨s": 8111,
      "ĠComun": 8112,
      "Ġfugiat": 8113,
      "Ġstesso": 8114,
      "ghi": 8115,
      "vus": 8116,
      "ymp": 8117,
      "arme": 8118,
      "ultad": 8119,
      "ĠCla": 8120,
      "ĠCÃ³mo": 8121,
      "terius": 8122,
      "Ġsignos": 8123,
      "viendo": 8124,
      "pado": 8125,
      "coli": 8126,
      "ĠGi": 8127,
      "Ġopere": 8128,
      "gracia": 8129,
      "Ġquaeri": 8130,
      "Ġocto": 8131,
      "Ġamiga": 8132,
      "Exemp": 8133,
      "ĠMarco": 8134,
      "Ġantiguo": 8135,
      "Ġrispon": 8136,
      "ĠUniversi": 8137,
      "Ġdesign": 8138,
      "Ġdiscor": 8139,
      "Ġintegra": 8140,
      "Ġinvestiga": 8141,
      "Ġcaeli": 8142,
      "Ġnumerosam": 8143,
      "Parece": 8144,
      "ĠLÃŃbano": 8145,
      "ĠInfierno": 8146,
      "Odio": 8147,
      "bÃŃ": 8148,
      "tationem": 8149,
      "ĠvisiÃ³n": 8150,
      "rius": 8151,
      "ariis": 8152,
      "Ġui": 8153,
      "Ġpotestate": 8154,
      "dicto": 8155,
      "Ġric": 8156,
      "Ġ45": 8157,
      "excus": 8158,
      "ĠMagis": 8159,
      "Ġultimo": 8160,
      "Secundum": 8161,
      "ĠVirgen": 8162,
      "Lat": 8163,
      "talis": 8164,
      "Ġmere": 8165,
      "ĠIns": 8166,
      "Ġapre": 8167,
      "ariam": 8168,
      "Ġcampos": 8169,
      "anitas": 8170,
      "Ġrecipi": 8171,
      "Ġcristiano": 8172,
      "ĠHebreo": 8173,
      "Ġrostro": 8174,
      "Ġdemonstra": 8175,
      "Iu": 8176,
      "Otros": 8177,
      "cÃ©s": 8178,
      "Ġï¿½": 8179,
      "Ġcine": 8180,
      "Ġremo": 8181,
      "bien": 8182,
      "Quot": 8183,
      "ĠCui": 8184,
      "Ġcombat": 8185,
      "Ãºlti": 8186,
      "inaje": 8187,
      "Ġalii": 8188,
      "alista": 8189,
      "Ġhabitantes": 8190,
      "ĠUN": 8191,
      "Ġbondad": 8192,
      "Ġmorales": 8193,
      "Ġenemigo": 8194,
      "ĠMensajes": 8195,
      "ĠMÃ©xico": 8196,
      "Ãªncia": 8197,
      "ĠescÃ¡ndalo": 8198,
      "Ġlimosna": 8199,
      "Gen": 8200,
      "apon": 8201,
      "gini": 8202,
      "hat": 8203,
      "Ġdoy": 8204,
      "espera": 8205,
      "Ġavi": 8206,
      "Ġpelo": 8207,
      "Ġdefecto": 8208,
      "Ġquarta": 8209,
      "ciae": 8210,
      "Ã©g": 8211,
      "Ġcuyo": 8212,
      "gium": 8213,
      "Ġverso": 8214,
      "Ġparola": 8215,
      "ĠIndi": 8216,
      "lamos": 8217,
      "cepto": 8218,
      "Ġcomprar": 8219,
      "2010": 8220,
      "Ġherencia": 8221,
      "Ġdoctr": 8222,
      "istit": 8223,
      "tillas": 8224,
      "ĠChristum": 8225,
      "Ġservus": 8226,
      "cionados": 8227,
      "Ġiudicia": 8228,
      "Ġmaravil": 8229,
      "Ġovejas": 8230,
      "Hac": 8231,
      "Lux": 8232,
      "OF": 8233,
      "Ġmenda": 8234,
      "ory": 8235,
      "untia": 8236,
      "Ã¡rio": 8237,
      "Ġsujet": 8238,
      "Ġredes": 8239,
      "ĠPad": 8240,
      "Ġprovoca": 8241,
      "Estu": 8242,
      "ensor": 8243,
      "duras": 8244,
      "ĠaquÃ©l": 8245,
      "Ġappeti": 8246,
      "Ġfacto": 8247,
      "ĠSex": 8248,
      "Ġquiso": 8249,
      "Ġvidete": 8250,
      "Ġessentiam": 8251,
      "ĠquiÃ©nes": 8252,
      "esiones": 8253,
      "Ġformula": 8254,
      "Ġcatho": 8255,
      "ĠEcclesiae": 8256,
      "Ġprovincia": 8257,
      "Ġpocos": 8258,
      "Ġ\\\"": 8259,
      "enim": 8260,
      "rieron": 8261,
      "itor": 8262,
      "ĠoÃŃr": 8263,
      "Ġgeni": 8264,
      "viera": 8265,
      "Ġactum": 8266,
      "ĠTar": 8267,
      "vez": 8268,
      "Ġass": 8269,
      "Ġfede": 8270,
      "Ġcompet": 8271,
      "Ġjulio": 8272,
      "Ġfines": 8273,
      "haec": 8274,
      "Ġdomina": 8275,
      "Ġexplicar": 8276,
      "ĠDomino": 8277,
      "ensione": 8278,
      "Ġequipo": 8279,
      "ĠIove": 8280,
      "Ġpertenece": 8281,
      "ĠprÃ¡ctica": 8282,
      "Ġdemocra": 8283,
      "Ġmovimiento": 8284,
      "AÃ±o": 8285,
      "Cel": 8286,
      "dul": 8287,
      "eis": 8288,
      "anal": 8289,
      "Ġindic": 8290,
      "date": 8291,
      "ĠSant": 8292,
      "Ġbla": 8293,
      "Ġadqui": 8294,
      "Ġancil": 8295,
      "Ġexpec": 8296,
      "Lab": 8297,
      "Ġtol": 8298,
      "Ġmiser": 8299,
      "Ġrecur": 8300,
      "Ġinvicem": 8301,
      "Ġmentium": 8302,
      "ĠEntonces": 8303,
      "Ġaparece": 8304,
      "CompÃ¡rtelo": 8305,
      "Em": 8306,
      "Sara": 8307,
      "Ġao": 8308,
      "orre": 8309,
      "ann": 8310,
      "Ġanteriores": 8311,
      "orado": 8312,
      "ĠRespon": 8313,
      "Ġdiscus": 8314,
      "Ġrapi": 8315,
      "dentur": 8316,
      "Ġdescendunt": 8317,
      "Ġfilium": 8318,
      "Ġfunciona": 8319,
      "ĠdarÃ¡": 8320,
      "Ġsalida": 8321,
      "Ġobliga": 8322,
      "Ġresurrectionis": 8323,
      "Ġpropias": 8324,
      "Ġllamada": 8325,
      "Ġobediencia": 8326,
      "Ġrecomi": 8327,
      "ĠCatho": 8328,
      "Ġdescubri": 8329,
      "Ġconuersionem": 8330,
      "sword": 8331,
      "ĠDaniel": 8332,
      "99": 8333,
      "Ima": 8334,
      "pam": 8335,
      "rere": 8336,
      "onum": 8337,
      "quos": 8338,
      "cium": 8339,
      "istere": 8340,
      "Ġlaud": 8341,
      "Ã¡logo": 8342,
      "ĠAma": 8343,
      "ĠIerusalem": 8344,
      "Ġpagar": 8345,
      "Ġserie": 8346,
      "cuius": 8347,
      "Ġcorreg": 8348,
      "Ġapor": 8349,
      "Ġmortis": 8350,
      "Ġcompra": 8351,
      "licos": 8352,
      "hare": 8353,
      "Ġdiversa": 8354,
      "tivae": 8355,
      "dicium": 8356,
      "Ġsuffragiis": 8357,
      "Gi": 8358,
      "Rerum": 8359,
      "sab": 8360,
      "Ġdebo": 8361,
      "Ġescon": 8362,
      "Ġincer": 8363,
      "Ġfar": 8364,
      "Ġquello": 8365,
      "ĠiPhone": 8366,
      "bimus": 8367,
      "Ġpersi": 8368,
      "Ġsive": 8369,
      "ĠParis": 8370,
      "ĠFara": 8371,
      "Ġnaves": 8372,
      "ĠBal": 8373,
      "ĠHon": 8374,
      "nare": 8375,
      "puestos": 8376,
      "Ġantepas": 8377,
      "buit": 8378,
      "serv": 8379,
      "Ġrealiza": 8380,
      "ordina": 8381,
      "tificaciÃ³n": 8382,
      "Ġexspec": 8383,
      "Ġcontactar": 8384,
      "Ġbauti": 8385,
      "80": 8386,
      "UI": 8387,
      "fon": 8388,
      "put": 8389,
      "ĠdetrÃ¡s": 8390,
      "uma": 8391,
      "Ã³cra": 8392,
      "Ġnondum": 8393,
      "vida": 8394,
      "Ġano": 8395,
      "ciaciÃ³n": 8396,
      "Ġpluri": 8397,
      "ĠUt": 8398,
      "Ġinflu": 8399,
      "Ã¨res": 8400,
      "ellendus": 8401,
      "Ġromana": 8402,
      "pendencia": 8403,
      "Ġcomunica": 8404,
      "Ġagrada": 8405,
      "Ġconsecuta": 8406,
      "Visita": 8407,
      "Ġexcelente": 8408,
      "ĠBuscar": 8409,
      "Bib": 8410,
      "we": 8411,
      "Ġeris": 8412,
      "arÃŃa": 8413,
      "Ġvemos": 8414,
      "ĠIX": 8415,
      "Ġvides": 8416,
      "tanos": 8417,
      "ĠFra": 8418,
      "ĠNic": 8419,
      "ĠOjos": 8420,
      "Ġpastores": 8421,
      "ventu": 8422,
      "Ġdives": 8423,
      "Ġnumerus": 8424,
      "ĠWord": 8425,
      "Ġtribun": 8426,
      "Ġintelligi": 8427,
      "Ġirri": 8428,
      "timum": 8429,
      "ĠmÃ¡ximo": 8430,
      "ĠBiblia": 8431,
      "ĠOmnes": 8432,
      "Ġdesidera": 8433,
      "Ġreprehenderit": 8434,
      "Ġquocunque": 8435,
      "Genes": 8436,
      "buntur": 8437,
      "tens": 8438,
      "Ġspes": 8439,
      "ÃŃm": 8440,
      "ĠEr": 8441,
      "ĠEbora": 8442,
      "ĠMundi": 8443,
      "Ġexpecta": 8444,
      "veris": 8445,
      "ĠReli": 8446,
      "ĠdivisiÃ³n": 8447,
      "ĠllamÃ³": 8448,
      "dines": 8449,
      "uada": 8450,
      "Ġfundas": 8451,
      "ĠPatre": 8452,
      "Pagina": 8453,
      "ĠÃģfrica": 8454,
      "Ġocurre": 8455,
      "Ġperpetuo": 8456,
      "Ġhablando": 8457,
      "enaventurados": 8458,
      "ÃĥO": 8459,
      "jam": 8460,
      "anes": 8461,
      "Ġhaz": 8462,
      "Ġtemas": 8463,
      "Ġsollici": 8464,
      "laman": 8465,
      "pula": 8466,
      "Sequi": 8467,
      "ĠtenÃŃan": 8468,
      "Ġfigu": 8469,
      "ficas": 8470,
      "Leer": 8471,
      "lidades": 8472,
      "ĠoperaciÃ³n": 8473,
      "Ġequivoca": 8474,
      "Ġiguales": 8475,
      "Ġaprov": 8476,
      "Ġresultados": 8477,
      "ĠincreÃŃble": 8478,
      "AP": 8479,
      "by": 8480,
      "hema": 8481,
      "ket": 8482,
      "ĠQ": 8483,
      "ÃŃc": 8484,
      "Ġviola": 8485,
      "trado": 8486,
      "Ġlascer": 8487,
      "Ġsalve": 8488,
      "grama": 8489,
      "Ġutique": 8490,
      "pure": 8491,
      "parte": 8492,
      "rases": 8493,
      "blea": 8494,
      "HabÃŃa": 8495,
      "Ġutile": 8496,
      "Ġtesoro": 8497,
      "Ġministro": 8498,
      "Ġuniversal": 8499,
      "Ġconscientia": 8500,
      "ĠlascerÃł": 8501,
      "',": 8502,
      "Ulti": 8503,
      "vent": 8504,
      "ym": 8505,
      "tivis": 8506,
      "ciente": 8507,
      "ĠbÃºsqueda": 8508,
      "EspaÃ±a": 8509,
      "mido": 8510,
      "Ġpob": 8511,
      "tissimo": 8512,
      "giÃ³": 8513,
      "âĢĿ?": 8514,
      "Ġverbis": 8515,
      "ĠVene": 8516,
      "Ġdistribu": 8517,
      "Porro": 8518,
      "Ġcognoscat": 8519,
      "Ġplane": 8520,
      "Ġvincti": 8521,
      "truzione": 8522,
      "ĠprÃ³ximo": 8523,
      "Ġpedir": 8524,
      "ĠunirÃł": 8525,
      "Ġgallinas": 8526,
      "ĠAntiguo": 8527,
      "ĠConcilio": 8528,
      "Ġdiventeranno": 8529,
      "Ġapetito": 8530,
      "Tes": 8531,
      "fal": 8532,
      "ĠcÃ¡n": 8533,
      "Ġinvenit": 8534,
      "ĠAus": 8535,
      "Ġtest": 8536,
      "ĠCer": 8537,
      "turos": 8538,
      "Ġbal": 8539,
      "Ġexpositio": 8540,
      "Ġdespe": 8541,
      "Ġactos": 8542,
      "Ġaug": 8543,
      "ĠGio": 8544,
      "Ġapelli": 8545,
      "Ġcoo": 8546,
      "gundo": 8547,
      "Ġimpro": 8548,
      "Ġnecesitas": 8549,
      "minatus": 8550,
      "ĠRevel": 8551,
      "Ġembara": 8552,
      "Ġinfernum": 8553,
      "Ġpensamiento": 8554,
      "ĠbendiciÃ³n": 8555,
      "Ġinteligencia": 8556,
      "ĠPilato": 8557,
      "Ġcrimen": 8558,
      "eÃ±a": 8559,
      "nde": 8560,
      "rÃ©s": 8561,
      "Ġcentum": 8562,
      "Ġnim": 8563,
      "Ġdigno": 8564,
      "emas": 8565,
      "vile": 8566,
      "Ġtec": 8567,
      "ĠBas": 8568,
      "ĠHom": 8569,
      "ĠHombre": 8570,
      "Ġamica": 8571,
      "Conf": 8572,
      "Illa": 8573,
      "Ġpresidente": 8574,
      "ĠUbi": 8575,
      "Ġdiligendi": 8576,
      "Tamen": 8577,
      "ĠinterpretaciÃ³n": 8578,
      "Ġhumildad": 8579,
      "Ġdisponible": 8580,
      "Ġsanguine": 8581,
      "ĠâĤ¬": 8582,
      "Ġfratello": 8583,
      "lori": 8584,
      "Ġspon": 8585,
      "Ġmia": 8586,
      "Ġnymp": 8587,
      "lizaciÃ³n": 8588,
      "Ġforas": 8589,
      "ĠPue": 8590,
      "temente": 8591,
      "omines": 8592,
      "Ġpura": 8593,
      "Ġcaris": 8594,
      "Ġrique": 8595,
      "ĠXII": 8596,
      "ĠExite": 8597,
      "ĠLiber": 8598,
      "Ġtemporal": 8599,
      "vious": 8600,
      "Ġmedicina": 8601,
      "Ġelementos": 8602,
      "ĠPhara": 8603,
      "Mer": 8604,
      "Tomo": 8605,
      "cÃ©": 8606,
      "gÃ©n": 8607,
      "uisti": 8608,
      "reas": 8609,
      "ĠCos": 8610,
      "Ġmito": 8611,
      "tembre": 8612,
      "Ġservo": 8613,
      "ĠRi": 8614,
      "Ġcorrer": 8615,
      "Ġ:)": 8616,
      "Ġ32": 8617,
      "Ġdomande": 8618,
      "Ġhomici": 8619,
      "Ġhice": 8620,
      "Ġtentaverit": 8621,
      "Ġproducto": 8622,
      "CuÃ¡ntas": 8623,
      "Ġfemina": 8624,
      "Ġrequiere": 8625,
      "Ġresponsabilidad": 8626,
      "ĠRevelamini": 8627,
      "Via": 8628,
      "Vesti": 8629,
      "bera": 8630,
      "ign": 8631,
      "ĠatenciÃ³n": 8632,
      "tienen": 8633,
      "Ġsulla": 8634,
      "Ġreb": 8635,
      "ĠbritÃ¡n": 8636,
      "Ġprodi": 8637,
      "Ã±ado": 8638,
      "tantia": 8639,
      "Escu": 8640,
      "rantes": 8641,
      "culi": 8642,
      "ĠconstrucciÃ³n": 8643,
      "Ġpersu": 8644,
      "Ġsalven": 8645,
      "Ġoffer": 8646,
      "ĠEurope": 8647,
      "Ġexcusa": 8648,
      "Ġpeccati": 8649,
      "Ġrevelado": 8650,
      "ĠGranada": 8651,
      "Ġofrece": 8652,
      "Ġiacentis": 8653,
      "Ġnymphas": 8654,
      "70": 8655,
      "CH": 8656,
      "IX": 8657,
      "ay": 8658,
      "sino": 8659,
      "vÃ¡n": 8660,
      "zzi": 8661,
      "Ġdex": 8662,
      "Ġhunc": 8663,
      "Ġcontat": 8664,
      "Ġdientes": 8665,
      "Ġdific": 8666,
      "vitas": 8667,
      "Ġtudo": 8668,
      "Ġmutare": 8669,
      "Ġpariatur": 8670,
      "Ġtama": 8671,
      "Ġhayan": 8672,
      "Ġ34": 8673,
      "Ġmors": 8674,
      "Ġsacra": 8675,
      "2015": 8676,
      "Ġsanta": 8677,
      "Ġdopo": 8678,
      "Ġleyes": 8679,
      "Ġdemonios": 8680,
      "ĠaÃ±adido": 8681,
      "ĠunirÃ¡": 8682,
      "Ġgiovan": 8683,
      "Ġdivertiti": 8684,
      "Indipendentemente": 8685,
      "61": 8686,
      "uf": 8687,
      "Ġces": 8688,
      "Ġmenses": 8689,
      "citas": 8690,
      "Ġnn": 8691,
      "ĠAf": 8692,
      "ĠDO": 8693,
      "Ġcomed": 8694,
      "Ġaltri": 8695,
      "Ġcielos": 8696,
      "Ġcoelo": 8697,
      "Ġpuro": 8698,
      "Ġcasos": 8699,
      "damus": 8700,
      "uelve": 8701,
      "Ġcognoscit": 8702,
      "Ġdistingu": 8703,
      "Ġcausae": 8704,
      "Ġdelectus": 8705,
      "ĠpequeÃ±a": 8706,
      "Ġrecomenda": 8707,
      "Ġobjetivo": 8708,
      "Amo": 8709,
      "Tras": 8710,
      "[[": 8711,
      "loria": 8712,
      "antia": 8713,
      "ÃŃtica": 8714,
      "Ġnovis": 8715,
      "ĠTerra": 8716,
      "Ġcodi": 8717,
      "Ġterren": 8718,
      "nium": 8719,
      "ĠAngel": 8720,
      "2013": 8721,
      "zaron": 8722,
      "Ġderecha": 8723,
      "Ġimportantes": 8724,
      "Ġgenerales": 8725,
      "Ġdalle": 8726,
      "Ġvisitar": 8727,
      "Ġhabitabat": 8728,
      "Ġlarga": 8729,
      "Ġtribulatione": 8730,
      "03": 8731,
      "Tri": 8732,
      "ples": 8733,
      "zios": 8734,
      "Ġlinaje": 8735,
      "Ġenv": 8736,
      "ditos": 8737,
      "ĠCicer": 8738,
      "Ġdeserto": 8739,
      "Ġpoenas": 8740,
      "ĠmisiÃ³n": 8741,
      "vare": 8742,
      "Ġaudit": 8743,
      "Ġaqua": 8744,
      "Ġpassword": 8745,
      "Ġfuertes": 8746,
      "Ġanimalia": 8747,
      "ĠNoÃ©": 8748,
      "Ã³logo": 8749,
      "Ġbaja": 8750,
      "Ġabierto": 8751,
      "Ġsimiles": 8752,
      "Ġpuellae": 8753,
      "Mem": 8754,
      "ppi": 8755,
      "ventos": 8756,
      "Ã©ro": 8757,
      "Ġty": 8758,
      "Questo": 8759,
      "ĠMora": 8760,
      "eth": 8761,
      "Ġacon": 8762,
      "Ġaccidit": 8763,
      "torios": 8764,
      "Ġcreador": 8765,
      "pete": 8766,
      "Ġdiscri": 8767,
      "Ġsusp": 8768,
      "Ġpassi": 8769,
      "Ġ39": 8770,
      "Ġpatre": 8771,
      "ĠSicilia": 8772,
      "Ġimmedia": 8773,
      "Ġcreavit": 8774,
      "Potest": 8775,
      "ĠMedia": 8776,
      "Ġpaciente": 8777,
      "ĠBarcelona": 8778,
      "Ġcontesta": 8779,
      "ĠProfeta": 8780,
      "CU": 8781,
      "Ġquic": 8782,
      "Ġdiu": 8783,
      "Ġnovo": 8784,
      "lej": 8785,
      "ĠCir": 8786,
      "Ġtecum": 8787,
      "Ġdespre": 8788,
      "ĠtomÃ³": 8789,
      "giÃ³n": 8790,
      "Ġcredit": 8791,
      "Entra": 8792,
      "Entrada": 8793,
      "Ġconsenti": 8794,
      "Ġpredica": 8795,
      "medi": 8796,
      "ĠhabitaciÃ³n": 8797,
      "ArtÃŃculos": 8798,
      "Ġllaman": 8799,
      "etates": 8800,
      "Ġreligiones": 8801,
      "Ġlitur": 8802,
      "prend": 8803,
      "Ġsancti": 8804,
      "Ġstul": 8805,
      "Ġnecessitatibus": 8806,
      "555": 8807,
      "Ġthesa": 8808,
      "Ġcogita": 8809,
      "Ġpouco": 8810,
      "Nuestra": 8811,
      "Padre": 8812,
      "__": 8813,
      "Ġdra": 8814,
      "Ġafec": 8815,
      "Ġavis": 8816,
      "Ġojo": 8817,
      "Ġreperi": 8818,
      "Ġnonne": 8819,
      "cate": 8820,
      "ĠMadre": 8821,
      "Ġletras": 8822,
      "verat": 8823,
      "entario": 8824,
      "ĠObis": 8825,
      "ĠvolviÃ³": 8826,
      "ĠdecisiÃ³n": 8827,
      "ĠsabÃ©is": 8828,
      "Direc": 8829,
      "ĠAnd": 8830,
      "Ġdolus": 8831,
      "Ġnumquid": 8832,
      "Ġmodera": 8833,
      "Ġdivertido": 8834,
      "Consequ": 8835,
      "Ġpermite": 8836,
      "Ġcorresponde": 8837,
      "Ġolvidar": 8838,
      "Ġentren": 8839,
      "Ep": 8840,
      "Otra": 8841,
      "Ġfantas": 8842,
      "ellas": 8843,
      "Ã³nica": 8844,
      "Ġperdere": 8845,
      "utto": 8846,
      "uesta": 8847,
      "Ġacusa": 8848,
      "Ã©ndose": 8849,
      "Ġconsulta": 8850,
      "Ġlleguen": 8851,
      "Ġmentiras": 8852,
      "ĠQuam": 8853,
      "ĠQuomodo": 8854,
      "Comparte": 8855,
      "Ġamare": 8856,
      "ĠMedio": 8857,
      "Ġinferni": 8858,
      "Ġaiuta": 8859,
      "Ġreconcilia": 8860,
      "Ġiustus": 8861,
      "ĠFaraÃ³n": 8862,
      "%.": 8863,
      "68": 8864,
      "SE": 8865,
      "psis": 8866,
      "tene": 8867,
      "yes": 8868,
      "ont": 8869,
      "taglia": 8870,
      "tif": 8871,
      "Ġenfr": 8872,
      "Ã©m": 8873,
      "Ġset": 8874,
      "Ġoli": 8875,
      "Ġaliter": 8876,
      "poso": 8877,
      "Ġcotidie": 8878,
      "Ġtempus": 8879,
      "Ġresponsum": 8880,
      "Ġinvol": 8881,
      "142": 8882,
      "etatis": 8883,
      "Recuer": 8884,
      "Ġmodelo": 8885,
      "Ġadorar": 8886,
      "2009": 8887,
      "Ġexemplum": 8888,
      "Ġganar": 8889,
      "ĠSecreta": 8890,
      "ĠVillar": 8891,
      "ght": 8892,
      "Ġesfuerzo": 8893,
      "75": 8894,
      "bero": 8895,
      "plo": 8896,
      "zz": 8897,
      "Ġpran": 8898,
      "Ġcens": 8899,
      "Ġesco": 8900,
      "Ġdicatur": 8901,
      "Ġquieras": 8902,
      "ĠSta": 8903,
      "ĠMac": 8904,
      "Ġtiran": 8905,
      "Ġaccount": 8906,
      "Ġartes": 8907,
      "Ġmanten": 8908,
      "Ġcorda": 8909,
      "Ġpotestatem": 8910,
      "Ġbenefici": 8911,
      "Ġcuidado": 8912,
      "Ġordenado": 8913,
      "Ġvestimenta": 8914,
      "Ġmateriales": 8915,
      "Ġacepta": 8916,
      "Ġimperio": 8917,
      "ĠtÃ©rminos": 8918,
      "ĠCiudad": 8919,
      "Mal": 8920,
      "Nisi": 8921,
      "Tum": 8922,
      "Ġquere": 8923,
      "amur": 8924,
      "Ġiuris": 8925,
      "Ġsucede": 8926,
      "Ġrepara": 8927,
      "Ġger": 8928,
      "teros": 8929,
      "vier": 8930,
      "pita": 8931,
      "Esper": 8932,
      "Nota": 8933,
      "Ãºl": 8934,
      "Ġserio": 8935,
      "ponitur": 8936,
      "Ġparentes": 8937,
      "Ġcarnem": 8938,
      "manes": 8939,
      "Ġhumanas": 8940,
      "Ġaudiat": 8941,
      "Ġaudiant": 8942,
      "ritto": 8943,
      "Ã©rer": 8944,
      "Ġnombres": 8945,
      "Ġactuali": 8946,
      "Ġmultiplica": 8947,
      "Ġlimita": 8948,
      "Ġconclusi": 8949,
      "Ġadversus": 8950,
      "Beati": 8951,
      "Ġprometido": 8952,
      "Ġcostumbre": 8953,
      "Ġengend": 8954,
      "95": 8955,
      "Due": 8956,
      "DAD": 8957,
      "ĠâĢĿ": 8958,
      "Ġspiritus": 8959,
      "lique": 8960,
      "roga": 8961,
      "Ġcontado": 8962,
      "itÃ©": 8963,
      "Ġretra": 8964,
      "Ġgre": 8965,
      "entÃ³": 8966,
      "viles": 8967,
      "ĠPhilosoph": 8968,
      "Ġprocura": 8969,
      "Ġportanto": 8970,
      "Ġlegitur": 8971,
      "vertir": 8972,
      "Ġsustancia": 8973,
      "consi": 8974,
      "Ġnegli": 8975,
      "Ġ37": 8976,
      "Ġfaciat": 8977,
      "ĠAnte": 8978,
      "Ġpersonali": 8979,
      "Ġderni": 8980,
      "Ġsexto": 8981,
      "ĠediciÃ³n": 8982,
      "Ġmaterial": 8983,
      "Ġpoterat": 8984,
      "Ġofficium": 8985,
      "Ġolvido": 8986,
      "Ġconclusiones": 8987,
      "ĠpapÃ¡": 8988,
      "fficile": 8989,
      "oooooooo": 8990,
      "Ġabsoluto": 8991,
      "ĠvÃŃdeo": 8992,
      "Ġcorreggere": 8993,
      "Sup": 8994,
      "Trans": 8995,
      "tente": 8996,
      "ral": 8997,
      "Ġmic": 8998,
      "Ġetern": 8999,
      "Ġcondem": 9000,
      "Ġtunc": 9001,
      "olas": 9002,
      "ĠIra": 9003,
      "cados": 9004,
      "vitatem": 9005,
      "ĠEucaris": 9006,
      "Ġdesen": 9007,
      "pito": 9008,
      "Novi": 9009,
      "Ġcabo": 9010,
      "sola": 9011,
      "Ġomne": 9012,
      "rimas": 9013,
      "Ġ60": 9014,
      "Ġagit": 9015,
      "ĠCap": 9016,
      "Ġinicio": 9017,
      "ĠLibano": 9018,
      "ĠÃ¡ra": 9019,
      "ĠMujer": 9020,
      "Dixitque": 9021,
      "Tutti": 9022,
      "cterÃŃsticas": 9023,
      "nologÃŃa": 9024,
      "ĠÃŃdo": 9025,
      "ĠsÃ³": 9026,
      "esÃ¹": 9027,
      "Ġconminatus": 9028,
      "Ġdiversidad": 9029,
      "viene": 9030,
      "Ġvidisti": 9031,
      "fir": 9032,
      "ĠTemp": 9033,
      "rubia": 9034,
      "Ġlucha": 9035,
      "Ġimago": 9036,
      "Ġvocem": 9037,
      "Ġlenguas": 9038,
      "SerÃ¡": 9039,
      "Ġpolitica": 9040,
      "Ġsiglo": 9041,
      "Ġbrilla": 9042,
      "Adi": 9043,
      "Cat": 9044,
      "Plan": 9045,
      "Ġaere": 9046,
      "ang": 9047,
      "ĠAlex": 9048,
      "edu": 9049,
      "Enim": 9050,
      "Ġambas": 9051,
      "Ġmantener": 9052,
      "tria": 9053,
      "Ġcompre": 9054,
      "Ġconfiar": 9055,
      "uoi": 9056,
      "Secunda": 9057,
      "durre": 9058,
      "primo": 9059,
      "Ton": 9060,
      "dy": 9061,
      "decer": 9062,
      "eius": 9063,
      "mia": 9064,
      "tbol": 9065,
      "vat": 9066,
      "ĠðŁ": 9067,
      "Ġlatin": 9068,
      "Ġreuni": 9069,
      "ĠSci": 9070,
      "Ġbr": 9071,
      "Ġactiva": 9072,
      "citÃ³": 9073,
      "Ġcorona": 9074,
      "Ġducit": 9075,
      "Ġgrazie": 9076,
      "parti": 9077,
      "Ġgeneros": 9078,
      "Ġsemine": 9079,
      "Person": 9080,
      "ĠLeo": 9081,
      "Ġagente": 9082,
      "Ġdonna": 9083,
      "Ġeleva": 9084,
      "Ġaff": 9085,
      "Ġmemori": 9086,
      "torial": 9087,
      "Ġclases": 9088,
      "Ġacaba": 9089,
      "Ġintellectu": 9090,
      "Ġhumanae": 9091,
      "ĠSEO": 9092,
      "Ġimpii": 9093,
      "Ġabsoluta": 9094,
      "ĠsÃ¡bado": 9095,
      "Ġfuese": 9096,
      "ĠAlleluia": 9097,
      "nica": 9098,
      "Ġdebajo": 9099,
      "rix": 9100,
      "Ã¡m": 9101,
      "ĠSub": 9102,
      "Ġaddi": 9103,
      "Ġacceper": 9104,
      "Ġservos": 9105,
      "ĠâĢº": 9106,
      "vous": 9107,
      "loso": 9108,
      "Ġdicas": 9109,
      "Ġterre": 9110,
      "Ġpugn": 9111,
      "Ġquotidie": 9112,
      "Ġautori": 9113,
      "ficina": 9114,
      "ĠMaps": 9115,
      "Ġsufficit": 9116,
      "Ġfrutos": 9117,
      "diÃ³s": 9118,
      "Ġextran": 9119,
      "Ġtestimonia": 9120,
      "ĠpequeÃ±os": 9121,
      "Ġentiendo": 9122,
      "ĠTodo": 9123,
      "Ġeventos": 9124,
      "Ġsellam": 9125,
      "zamos": 9126,
      "Ġlinea": 9127,
      "teli": 9128,
      "Ġvender": 9129,
      "riam": 9130,
      "ĠIbrahim": 9131,
      "ents": 9132,
      "vido": 9133,
      "Ġadmit": 9134,
      "Ġdeser": 9135,
      "Encuent": 9136,
      "eniti": 9137,
      "Sex": 9138,
      "Ġnecesito": 9139,
      "Ġfiesta": 9140,
      "Ġprometi": 9141,
      "Ġiudica": 9142,
      "ĠNaciÃ³n": 9143,
      "Ġrepet": 9144,
      "Ġulti": 9145,
      "Ġutilis": 9146,
      "ENT": 9147,
      "Ġacercar": 9148,
      "Ġdiscre": 9149,
      "Ġpane": 9150,
      "ĠdejÃ³": 9151,
      "Ġterritorio": 9152,
      "Ġdocumento": 9153,
      "Ġgentiles": 9154,
      "Ġeclesi": 9155,
      "ĠridÃŃculo": 9156,
      "Eu": 9157,
      "aqu": 9158,
      "ss": 9159,
      "Ġhechas": 9160,
      "Ġfos": 9161,
      "Ġenf": 9162,
      "Ġnove": 9163,
      "ĠSI": 9164,
      "Ġcommis": 9165,
      "ĠEL": 9166,
      "charis": 9167,
      "ĠVis": 9168,
      "Ġprimeras": 9169,
      "Ġconsili": 9170,
      "Ġmense": 9171,
      "Ġpartici": 9172,
      "Ġcognosces": 9173,
      "Ġirre": 9174,
      "Ġjustifica": 9175,
      "Ġguardar": 9176,
      "Libro": 9177,
      "Ġaspernatur": 9178,
      "Ġimponunt": 9179,
      "?'": 9180,
      "Tan": 9181,
      "orca": 9182,
      "Ġnup": 9183,
      "arma": 9184,
      "Ġingredi": 9185,
      "âĢī": 9186,
      "Ġaltro": 9187,
      "ĠEdi": 9188,
      "ĠtelÃ©": 9189,
      "ĠMul": 9190,
      "baudi": 9191,
      "ĠTim": 9192,
      "Deb": 9193,
      "deris": 9194,
      "Ġforta": 9195,
      "Ġpraedi": 9196,
      "Ġanimae": 9197,
      "Ġitaliano": 9198,
      "Ġpromissionem": 9199,
      "Ġcalendario": 9200,
      "Mujer": 9201,
      "ĠcatÃ³": 9202,
      "Ġperpetua": 9203,
      "ĠinvestigaciÃ³n": 9204,
      "ĠSeptem": 9205,
      "Im": 9206,
      "Ness": 9207,
      "gues": 9208,
      "gante": 9209,
      "multa": 9210,
      "roni": 9211,
      "sur": 9212,
      "Ġechar": 9213,
      "tuit": 9214,
      "ÃŃda": 9215,
      "decir": 9216,
      "Ġsuos": 9217,
      "Ġtuya": 9218,
      "Ġcujus": 9219,
      "Ġcabel": 9220,
      "entados": 9221,
      "ĠLet": 9222,
      "Ġcredis": 9223,
      "cua": 9224,
      "Siento": 9225,
      "Sigue": 9226,
      "Ġpredic": 9227,
      "ĠOra": 9228,
      "Ġopciones": 9229,
      "ucle": 9230,
      "Ġinstruc": 9231,
      "Ġ2004": 9232,
      "ĠescribiÃ³": 9233,
      "Ġdefin": 9234,
      "Ġdefensa": 9235,
      "Ġrobo": 9236,
      "Ġdormit": 9237,
      "Ġqueremos": 9238,
      "Ġbelle": 9239,
      "Ġequitant": 9240,
      "Ġesperando": 9241,
      "Ġconvierte": 9242,
      "Ġpericulo": 9243,
      "Ġjuzgar": 9244,
      "Ġefectos": 9245,
      "ĠVillarrubia": 9246,
      "UB": 9247,
      "Ġequ": 9248,
      "Ġejer": 9249,
      "Ġderi": 9250,
      "esÃŃa": 9251,
      "inten": 9252,
      "lix": 9253,
      "dijo": 9254,
      "ĠDÃ©": 9255,
      "Ġreales": 9256,
      "Ġlocus": 9257,
      "Ġand": 9258,
      "Ãºtbol": 9259,
      "ĠposesiÃ³n": 9260,
      "Ġfuere": 9261,
      "Ġtamquam": 9262,
      "Ġgrado": 9263,
      "Ġerra": 9264,
      "jaja": 9265,
      "vantes": 9266,
      "Ġdivinae": 9267,
      "ĠformaciÃ³n": 9268,
      "Ġconfia": 9269,
      "Ġmoles": 9270,
      "Ġpuerum": 9271,
      "Ġfron": 9272,
      "Ġvoluntas": 9273,
      "ÃŃodo": 9274,
      "2006": 9275,
      "Ġministros": 9276,
      "ĠImperio": 9277,
      "ĠJohn": 9278,
      "Ġexalta": 9279,
      "Press": 9280,
      "Ġprocedit": 9281,
      "ĠNumquid": 9282,
      "Ġrecordar": 9283,
      "ĠIudae": 9284,
      "ĠProphe": 9285,
      "Ġlitteras": 9286,
      "ĠSamuel": 9287,
      "Ġmysterium": 9288,
      "Descubre": 9289,
      "MI": 9290,
      "Nuestros": 9291,
      "eu": 9292,
      "Ġearum": 9293,
      "erint": 9294,
      "tuario": 9295,
      "Ġeno": 9296,
      "dicit": 9297,
      "ÃŃe": 9298,
      "Ġdili": 9299,
      "ĠAbra": 9300,
      "Ġsupera": 9301,
      "Ġrecipit": 9302,
      "Ġpropositum": 9303,
      "duzca": 9304,
      "Ġsocio": 9305,
      "ĠNam": 9306,
      "ĠÃ©poca": 9307,
      "Ġfuente": 9308,
      "Ġtercer": 9309,
      "Ġtandem": 9310,
      "alistas": 9311,
      "Ġelecciones": 9312,
      "ĠUniÃ³n": 9313,
      "Ġfuncion": 9314,
      "Ġcorazones": 9315,
      "Ġcumplir": 9316,
      "Ã¡cter": 9317,
      "ĠGermania": 9318,
      "ĠRuss": 9319,
      "Ġepisto": 9320,
      "Ġcrucifi": 9321,
      "Ġperducit": 9322,
      "Ġbattaglia": 9323,
      "ĠtamaÃ±o": 9324,
      "Ro": 9325,
      "Roma": 9326,
      "gicas": 9327,
      "nus": 9328,
      "late": 9329,
      "ĠAarÃ³n": 9330,
      "bierto": 9331,
      "Ġgeo": 9332,
      "Ġcomb": 9333,
      "Ġactri": 9334,
      "Ġnostros": 9335,
      "Ġhabuit": 9336,
      "Ġsopor": 9337,
      "Ġsustin": 9338,
      "Ġamice": 9339,
      "Ġambula": 9340,
      "sobre": 9341,
      "Ġobvia": 9342,
      "Ġpiensa": 9343,
      "minar": 9344,
      "Illo": 9345,
      "ĠelectrÃ³nicoMe": 9346,
      "Ġsocie": 9347,
      "Ġcambia": 9348,
      "tificado": 9349,
      "Publica": 9350,
      "Ġpermanece": 9351,
      "Ġdormire": 9352,
      "Chris": 9353,
      "Ġfilosofia": 9354,
      "ĠSocial": 9355,
      "Ġcontempla": 9356,
      "Ġcolazione": 9357,
      "Ġcreatoris": 9358,
      "Ġbonito": 9359,
      "ĠCongregaciÃ³n": 9360,
      "Ġempezar": 9361,
      "AhÃŃ": 9362,
      "hol": 9363,
      "Ġholoca": 9364,
      "Ġfen": 9365,
      "Ġgla": 9366,
      "Ġsientes": 9367,
      "Ġexpul": 9368,
      "Dei": 9369,
      "Ġcita": 9370,
      "ĠGuerra": 9371,
      "Ġ::": 9372,
      "forme": 9373,
      "rimus": 9374,
      "Ġhabito": 9375,
      "ĠQuod": 9376,
      "EstÃ¡n": 9377,
      "Ġconfundi": 9378,
      "ĠlibertÃł": 9379,
      "Ġemperador": 9380,
      "ĠAscend": 9381,
      "Ġmembra": 9382,
      "Ġboda": 9383,
      "Ġtemer": 9384,
      "Ġexspecta": 9385,
      "Ġdemonio": 9386,
      "Ġvuol": 9387,
      "Ġarchitecto": 9388,
      "ĠpelÃŃcula": 9389,
      "Igitur": 9390,
      "hoc": 9391,
      "tunc": 9392,
      "ubi": 9393,
      "xx": 9394,
      "Ġstat": 9395,
      "unio": 9396,
      "Ġunius": 9397,
      "Ġsuelo": 9398,
      "temur": 9399,
      "ĠFeb": 9400,
      "ĠVe": 9401,
      "Ġsuscipi": 9402,
      "conÃ³m": 9403,
      "Ġpasiones": 9404,
      "ĠEstados": 9405,
      "Ġplante": 9406,
      "Ġpide": 9407,
      "Ġsimpli": 9408,
      "endat": 9409,
      "Ġbeneficio": 9410,
      "Ġpersonae": 9411,
      "Ġmolti": 9412,
      "super": 9413,
      "Ġmerece": 9414,
      "App": 9415,
      "Ġsabio": 9416,
      "David": 9417,
[...]
